{
  "version": "1.0",
  "truncation": null,
  "padding": null,
  "added_tokens": [],
  "normalizer": {
    "type": "Sequence",
    "normalizers": [
      {
        "type": "Prepend",
        "prepend": "▁"
      },
      {
        "type": "Replace",
        "pattern": {
          "String": " "
        },
        "content": "▁"
      }
    ]
  },
  "pre_tokenizer": null,
  "post_processor": null,
  "decoder": {
    "type": "Sequence",
    "decoders": [
      {
        "type": "Replace",
        "pattern": {
          "String": "▁"
        },
        "content": " "
      },
      {
        "type": "ByteFallback"
      },
      {
        "type": "Fuse"
      },
      {
        "type": "Strip",
        "content": " ",
        "start": 1,
        "stop": 0
      }
    ]
  },
  "model": {
    "type": "BPE",
    "dropout": null,
    "unk_token": null,
    "continuing_subword_prefix": null,
    "end_of_word_suffix": null,
    "fuse_unk": true,
    "byte_fallback": true,
    "vocab": {
      "▁t": 0,
      "er": 1,
      "in": 2,
      "▁a": 3,
      "en": 4,
      "on": 5,
      "▁th": 6,
      "es": 7,
      "▁s": 8,
      "▁d": 9,
      "at": 10,
      "or": 11,
      "an": 12,
      "▁c": 13,
      "is": 14,
      "re": 15,
      "it": 16,
      "▁the": 17,
      "ar": 18,
      "le": 19,
      "▁w": 20,
      "▁p": 21,
      "ou": 22,
      "al": 23,
      "▁f": 24,
      "▁m": 25,
      "ed": 26,
      "▁o": 27,
      "▁b": 28,
      "om": 29,
      "ion": 30,
      "ing": 31,
      "ic": 32,
      "as": 33,
      "el": 34,
      "ent": 35,
      "▁in": 36,
      "▁h": 37,
      "nd": 38,
      "et": 39,
      "▁l": 40,
      "▁n": 41,
      "st": 42,
      "▁to": 43,
      "ch": 44,
      "ro": 45,
      "il": 46,
      "▁of": 47,
      "de": 48,
      "ct": 49,
      "am": 50,
      "▁de": 51,
      "▁u": 52,
      "▁e": 53,
      "▁and": 54,
      "ol": 55,
      "▁v": 56,
      "im": 57,
      "ot": 58,
      "ad": 59,
      "ut": 60,
      "▁g": 61,
      "em": 62,
      "ur": 63,
      "id": 64,
      "ig": 65,
      "ra": 66,
      "▁re": 67,
      "▁is": 68,
      "qu": 69,
      "ow": 70,
      "est": 71,
      "▁y": 72,
      "se": 73,
      "ve": 74,
      "ce": 75,
      "ie": 76,
      "un": 77,
      "ag": 78,
      "ul": 79,
      "he": 80,
      "end": 81,
      "ode": 82,
      "ter": 83,
      "ment": 84,
      "os": 85,
      "if": 86,
      "ation": 87,
      "▁for": 88,
      "▁r": 89,
      "▁you": 90,
      "▁be": 91,
      "ly": 92,
      "ver": 93,
      "ab": 94,
      "te": 95,
      "▁it": 96,
      "▁on": 97,
      "ri": 98,
      "us": 99,
      "▁wh": 100,
      "▁con": 101,
      "▁st": 102,
      "ir": 103,
      "ck": 104,
      "▁an": 105,
      "th": 106,
      "eg": 107,
      "ay": 108,
      "ith": 109,
      "ist": 110,
      "and": 111,
      "▁that": 112,
      "▁al": 113,
      "od": 114,
      "um": 115,
      "ht": 116,
      "code": 117,
      "ate": 118,
      "ess": 119,
      "ere": 120,
      "pp": 121,
      "▁as": 122,
      "▁se": 123,
      "▁pro": 124,
      "▁with": 125,
      "pe": 126,
      "▁k": 127,
      "ers": 128,
      "pt": 129,
      "lo": 130,
      "▁com": 131,
      "ame": 132,
      "ia": 133,
      "ant": 134,
      "▁la": 135,
      "▁en": 136,
      "ction": 137,
      "▁ex": 138,
      "ld": 139,
      "ub": 140,
      "▁j": 141,
      "la": 142,
      "ue": 143,
      "ich": 144,
      "▁do": 145,
      "▁qu": 146,
      "iv": 147,
      "ort": 148,
      "art": 149,
      "▁un": 150,
      "▁this": 151,
      "ke": 152,
      "▁ha": 153,
      "out": 154,
      "▁not": 155,
      "▁ne": 156,
      "ill": 157,
      "▁le": 158,
      "ci": 159,
      "rom": 160,
      "ine": 161,
      "op": 162,
      "egin": 163,
      "begin": 164,
      "ass": 165,
      "iz": 166,
      "og": 167,
      "▁or": 168,
      "▁was": 169,
      "▁at": 170,
      "our": 171,
      "▁i": 172,
      "ain": 173,
      "ge": 174,
      "▁su": 175,
      "ap": 176,
      "age": 177,
      "ould": 178,
      "ne": 179,
      "av": 180,
      "xt": 181,
      "ore": 182,
      "ile": 183,
      "▁by": 184,
      "li": 185,
      "ath": 186,
      "ber": 187,
      "ach": 188,
      "all": 189,
      "ult": 190,
      "▁us": 191,
      "▁z": 192,
      "ust": 193,
      "▁have": 194,
      "lic": 195,
      "▁can": 196,
      "tr": 197,
      "com": 198,
      "ind": 199,
      "ell": 200,
      "▁from": 201,
      "to": 202,
      "able": 203,
      "ost": 204,
      "▁ch": 205,
      "ect": 206,
      "ight": 207,
      "int": 208,
      "▁'": 209,
      "▁are": 210,
      "▁im": 211,
      "▁sh": 212,
      "ata": 213,
      "ire": 214,
      "▁tr": 215,
      "con": 216,
      "ord": 217,
      "ity": 218,
      "ard": 219,
      "▁he": 220,
      "▁but": 221,
      "oc": 222,
      "▁pr": 223,
      "ure": 224,
      "per": 225,
      "ack": 226,
      "ork": 227,
      "ong": 228,
      "ans": 229,
      "ple": 230,
      "▁des": 231,
      "ok": 232,
      "orm": 233,
      "wer": 234,
      "ak": 235,
      "pr": 236,
      "ase": 237,
      "▁el": 238,
      "ph": 239,
      "ac": 240,
      "▁und": 241,
      "▁ar": 242,
      "▁if": 243,
      "ud": 244,
      "ps": 245,
      "ite": 246,
      "ble": 247,
      "fer": 248,
      "pl": 249,
      "ive": 250,
      "ang": 251,
      "ens": 252,
      "▁so": 253,
      "so": 254,
      "ast": 255,
      "swer": 256,
      "ru": 257,
      "ies": 258,
      "au": 259,
      "ov": 260,
      "▁der": 261,
      "▁my": 262,
      "▁we": 263,
      "▁me": 264,
      "nt": 265,
      "▁ad": 266,
      "urn": 267,
      "▁your": 268,
      "are": 269,
      "▁all": 270,
      "ff": 271,
      "io": 272,
      "estion": 273,
      "ime": 274,
      "▁er": 275,
      "lass": 276,
      "▁which": 277,
      "ome": 278,
      "ont": 279,
      "▁par": 280,
      "▁ma": 281,
      "ft": 282,
      "ial": 283,
      "cc": 284,
      "ound": 285,
      "▁li": 286,
      "▁res": 287,
      "eth": 288,
      "ject": 289,
      "▁app": 290,
      "ice": 291,
      "▁am": 292,
      "act": 293,
      "▁del": 294,
      "gr": 295,
      "ated": 296,
      "ier": 297,
      "▁ab": 298,
      "▁et": 299,
      "ally": 300,
      "..": 301,
      "port": 302,
      "ik": 303,
      "▁per": 304,
      "▁cont": 305,
      "ser": 306,
      "ll": 307,
      "iew": 308,
      "ign": 309,
      "put": 310,
      "one": 311,
      "unction": 312,
      "▁di": 313,
      "ary": 314,
      "ition": 315,
      "ma": 316,
      "get": 317,
      "▁lo": 318,
      "▁val": 319,
      "ran": 320,
      "ence": 321,
      "▁work": 322,
      "ip": 323,
      "item": 324,
      "ype": 325,
      "▁his": 326,
      "▁use": 327,
      "der": 328,
      "▁will": 329,
      "ize": 330,
      "low": 331,
      "▁get": 332,
      "ide": 333,
      "ous": 334,
      "ink": 335,
      "ption": 336,
      "turn": 337,
      "ung": 338,
      "ec": 339,
      "ug": 340,
      "form": 341,
      "res": 342,
      "htt": 343,
      "oug": 344,
      "▁no": 345,
      "cl": 346,
      "▁ro": 347,
      "▁one": 348,
      "tt": 349,
      "cri": 350,
      "du": 351,
      "▁up": 352,
      "▁ob": 353,
      "we": 354,
      "ory": 355,
      "▁est": 356,
      "ery": 357,
      "iel": 358,
      "str": 359,
      "ob": 360,
      "▁que": 361,
      "ian": 362,
      "▁out": 363,
      "▁pl": 364,
      "▁new": 365,
      "ry": 366,
      "oth": 367,
      "ther": 368,
      "▁var": 369,
      "▁would": 370,
      "▁ser": 371,
      "tern": 372,
      "text": 373,
      "▁there": 374,
      "ish": 375,
      "ror": 376,
      "▁set": 377,
      "▁te": 378,
      "ex": 379,
      "▁return": 380,
      "ail": 381,
      "▁any": 382,
      "▁function": 383,
      "',": 384,
      "ale": 385,
      "▁when": 386,
      "ib": 387,
      "▁go": 388,
      "ance": 389,
      "▁had": 390,
      "▁comp": 391,
      "math": 392,
      "▁has": 393,
      "▁pre": 394,
      "ener": 395,
      "▁part": 396,
      "elf": 397,
      "▁die": 398,
      "▁like": 399,
      "ray": 400,
      "irst": 401,
      "▁dis": 402,
      "▁man": 403,
      "rit": 404,
      "▁then": 405,
      "▁class": 406,
      "pro": 407,
      "▁po": 408,
      "▁using": 409,
      "eb": 410,
      "▁code": 411,
      "own": 412,
      "▁some": 413,
      "ces": 414,
      "lect": 415,
      "▁au": 416,
      "isch": 417,
      "▁col": 418,
      "up": 419,
      "ons": 420,
      "▁add": 421,
      "ild": 422,
      "iss": 423,
      "val": 424,
      "ount": 425,
      "les": 426,
      "vent": 427,
      "row": 428,
      "ear": 429,
      "ations": 430,
      "ah": 431,
      "que": 432,
      "ublic": 433,
      "ank": 434,
      "▁sp": 435,
      "sk": 436,
      "ew": 437,
      "ags": 438,
      "ann": 439,
      "ert": 440,
      "ace": 441,
      "sch": 442,
      "▁need": 443,
      "ien": 444,
      "ough": 445,
      "▁def": 446,
      "ij": 447,
      "ern": 448,
      "▁what": 449,
      "wo": 450,
      "ml": 451,
      "▁es": 452,
      "▁inst": 453,
      "bo": 454,
      "az": 455,
      "erm": 456,
      "led": 457,
      "ten": 458,
      "set": 459,
      "▁comm": 460,
      "sh": 461,
      "▁data": 462,
      "▁str": 463,
      "ose": 464,
      "ven": 465,
      "...": 466,
      "yst": 467,
      "ick": 468,
      "ix": 469,
      "par": 470,
      "▁want": 471,
      "ng": 472,
      "ote": 473,
      "▁gr": 474,
      "▁du": 475,
      "▁.": 476,
      "und": 477,
      "▁only": 478,
      "▁sa": 479,
      "ely": 480,
      "vers": 481,
      "▁ent": 482,
      "▁mod": 483,
      "ava": 484,
      "ton": 485,
      "▁should": 486,
      "ement": 487,
      "▁form": 488,
      "▁also": 489,
      "▁sc": 490,
      "ings": 491,
      "▁kn": 492,
      "▁were": 493,
      "ss": 494,
      "ise": 495,
      "▁they": 496,
      "ond": 497,
      "▁sol": 498,
      "▁fol": 499,
      "▁more": 500,
      "▁her": 501,
      "atch": 502,
      "fter": 503,
      "▁cre": 504,
      "lock": 505,
      "tring": 506,
      "ze": 507,
      "ado": 508,
      "ull": 509,
      "ger": 510,
      "be": 511,
      "▁other": 512,
      "ution": 513,
      "ict": 514,
      "▁how": 515,
      "▁x": 516,
      "▁che": 517,
      "cript": 518,
      "▁just": 519,
      "▁pos": 520,
      "ange": 521,
      "ific": 522,
      "ree": 523,
      "▁time": 524,
      "app": 525,
      "▁file": 526,
      "ark": 527,
      "ical": 528,
      "▁first": 529,
      "▁int": 530,
      "ta": 531,
      "ument": 532,
      "ors": 533,
      "lement": 534,
      "rac": 535,
      "▁ag": 536,
      "▁does": 537,
      "yn": 538,
      "read": 539,
      "ual": 540,
      "ys": 541,
      "▁em": 542,
      "▁num": 543,
      "vel": 544,
      "over": 545,
      "▁dif": 546,
      "ethod": 547,
      "▁spe": 548,
      "ym": 549,
      "▁them": 550,
      "▁into": 551,
      "▁les": 552,
      "▁its": 553,
      "ese": 554,
      "ield": 555,
      "▁public": 556,
      "▁den": 557,
      "ystem": 558,
      "of": 559,
      "▁over": 560,
      "▁fil": 561,
      "name": 562,
      "inal": 563,
      "▁il": 564,
      "ample": 565,
      "▁way": 566,
      "ica": 567,
      "cess": 568,
      "itt": 569,
      "uch": 570,
      "▁where": 571,
      "org": 572,
      "https": 573,
      "▁vo": 574,
      "ient": 575,
      "ove": 576,
      "▁value": 577,
      "eng": 578,
      "ref": 579,
      "ied": 580,
      "▁stat": 581,
      "fig": 582,
      "me": 583,
      "▁von": 584,
      "▁inter": 585,
      "roid": 586,
      "ater": 587,
      "▁their": 588,
      "▁bet": 589,
      "▁ein": 590,
      "▁sub": 591,
      "▁op": 592,
      "▁don": 593,
      "ty": 594,
      "▁try": 595,
      "▁tra": 596,
      "▁same": 597,
      "ep": 598,
      "▁two": 599,
      "▁name": 600,
      "old": 601,
      "let": 602,
      "▁sim": 603,
      "sp": 604,
      "▁av": 605,
      "bre": 606,
      "blem": 607,
      "ey": 608,
      "▁could": 609,
      "▁cor": 610,
      "▁acc": 611,
      "ays": 612,
      "cre": 613,
      "urr": 614,
      "si": 615,
      "▁const": 616,
      "ues": 617,
      "▁act": 618,
      "▁bo": 619,
      "▁som": 620,
      "▁about": 621,
      "land": 622,
      "mer": 623,
      "▁list": 624,
      "cal": 625,
      "▁import": 626,
      "col": 627,
      "▁na": 628,
      "na": 629,
      "▁who": 630,
      "▁error": 631,
      "ator": 632,
      "ext": 633,
      "▁been": 634,
      "▁run": 635,
      "pos": 636,
      "▁cl": 637,
      "ular": 638,
      "ause": 639,
      "▁reg": 640,
      "▁know": 641,
      "▁see": 642,
      "▁him": 643,
      "ning": 644,
      "ates": 645,
      "fore": 646,
      "ions": 647,
      "▁hel": 648,
      "ute": 649,
      "▁rem": 650,
      "vice": 651,
      "irect": 652,
      "ner": 653,
      "▁under": 654,
      "rib": 655,
      "hr": 656,
      "▁end": 657,
      "ember": 658,
      "▁att": 659,
      "ina": 660,
      "son": 661,
      "▁follow": 662,
      "pect": 663,
      "▁rel": 664,
      "▁look": 665,
      "abel": 666,
      "▁problem": 667,
      "▁van": 668,
      "strong": 669,
      "co": 670,
      "pon": 671,
      "ca": 672,
      "ada": 673,
      "cond": 674,
      "amb": 675,
      "quest": 676,
      "▁aut": 677,
      "▁result": 678,
      "▁may": 679,
      "http": 680,
      "red": 681,
      "po": 682,
      "att": 683,
      "oup": 684,
      "ced": 685,
      "▁type": 686,
      "▁than": 687,
      "▁cons": 688,
      "uf": 689,
      "▁question": 690,
      "raph": 691,
      "igh": 692,
      "▁htt": 693,
      "ins": 694,
      "den": 695,
      "▁da": 696,
      "▁ver": 697,
      "oh": 698,
      "riv": 699,
      "ude": 700,
      "▁ra": 701,
      "frac": 702,
      "▁after": 703,
      "▁method": 704,
      "amp": 705,
      "ash": 706,
      "▁rec": 707,
      "▁differ": 708,
      "ax": 709,
      "ament": 710,
      "ource": 711,
      "its": 712,
      "man": 713,
      "▁bec": 714,
      "che": 715,
      "aj": 716,
      "▁gener": 717,
      "▁id": 718,
      "ages": 719,
      "▁loc": 720,
      "fo": 721,
      "br": 722,
      "▁she": 723,
      "▁una": 724,
      "eta": 725,
      "log": 726,
      "olog": 727,
      "▁sur": 728,
      "arg": 729,
      "kt": 730,
      "min": 731,
      "▁line": 732,
      "▁vari": 733,
      "ics": 734,
      "very": 735,
      "add": 736,
      "▁object": 737,
      "▁case": 738,
      "▁make": 739,
      "▁cal": 740,
      "▁pass": 741,
      "ession": 742,
      "net": 743,
      "no": 744,
      "ating": 745,
      "ato": 746,
      "line": 747,
      "▁ass": 748,
      "▁vers": 749,
      "▁ed": 750,
      "umn": 751,
      "other": 752,
      "ative": 753,
      "▁los": 754,
      "wn": 755,
      "▁answer": 756,
      "▁let": 757,
      "▁pe": 758,
      "ents": 759,
      "▁fe": 760,
      "ince": 761,
      "ni": 762,
      "ider": 763,
      "ows": 764,
      "▁test": 765,
      "▁here": 766,
      "roll": 767,
      "▁call": 768,
      "ruct": 769,
      "▁pol": 770,
      "ait": 771,
      "▁back": 772,
      "ho": 773,
      "ress": 774,
      "ried": 775,
      "date": 776,
      "▁did": 777,
      "ting": 778,
      "▁dem": 779,
      "urrent": 780,
      "lace": 781,
      "right": 782,
      "ren": 783,
      "▁each": 784,
      "cy": 785,
      "block": 786,
      "data": 787,
      "▁ac": 788,
      "▁por": 789,
      "ask": 790,
      "arch": 791,
      "ames": 792,
      "▁off": 793,
      "▁find": 794,
      "cont": 795,
      "▁now": 796,
      "work": 797,
      "ational": 798,
      "dd": 799,
      "ault": 800,
      "▁ext": 801,
      "urs": 802,
      "ake": 803,
      "ule": 804,
      "▁point": 805,
      "aut": 806,
      "▁trans": 807,
      "▁co": 808,
      "▁read": 809,
      "▁used": 810,
      "ari": 811,
      "eter": 812,
      "oun": 813,
      "ever": 814,
      "self": 815,
      "ined": 816,
      "idth": 817,
      "ux": 818,
      "js": 819,
      "▁such": 820,
      "ful": 821,
      "▁dist": 822,
      "▁bu": 823,
      "itemize": 824,
      "je": 825,
      "▁prov": 826,
      "bb": 827,
      "ward": 828,
      "esent": 829,
      "erson": 830,
      "anks": 831,
      "wh": 832,
      "not": 833,
      "ka": 834,
      "rop": 835,
      "atur": 836,
      "als": 837,
      "▁bel": 838,
      "fr": 839,
      "▁example": 840,
      "▁incl": 841,
      "amil": 842,
      "▁string": 843,
      "▁think": 844,
      "▁tem": 845,
      "ave": 846,
      "▁number": 847,
      "▁si": 848,
      "imes": 849,
      "tem": 850,
      "my": 851,
      "ler": 852,
      "load": 853,
      "▁hand": 854,
      "za": 855,
      "▁because": 856,
      "▁sch": 857,
      "vo": 858,
      "this": 859,
      "▁start": 860,
      "▁war": 861,
      "▁help": 862,
      "ts": 863,
      "▁char": 864,
      "▁ph": 865,
      "▁min": 866,
      "til": 867,
      "rite": 868,
      "els": 869,
      "▁mit": 870,
      "edia": 871,
      "any": 872,
      "ique": 873,
      "da": 874,
      "ef": 875,
      "dex": 876,
      "▁produ": 877,
      "gram": 878,
      "▁gre": 879,
      "quote": 880,
      "leg": 881,
      "orn": 882,
      "▁ind": 883,
      "▁post": 884,
      "▁dep": 885,
      "vi": 886,
      "▁user": 887,
      "lick": 888,
      "▁very": 889,
      "ething": 890,
      "▁array": 891,
      "▁gu": 892,
      "▁dur": 893,
      "lication": 894,
      "ek": 895,
      "ico": 896,
      "▁dat": 897,
      "html": 898,
      "ione": 899,
      "▁different": 900,
      "▁check": 901,
      "▁fr": 902,
      "▁text": 903,
      "icht": 904,
      "stack": 905,
      "rag": 906,
      "▁every": 907,
      "▁before": 908,
      "alse": 909,
      "▁fin": 910,
      "▁these": 911,
      "▁det": 912,
      "ception": 913,
      "▁android": 914,
      "blockquote": 915,
      "▁je": 916,
      "file": 917,
      "ats": 918,
      "essage": 919,
      "▁again": 920,
      "aw": 921,
      "ween": 922,
      "for": 923,
      "cial": 924,
      "play": 925,
      "pre": 926,
      "ida": 927,
      "ny": 928,
      "ract": 929,
      "▁supp": 930,
      "ased": 931,
      "lection": 932,
      "▁dans": 933,
      "air": 934,
      "rol": 935,
      "▁thr": 936,
      "lich": 937,
      "▁long": 938,
      "▁second": 939,
      "ually": 940,
      "ines": 941,
      "▁found": 942,
      "ength": 943,
      "yp": 944,
      "ead": 945,
      "▁log": 946,
      "ui": 947,
      "new": 948,
      "go": 949,
      "aus": 950,
      "ody": 951,
      "▁son": 952,
      "ero": 953,
      "ved": 954,
      "sub": 955,
      "▁right": 956,
      "view": 957,
      "▁following": 958,
      "▁said": 959,
      "ott": 960,
      "ars": 961,
      "gg": 962,
      "▁br": 963,
      "ool": 964,
      "yle": 965,
      "use": 966,
      "▁show": 967,
      "lease": 968,
      "cia": 969,
      "▁direct": 970,
      "doc": 971,
      "ms": 972,
      "▁giv": 973,
      "▁exp": 974,
      "ql": 975,
      "iter": 976,
      "mp": 977,
      "men": 978,
      "ister": 979,
      "▁well": 980,
      "ayout": 981,
      "ature": 982,
      "ivers": 983,
      "zy": 984,
      "▁met": 985,
      "une": 986,
      "yth": 987,
      "▁element": 988,
      "▁link": 989,
      "mod": 990,
      "▁between": 991,
      "cept": 992,
      "quire": 993,
      "▁through": 994,
      "▁while": 995,
      "the": 996,
      "▁something": 997,
      "vol": 998,
      "▁most": 999,
      "sc": 1000,
      "uss": 1001,
      "▁car": 1002,
      "▁sm": 1003,
      "ano": 1004,
      "left": 1005,
      "va": 1006,
      "▁true": 1007,
      "ems": 1008,
      "▁much": 1009,
      "▁proper": 1010,
      "era": 1011,
      "ited": 1012,
      "▁doc": 1013,
      "ices": 1014,
      "fl": 1015,
      "▁spec": 1016,
      "ender": 1017,
      "way": 1018,
      "▁self": 1019,
      "▁even": 1020,
      "▁ke": 1021,
      "emb": 1022,
      "▁table": 1023,
      "▁equ": 1024,
      "lient": 1025,
      "td": 1026,
      "part": 1027,
      "▁print": 1028,
      "▁une": 1029,
      "ify": 1030,
      "ene": 1031,
      "▁mon": 1032,
      "▁dec": 1033,
      "▁still": 1034,
      "ife": 1035,
      "ism": 1036,
      "by": 1037,
      "raw": 1038,
      "ior": 1039,
      "▁med": 1040,
      "orld": 1041,
      "▁comple": 1042,
      "ww": 1043,
      "▁art": 1044,
      "ron": 1045,
      "▁als": 1046,
      "rect": 1047,
      "▁auf": 1048,
      "▁down": 1049,
      "ather": 1050,
      "back": 1051,
      "▁year": 1052,
      "pi": 1053,
      "ream": 1054,
      "▁rep": 1055,
      "bf": 1056,
      "www": 1057,
      "▁wur": 1058,
      "▁org": 1059,
      "inter": 1060,
      "▁being": 1061,
      "label": 1062,
      "▁cent": 1063,
      "java": 1064,
      "bar": 1065,
      "ante": 1066,
      "ana": 1067,
      "▁solution": 1068,
      "▁fl": 1069,
      "▁create": 1070,
      "ici": 1071,
      "ste": 1072,
      "ython": 1073,
      "unt": 1074,
      "ason": 1075,
      "ference": 1076,
      "▁non": 1077,
      "ane": 1078,
      "▁ins": 1079,
      "ader": 1080,
      "▁main": 1081,
      "▁pour": 1082,
      "lish": 1083,
      "bject": 1084,
      "ccess": 1085,
      "▁orig": 1086,
      "ischen": 1087,
      "ower": 1088,
      "▁het": 1089,
      "uc": 1090,
      "▁else": 1091,
      "equ": 1092,
      "sible": 1093,
      "test": 1094,
      "stand": 1095,
      "ets": 1096,
      "ident": 1097,
      ".,": 1098,
      "▁das": 1099,
      "ock": 1100,
      "▁vol": 1101,
      "▁fo": 1102,
      "▁para": 1103,
      "ral": 1104,
      "var": 1105,
      "▁play": 1106,
      "ouse": 1107,
      "ically": 1108,
      "▁contain": 1109,
      "ponse": 1110,
      "▁both": 1111,
      "ken": 1112,
      "▁iss": 1113,
      "▁open": 1114,
      "fe": 1115,
      "rivate": 1116,
      "reg": 1117,
      "▁without": 1118,
      "▁zu": 1119,
      "vis": 1120,
      "flow": 1121,
      "▁http": 1122,
      "abase": 1123,
      "▁word": 1124,
      "▁change": 1125,
      "▁works": 1126,
      "▁ge": 1127,
      "▁een": 1128,
      "itle": 1129,
      "▁event": 1130,
      "word": 1131,
      "ando": 1132,
      "rem": 1133,
      "▁field": 1134,
      "ving": 1135,
      "▁our": 1136,
      "▁qui": 1137,
      "▁oper": 1138,
      "▁ist": 1139,
      "def": 1140,
      "▁made": 1141,
      "px": 1142,
      "▁men": 1143,
      "rm": 1144,
      "ais": 1145,
      "cent": 1146,
      "list": 1147,
      "ja": 1148,
      "vert": 1149,
      "▁mar": 1150,
      "value": 1151,
      "▁aus": 1152,
      "ole": 1153,
      "▁mult": 1154,
      "ought": 1155,
      "▁mat": 1156,
      "▁view": 1157,
      "fil": 1158,
      "▁void": 1159,
      "▁good": 1160,
      "▁many": 1161,
      "ben": 1162,
      "▁system": 1163,
      "ino": 1164,
      "▁another": 1165,
      "▁rest": 1166,
      "user": 1167,
      "ility": 1168,
      "ai": 1169,
      "▁might": 1170,
      "ustom": 1171,
      "▁order": 1172,
      "▁eff": 1173,
      "ett": 1174,
      "▁sign": 1175,
      "string": 1176,
      "elle": 1177,
      "▁sing": 1178,
      "cul": 1179,
      "▁trying": 1180,
      "▁beg": 1181,
      "▁page": 1182,
      "▁must": 1183,
      "▁values": 1184,
      "▁key": 1185,
      "ible": 1186,
      "ird": 1187,
      "▁program": 1188,
      "roller": 1189,
      "▁conne": 1190,
      "▁say": 1191,
      "▁param": 1192,
      "ache": 1193,
      "velop": 1194,
      "▁select": 1195,
      "▁famil": 1196,
      "▁last": 1197,
      "▁pop": 1198,
      "eq": 1199,
      "▁doesn": 1200,
      "▁term": 1201,
      "▁document": 1202,
      "ateg": 1203,
      "ling": 1204,
      "ional": 1205,
      "ables": 1206,
      "▁tak": 1207,
      "utton": 1208,
      "▁arg": 1209,
      "type": 1210,
      "▁sure": 1211,
      "▁real": 1212,
      "▁web": 1213,
      "▁current": 1214,
      "cho": 1215,
      "ments": 1216,
      "ots": 1217,
      "▁exist": 1218,
      "do": 1219,
      "▁las": 1220,
      "▁null": 1221,
      "▁inform": 1222,
      "▁version": 1223,
      "▁chang": 1224,
      "ager": 1225,
      "ush": 1226,
      "▁high": 1227,
      "▁input": 1228,
      "ogle": 1229,
      "ros": 1230,
      "box": 1231,
      "gen": 1232,
      "▁ste": 1233,
      "▁local": 1234,
      "▁process": 1235,
      "ternal": 1236,
      "ized": 1237,
      "▁och": 1238,
      "lt": 1239,
      "▁column": 1240,
      "▁tried": 1241,
      "▁command": 1242,
      "▁best": 1243,
      "aster": 1244,
      "▁prim": 1245,
      "▁model": 1246,
      "▁those": 1247,
      "ities": 1248,
      "ques": 1249,
      "▁own": 1250,
      "lin": 1251,
      "thing": 1252,
      "▁,": 1253,
      "▁stud": 1254,
      "▁um": 1255,
      "▁server": 1256,
      "ille": 1257,
      "▁put": 1258,
      "ativ": 1259,
      "gy": 1260,
      "raf": 1261,
      "▁wurde": 1262,
      "▁div": 1263,
      "ants": 1264,
      "▁ter": 1265,
      "▁partic": 1266,
      "sert": 1267,
      "ido": 1268,
      "mathcal": 1269,
      "ade": 1270,
      "lear": 1271,
      "ograph": 1272,
      "ense": 1273,
      "▁row": 1274,
      "num": 1275,
      "▁possible": 1276,
      "▁since": 1277,
      "ctions": 1278,
      "▁ide": 1279,
      "map": 1280,
      "▁correct": 1281,
      "ves": 1282,
      "php": 1283,
      "▁output": 1284,
      "ared": 1285,
      "▁image": 1286,
      "esch": 1287,
      "▁conf": 1288,
      "por": 1289,
      "query": 1290,
      "ures": 1291,
      "ium": 1292,
      "ends": 1293,
      "ether": 1294,
      "ptions": 1295,
      "itu": 1296,
      "lib": 1297,
      "ns": 1298,
      "ki": 1299,
      "▁working": 1300,
      "▁como": 1301,
      "key": 1302,
      "class": 1303,
      "ople": 1304,
      "ittle": 1305,
      "▁match": 1306,
      "ways": 1307,
      "mathbb": 1308,
      "▁require": 1309,
      "alt": 1310,
      "▁vis": 1311,
      "▁bl": 1312,
      "▁called": 1313,
      "ura": 1314,
      "vec": 1315,
      "eme": 1316,
      "▁della": 1317,
      "embre": 1318,
      "urg": 1319,
      "▁request": 1320,
      "ische": 1321,
      "▁port": 1322,
      "▁instead": 1323,
      "hor": 1324,
      "ente": 1325,
      "ume": 1326,
      "erd": 1327,
      "▁why": 1328,
      "rist": 1329,
      "▁person": 1330,
      "▁...": 1331,
      "▁private": 1332,
      "▁tot": 1333,
      "pha": 1334,
      "ift": 1335,
      "ita": 1336,
      "loc": 1337,
      "▁old": 1338,
      "▁nel": 1339,
      "ti": 1340,
      "iet": 1341,
      "cite": 1342,
      "plement": 1343,
      "▁above": 1344,
      "ks": 1345,
      "ready": 1346,
      "▁come": 1347,
      "section": 1348,
      "▁writ": 1349,
      "▁https": 1350,
      "▁build": 1351,
      "ito": 1352,
      "▁consider": 1353,
      "aft": 1354,
      "indows": 1355,
      "comm": 1356,
      "ground": 1357,
      "▁place": 1358,
      "▁project": 1359,
      "▁repr": 1360,
      "ences": 1361,
      "indow": 1362,
      "zt": 1363,
      "▁files": 1364,
      "cz": 1365,
      "ivity": 1366,
      "▁init": 1367,
      "▁prob": 1368,
      "▁sk": 1369,
      "orth": 1370,
      "iment": 1371,
      "ouble": 1372,
      "atal": 1373,
      "irc": 1374,
      "▁bre": 1375,
      "ista": 1376,
      "input": 1377,
      "sum": 1378,
      "path": 1379,
      "▁cour": 1380,
      "▁too": 1381,
      "▁false": 1382,
      "▁fun": 1383,
      "ood": 1384,
      "▁enc": 1385,
      "bol": 1386,
      "rl": 1387,
      "arget": 1388,
      "order": 1389,
      "▁mean": 1390,
      "igen": 1391,
      "width": 1392,
      "itor": 1393,
      "▁state": 1394,
      "▁great": 1395,
      "enn": 1396,
      "bin": 1397,
      "oz": 1398,
      "▁won": 1399,
      "▁fact": 1400,
      "▁java": 1401,
      "▁cap": 1402,
      "istor": 1403,
      "ku": 1404,
      "ither": 1405,
      "ales": 1406,
      "▁ou": 1407,
      "ross": 1408,
      "▁take": 1409,
      "rix": 1410,
      "lob": 1411,
      "▁eine": 1412,
      "ases": 1413,
      "▁access": 1414,
      "istr": 1415,
      "ization": 1416,
      "▁appro": 1417,
      "ball": 1418,
      "▁mak": 1419,
      "press": 1420,
      "serv": 1421,
      "af": 1422,
      "▁ref": 1423,
      "▁contin": 1424,
      "su": 1425,
      "iver": 1426,
      "▁cond": 1427,
      "▁expect": 1428,
      "▁charact": 1429,
      "bert": 1430,
      "elt": 1431,
      "ters": 1432,
      "script": 1433,
      "apt": 1434,
      "print": 1435,
      "▁size": 1436,
      "▁sich": 1437,
      "face": 1438,
      "enden": 1439,
      "ified": 1440,
      "tes": 1441,
      "med": 1442,
      "sole": 1443,
      "▁includ": 1444,
      "ini": 1445,
      "inci": 1446,
      "▁pla": 1447,
      "▁left": 1448,
      "df": 1449,
      "▁occ": 1450,
      "▁cr": 1451,
      "▁given": 1452,
      "ican": 1453,
      "▁final": 1454,
      "itions": 1455,
      "▁perform": 1456,
      "uro": 1457,
      "ably": 1458,
      "▁present": 1459,
      "duct": 1460,
      "ric": 1461,
      "try": 1462,
      "▁lar": 1463,
      "bl": 1464,
      "idd": 1465,
      "ora": 1466,
      "oss": 1467,
      "▁three": 1468,
      "jo": 1469,
      "rc": 1470,
      "▁far": 1471,
      "▁little": 1472,
      "dis": 1473,
      "ati": 1474,
      "function": 1475,
      "▁able": 1476,
      "less": 1477,
      "▁path": 1478,
      "▁pres": 1479,
      "lose": 1480,
      "▁issue": 1481,
      "ackage": 1482,
      "time": 1483,
      "ige": 1484,
      "ams": 1485,
      "ails": 1486,
      "alk": 1487,
      "ii": 1488,
      "pen": 1489,
      "▁eas": 1490,
      "cel": 1491,
      "▁sl": 1492,
      "▁ask": 1493,
      "▁nom": 1494,
      "▁top": 1495,
      "ides": 1496,
      "index": 1497,
      "▁happ": 1498,
      "ox": 1499,
      "cd": 1500,
      "▁better": 1501,
      "▁load": 1502,
      "ados": 1503,
      "zen": 1504,
      "▁ce": 1505,
      "▁fa": 1506,
      "overflow": 1507,
      "ness": 1508,
      "cer": 1509,
      "ret": 1510,
      "▁sz": 1511,
      "ambda": 1512,
      "opy": 1513,
      "url": 1514,
      "py": 1515,
      "rt": 1516,
      "▁understand": 1517,
      "her": 1518,
      "▁child": 1519,
      "▁exec": 1520,
      "▁application": 1521,
      "▁struct": 1522,
      "▁cert": 1523,
      "ison": 1524,
      "▁variable": 1525,
      "rs": 1526,
      "▁really": 1527,
      "ba": 1528,
      "▁inte": 1529,
      "▁static": 1530,
      "▁config": 1531,
      "estions": 1532,
      "▁plus": 1533,
      "▁hab": 1534,
      "ope": 1535,
      "▁mus": 1536,
      "▁count": 1537,
      "▁support": 1538,
      "▁people": 1539,
      "▁beh": 1540,
      "▁already": 1541,
      "▁done": 1542,
      "dem": 1543,
      "size": 1544,
      "alpha": 1545,
      "▁disc": 1546,
      "▁mil": 1547,
      "▁stand": 1548,
      "▁group": 1549,
      "▁small": 1550,
      "▁mag": 1551,
      "▁default": 1552,
      "▁single": 1553,
      "link": 1554,
      "clude": 1555,
      "▁ear": 1556,
      "ilar": 1557,
      "▁fix": 1558,
      "ley": 1559,
      "▁pas": 1560,
      "ission": 1561,
      "▁implement": 1562,
      "itch": 1563,
      "▁always": 1564,
      "pring": 1565,
      "plate": 1566,
      "▁descri": 1567,
      "▁head": 1568,
      "init": 1569,
      "ograf": 1570,
      "▁query": 1571,
      "ived": 1572,
      "▁ing": 1573,
      "pty": 1574,
      "ha": 1575,
      "▁mov": 1576,
      "ette": 1577,
      "ily": 1578,
      "▁got": 1579,
      "iled": 1580,
      "icro": 1581,
      "▁wr": 1582,
      "▁never": 1583,
      "ores": 1584,
      "▁bas": 1585,
      "ios": 1586,
      "lack": 1587,
      "aint": 1588,
      "vious": 1589,
      "▁give": 1590,
      "idad": 1591,
      "table": 1592,
      "▁pat": 1593,
      "angu": 1594,
      "loy": 1595,
      "▁seg": 1596,
      "array": 1597,
      "▁index": 1598,
      "▁sw": 1599,
      "▁km": 1600,
      "ena": 1601,
      "comp": 1602,
      "atus": 1603,
      "rap": 1604,
      "▁typ": 1605,
      "cs": 1606,
      "ji": 1607,
      "▁below": 1608,
      "bum": 1609,
      "vir": 1610,
      "▁record": 1611,
      "tain": 1612,
      "lem": 1613,
      "ital": 1614,
      "▁imp": 1615,
      "ego": 1616,
      "▁od": 1617,
      "▁rece": 1618,
      "mit": 1619,
      "ffic": 1620,
      "stackoverflow": 1621,
      "ieve": 1622,
      "▁nov": 1623,
      "bu": 1624,
      "▁sugg": 1625,
      "▁loop": 1626,
      "ride": 1627,
      "▁super": 1628,
      "rid": 1629,
      "▁dom": 1630,
      "utsch": 1631,
      "len": 1632,
      "▁write": 1633,
      "▁inv": 1634,
      "outh": 1635,
      "▁years": 1636,
      "▁original": 1637,
      "ega": 1638,
      "▁seems": 1639,
      "▁next": 1640,
      "eder": 1641,
      "avas": 1642,
      "ification": 1643,
      "▁ve": 1644,
      "atic": 1645,
      "hat": 1646,
      "brary": 1647,
      "return": 1648,
      "urch": 1649,
      "ision": 1650,
      "mi": 1651,
      "oint": 1652,
      "▁day": 1653,
      "iction": 1654,
      "▁though": 1655,
      "action": 1656,
      "ungen": 1657,
      "ours": 1658,
      "▁script": 1659,
      "▁information": 1660,
      "▁multi": 1661,
      "ster": 1662,
      "cies": 1663,
      "▁display": 1664,
      "oman": 1665,
      "ius": 1666,
      "tre": 1667,
      "▁lim": 1668,
      "ately": 1669,
      "iste": 1670,
      "post": 1671,
      "uel": 1672,
      "img": 1673,
      "eld": 1674,
      "pper": 1675,
      "ula": 1676,
      "▁general": 1677,
      "▁upon": 1678,
      "zo": 1679,
      "amente": 1680,
      "▁prom": 1681,
      "lex": 1682,
      "▁turn": 1683,
      "ention": 1684,
      "▁af": 1685,
      "icle": 1686,
      "avascript": 1687,
      "ara": 1688,
      "ware": 1689,
      "align": 1690,
      "angle": 1691,
      "unic": 1692,
      "▁fran": 1693,
      "zi": 1694,
      "met": 1695,
      "▁pub": 1696,
      "▁gen": 1697,
      "▁pod": 1698,
      "▁sum": 1699,
      "▁having": 1700,
      "▁avec": 1701,
      "sl": 1702,
      "▁fig": 1703,
      "ules": 1704,
      "with": 1705,
      "gu": 1706,
      "▁bro": 1707,
      "rie": 1708,
      "aps": 1709,
      "ending": 1710,
      "mail": 1711,
      "ook": 1712,
      "▁success": 1713,
      "berg": 1714,
      "▁deb": 1715,
      "elta": 1716,
      "ential": 1717,
      "frame": 1718,
      "inn": 1719,
      "▁simple": 1720,
      "ival": 1721,
      "▁care": 1722,
      "▁database": 1723,
      "cht": 1724,
      "ban": 1725,
      "ram": 1726,
      "equation": 1727,
      "ski": 1728,
      "ief": 1729,
      "lim": 1730,
      "▁tre": 1731,
      "aten": 1732,
      "bed": 1733,
      "▁results": 1734,
      "db": 1735,
      "▁bit": 1736,
      "body": 1737,
      "mu": 1738,
      "pression": 1739,
      "ony": 1740,
      "iff": 1741,
      "▁bar": 1742,
      "bers": 1743,
      "▁doing": 1744,
      "▁prof": 1745,
      "▁install": 1746,
      "▁position": 1747,
      "ema": 1748,
      "ali": 1749,
      "lev": 1750,
      "▁cannot": 1751,
      "inst": 1752,
      "▁coun": 1753,
      "▁ang": 1754,
      "▁appear": 1755,
      "cor": 1756,
      "ided": 1757,
      "questions": 1758,
      "atter": 1759,
      "select": 1760,
      "▁princi": 1761,
      "▁side": 1762,
      "▁mem": 1763,
      "ario": 1764,
      "▁within": 1765,
      "odes": 1766,
      "iddle": 1767,
      "uration": 1768,
      "bra": 1769,
      "▁date": 1770,
      "▁entre": 1771,
      "ili": 1772,
      "docs": 1773,
      "▁message": 1774,
      "▁nach": 1775,
      "▁during": 1776,
      "▁gra": 1777,
      "etwork": 1778,
      "▁tell": 1779,
      "ete": 1780,
      "▁bis": 1781,
      "▁pu": 1782,
      "▁red": 1783,
      "▁thing": 1784,
      "▁sort": 1785,
      "xim": 1786,
      "ires": 1787,
      "iod": 1788,
      "osed": 1789,
      "oute": 1790,
      "▁sent": 1791,
      "ribute": 1792,
      "utes": 1793,
      "istory": 1794,
      "▁service": 1795,
      "field": 1796,
      "ension": 1797,
      "rel": 1798,
      "▁going": 1799,
      "web": 1800,
      "▁later": 1801,
      "uk": 1802,
      "layout": 1803,
      "ona": 1804,
      "▁exact": 1805,
      "andom": 1806,
      "▁sie": 1807,
      "mente": 1808,
      "ibli": 1809,
      "▁fine": 1810,
      "▁develop": 1811,
      "soft": 1812,
      "off": 1813,
      "▁az": 1814,
      "eters": 1815,
      "ilder": 1816,
      "ples": 1817,
      "▁specific": 1818,
      "▁om": 1819,
      "error": 1820,
      "ently": 1821,
      "▁film": 1822,
      "uck": 1823,
      "ains": 1824,
      "ges": 1825,
      "▁things": 1826,
      "▁thought": 1827,
      "▁added": 1828,
      "dep": 1829,
      "ils": 1830,
      "ync": 1831,
      "ries": 1832,
      "▁cu": 1833,
      "chen": 1834,
      "ultado": 1835,
      "irt": 1836,
      "▁based": 1837,
      "▁mo": 1838,
      "▁dest": 1839,
      "png": 1840,
      "reen": 1841,
      "▁running": 1842,
      "amma": 1843,
      "oud": 1844,
      "▁refer": 1845,
      "ious": 1846,
      "▁search": 1847,
      "ald": 1848,
      "ede": 1849,
      "▁wrong": 1850,
      "▁until": 1851,
      "site": 1852,
      "ayer": 1853,
      "▁once": 1854,
      "arr": 1855,
      "▁against": 1856,
      "▁source": 1857,
      "arn": 1858,
      "api": 1859,
      "▁represent": 1860,
      "▁aff": 1861,
      "▁sein": 1862,
      "▁allow": 1863,
      "ormal": 1864,
      "ended": 1865,
      "▁control": 1866,
      "mathbf": 1867,
      "come": 1868,
      "cur": 1869,
      "endo": 1870,
      "wa": 1871,
      "▁update": 1872,
      "▁inside": 1873,
      "▁reason": 1874,
      "omen": 1875,
      "sw": 1876,
      "▁sever": 1877,
      "▁instance": 1878,
      "▁mer": 1879,
      "▁effect": 1880,
      "color": 1881,
      "ugust": 1882,
      "ilt": 1883,
      "des": 1884,
      "itz": 1885,
      "ulation": 1886,
      "nie": 1887,
      "▁similar": 1888,
      "ymbol": 1889,
      "hing": 1890,
      "▁mark": 1891,
      "▁content": 1892,
      "▁means": 1893,
      "amed": 1894,
      "count": 1895,
      "perty": 1896,
      "ctor": 1897,
      "▁getting": 1898,
      "uth": 1899,
      "umber": 1900,
      "schaft": 1901,
      "lete": 1902,
      "head": 1903,
      "▁leg": 1904,
      "arm": 1905,
      "pond": 1906,
      "▁around": 1907,
      "▁clear": 1908,
      "▁href": 1909,
      "▁created": 1910,
      "▁button": 1911,
      "ining": 1912,
      "▁click": 1913,
      "iam": 1914,
      "plit": 1915,
      "▁polit": 1916,
      "▁seem": 1917,
      "▁life": 1918,
      "▁intern": 1919,
      "sel": 1920,
      "soci": 1921,
      "▁stor": 1922,
      "cle": 1923,
      "earch": 1924,
      "android": 1925,
      "▁either": 1926,
      "▁few": 1927,
      "▁initial": 1928,
      "length": 1929,
      "ria": 1930,
      "sql": 1931,
      "wik": 1932,
      "uer": 1933,
      "▁valid": 1934,
      "include": 1935,
      "ury": 1936,
      "▁sus": 1937,
      "ired": 1938,
      "▁due": 1939,
      "▁bei": 1940,
      "ources": 1941,
      "▁break": 1942,
      "ested": 1943,
      "▁actually": 1944,
      "else": 1945,
      "tml": 1946,
      "rer": 1947,
      "ones": 1948,
      "▁design": 1949,
      "▁property": 1950,
      "phi": 1951,
      "ality": 1952,
      "och": 1953,
      "ists": 1954,
      "udio": 1955,
      "ala": 1956,
      "iones": 1957,
      "find": 1958,
      "▁custom": 1959,
      "▁ann": 1960,
      "lambda": 1961,
      "▁ident": 1962,
      "▁organ": 1963,
      "▁os": 1964,
      "▁hard": 1965,
      "ko": 1966,
      "▁exper": 1967,
      "▁separ": 1968,
      "yl": 1969,
      "ourn": 1970,
      "▁dev": 1971,
      "▁auch": 1972,
      "▁block": 1973,
      "book": 1974,
      "▁map": 1975,
      "illa": 1976,
      "▁comput": 1977,
      "▁space": 1978,
      "result": 1979,
      "▁echo": 1980,
      "config": 1981,
      "hi": 1982,
      "▁large": 1983,
      "▁width": 1984,
      "mat": 1985,
      "▁diff": 1986,
      "▁kind": 1987,
      "ances": 1988,
      "ynam": 1989,
      "▁color": 1990,
      "sol": 1991,
      "▁pi": 1992,
      "▁character": 1993,
      "oment": 1994,
      "▁response": 1995,
      "igma": 1996,
      "wards": 1997,
      "arrow": 1998,
      "ties": 1999,
      "yd": 2000,
      "▁node": 2001,
      "▁item": 2002,
      "achine": 2003,
      "ima": 2004,
      "▁va": 2005,
      "▁approach": 2006,
      "▁wer": 2007,
      "ollow": 2008,
      "cted": 2009,
      "ured": 2010,
      "lied": 2011,
      "▁jo": 2012,
      "▁dal": 2013,
      "unk": 2014,
      "start": 2015,
      "ola": 2016,
      "▁compon": 2017,
      "bit": 2018,
      "▁base": 2019,
      "▁idea": 2020,
      "▁dire": 2021,
      "▁rad": 2022,
      "group": 2023,
      "server": 2024,
      "side": 2025,
      "sing": 2026,
      "▁dies": 2027,
      "▁near": 2028,
      "▁voor": 2029,
      "▁argument": 2030,
      "▁land": 2031,
      "▁names": 2032,
      "▁option": 2033,
      "ithub": 2034,
      "pped": 2035,
      "aug": 2036,
      "▁links": 2037,
      "▁full": 2038,
      "▁situ": 2039,
      "▁console": 2040,
      "▁etc": 2041,
      "aux": 2042,
      "icrosoft": 2043,
      "▁came": 2044,
      "local": 2045,
      "▁known": 2046,
      "▁multiple": 2047,
      "anguage": 2048,
      "▁total": 2049,
      "ology": 2050,
      "▁fre": 2051,
      "▁ten": 2052,
      "ideo": 2053,
      "▁bes": 2054,
      "true": 2055,
      "omm": 2056,
      "▁keep": 2057,
      "reate": 2058,
      "pport": 2059,
      "▁python": 2060,
      "tra": 2061,
      "ector": 2062,
      "oph": 2063,
      "▁conc": 2064,
      "▁four": 2065,
      "viron": 2066,
      "▁via": 2067,
      "image": 2068,
      "oll": 2069,
      "▁context": 2070,
      "▁sem": 2071,
      "▁eng": 2072,
      "mar": 2073,
      "▁mor": 2074,
      "▁cell": 2075,
      "imal": 2076,
      "▁inf": 2077,
      "uffer": 2078,
      "sq": 2079,
      "....": 2080,
      "▁zur": 2081,
      "chn": 2082,
      "▁door": 2083,
      "content": 2084,
      "▁miss": 2085,
      "▁simp": 2086,
      "ira": 2087,
      "▁hat": 2088,
      "▁certain": 2089,
      "▁cho": 2090,
      "▁adv": 2091,
      "where": 2092,
      "▁looking": 2093,
      "▁times": 2094,
      "uto": 2095,
      "can": 2096,
      "host": 2097,
      "loat": 2098,
      "▁nicht": 2099,
      "burg": 2100,
      "const": 2101,
      "ades": 2102,
      "▁nothing": 2103,
      "▁incre": 2104,
      "▁power": 2105,
      "ln": 2106,
      "valid": 2107,
      "ungs": 2108,
      "char": 2109,
      "button": 2110,
      "▁alg": 2111,
      "▁ap": 2112,
      "uff": 2113,
      "ability": 2114,
      "▁anything": 2115,
      "ela": 2116,
      "ampion": 2117,
      "▁pot": 2118,
      "▁fut": 2119,
      "ailable": 2120,
      "▁prop": 2121,
      "▁less": 2122,
      "lag": 2123,
      "▁please": 2124,
      "▁style": 2125,
      "bt": 2126,
      "▁probably": 2127,
      "▁poss": 2128,
      "uit": 2129,
      "hn": 2130,
      "json": 2131,
      "err": 2132,
      "rame": 2133,
      "dom": 2134,
      "ilon": 2135,
      "alf": 2136,
      "▁client": 2137,
      "▁continu": 2138,
      "xml": 2139,
      "pec": 2140,
      "ador": 2141,
      "ls": 2142,
      "▁however": 2143,
      "mathrm": 2144,
      "▁url": 2145,
      "▁book": 2146,
      "▁gl": 2147,
      "ives": 2148,
      "gi": 2149,
      "▁tro": 2150,
      "point": 2151,
      "open": 2152,
      "▁cur": 2153,
      "▁era": 2154,
      "▁particular": 2155,
      "oot": 2156,
      "ello": 2157,
      "lobal": 2158,
      "▁action": 2159,
      "▁include": 2160,
      "▁elements": 2161,
      "ards": 2162,
      "▁hum": 2163,
      "from": 2164,
      "change": 2165,
      "▁functions": 2166,
      "hen": 2167,
      "▁height": 2168,
      "ias": 2169,
      "gs": 2170,
      "node": 2171,
      "hand": 2172,
      "▁amb": 2173,
      "▁throw": 2174,
      "▁mot": 2175,
      "▁world": 2176,
      "base": 2177,
      "▁arch": 2178,
      "ged": 2179,
      "pril": 2180,
      "older": 2181,
      "▁several": 2182,
      "lie": 2183,
      "check": 2184,
      "cons": 2185,
      "heck": 2186,
      "▁least": 2187,
      "down": 2188,
      "ebru": 2189,
      "param": 2190,
      "ischer": 2191,
      "▁cas": 2192,
      "▁address": 2193,
      "ufen": 2194,
      "urope": 2195,
      "▁bound": 2196,
      "core": 2197,
      "ouch": 2198,
      "atabase": 2199,
      "ribution": 2200,
      "document": 2201,
      "vern": 2202,
      "▁statement": 2203,
      "ono": 2204,
      "psilon": 2205,
      "▁level": 2206,
      "▁product": 2207,
      "▁course": 2208,
      "▁background": 2209,
      "▁ret": 2210,
      "ering": 2211,
      "most": 2212,
      "▁thread": 2213,
      "itional": 2214,
      "ites": 2215,
      "▁dos": 2216,
      "ga": 2217,
      "day": 2218,
      "▁tw": 2219,
      "▁moment": 2220,
      "title": 2221,
      "create": 2222,
      "version": 2223,
      "▁fur": 2224,
      "pping": 2225,
      "ijn": 2226,
      "▁rather": 2227,
      "ptember": 2228,
      "▁site": 2229,
      "▁caus": 2230,
      "ani": 2231,
      "▁home": 2232,
      "▁short": 2233,
      "pa": 2234,
      "▁lead": 2235,
      "ished": 2236,
      "cing": 2237,
      "ording": 2238,
      "▁prote": 2239,
      "▁didn": 2240,
      "position": 2241,
      "trans": 2242,
      "▁lot": 2243,
      "▁sat": 2244,
      "▁points": 2245,
      "github": 2246,
      "style": 2247,
      "ponent": 2248,
      "omet": 2249,
      "zer": 2250,
      "▁pa": 2251,
      "aces": 2252,
      "ama": 2253,
      "ety": 2254,
      "▁enough": 2255,
      "▁length": 2256,
      "fty": 2257,
      "apter": 2258,
      "▁complet": 2259,
      "max": 2260,
      "object": 2261,
      "imgur": 2262,
      "itive": 2263,
      "unch": 2264,
      "ende": 2265,
      "ategory": 2266,
      "iano": 2267,
      "▁upd": 2268,
      "top": 2269,
      "las": 2270,
      "pis": 2271,
      "iness": 2272,
      "thers": 2273,
      "▁defined": 2274,
      "azione": 2275,
      "▁offic": 2276,
      "▁autom": 2277,
      "▁brow": 2278,
      "▁serv": 2279,
      "▁remove": 2280,
      "iro": 2281,
      "▁whole": 2282,
      "▁zum": 2283,
      "ua": 2284,
      "pm": 2285,
      "dev": 2286,
      "olds": 2287,
      "pass": 2288,
      "uz": 2289,
      "▁tri": 2290,
      "ised": 2291,
      "▁memory": 2292,
      "oper": 2293,
      "ych": 2294,
      "board": 2295,
      "▁begin": 2296,
      "ination": 2297,
      "option": 2298,
      "▁construct": 2299,
      "run": 2300,
      "▁respect": 2301,
      "ham": 2302,
      "imedia": 2303,
      "▁apply": 2304,
      "cription": 2305,
      "main": 2306,
      "oid": 2307,
      "▁format": 2308,
      "▁lat": 2309,
      "utor": 2310,
      "▁reference": 2311,
      "▁calcul": 2312,
      "onn": 2313,
      "infty": 2314,
      "▁along": 2315,
      "▁task": 2316,
      "▁ev": 2317,
      "theta": 2318,
      "ras": 2319,
      "jor": 2320,
      "▁princip": 2321,
      "▁einer": 2322,
      "omb": 2323,
      "quad": 2324,
      "ump": 2325,
      "▁till": 2326,
      "▁looks": 2327,
      "▁ok": 2328,
      "nu": 2329,
      "▁sont": 2330,
      "ague": 2331,
      "▁cost": 2332,
      "▁comment": 2333,
      "egen": 2334,
      "▁parameter": 2335,
      "rep": 2336,
      "▁yet": 2337,
      "▁away": 2338,
      "▁circ": 2339,
      "emp": 2340,
      "▁lines": 2341,
      "empt": 2342,
      "▁mind": 2343,
      "ky": 2344,
      "ging": 2345,
      "▁report": 2346,
      "▁range": 2347,
      "cias": 2348,
      "lip": 2349,
      "gerufen": 2350,
      "aff": 2351,
      "sec": 2352,
      "▁html": 2353,
      "lig": 2354,
      "▁window": 2355,
      "inition": 2356,
      "cis": 2357,
      "▁ut": 2358,
      "eln": 2359,
      "▁aux": 2360,
      "▁neg": 2361,
      "▁anal": 2362,
      "▁fri": 2363,
      "etch": 2364,
      "md": 2365,
      "page": 2366,
      "▁library": 2367,
      "space": 2368,
      "▁durch": 2369,
      "▁host": 2370,
      "aven": 2371,
      "alle": 2372,
      "▁pap": 2373,
      "mark": 2374,
      "▁mais": 2375,
      "erman": 2376,
      "▁isn": 2377,
      "▁copy": 2378,
      "sten": 2379,
      "river": 2380,
      "▁went": 2381,
      "▁javascript": 2382,
      "▁sam": 2383,
      "▁frame": 2384,
      "▁vi": 2385,
      "▁previous": 2386,
      "rodu": 2387,
      "▁methods": 2388,
      "▁necess": 2389,
      "cket": 2390,
      "▁opt": 2391,
      "how": 2392,
      "ship": 2393,
      "▁itself": 2394,
      "iene": 2395,
      "▁mill": 2396,
      "▁trad": 2397,
      "pace": 2398,
      "iten": 2399,
      "wise": 2400,
      "write": 2401,
      "olo": 2402,
      "▁accept": 2403,
      "height": 2404,
      "▁elect": 2405,
      "ella": 2406,
      "ops": 2407,
      "nection": 2408,
      "parent": 2409,
      "▁network": 2410,
      "▁assign": 2411,
      "igger": 2412,
      "irm": 2413,
      "ottom": 2414,
      "beta": 2415,
      "▁dell": 2416,
      "▁body": 2417,
      "▁fue": 2418,
      "▁package": 2419,
      "▁light": 2420,
      "▁cou": 2421,
      "yes": 2422,
      "▁mention": 2423,
      "ensch": 2424,
      "▁deg": 2425,
      "▁convert": 2426,
      "adt": 2427,
      "though": 2428,
      "▁bus": 2429,
      "xy": 2430,
      "▁seen": 2431,
      "public": 2432,
      "ively": 2433,
      "sim": 2434,
      "▁histor": 2435,
      "▁sett": 2436,
      "rat": 2437,
      "abled": 2438,
      "google": 2439,
      "▁title": 2440,
      "▁took": 2441,
      "iden": 2442,
      "sz": 2443,
      "▁objects": 2444,
      "▁common": 2445,
      "▁changes": 2446,
      "▁extern": 2447,
      "▁ju": 2448,
      "▁available": 2449,
      "tri": 2450,
      "osa": 2451,
      "ural": 2452,
      "▁hom": 2453,
      "▁account": 2454,
      "oo": 2455,
      "▁perm": 2456,
      "respond": 2457,
      "yt": 2458,
      "▁send": 2459,
      "▁returns": 2460,
      "ivid": 2461,
      "▁expla": 2462,
      "▁nor": 2463,
      "▁target": 2464,
      "fect": 2465,
      "▁uit": 2466,
      "▁variables": 2467,
      "▁series": 2468,
      "▁func": 2469,
      "▁himself": 2470,
      "anti": 2471,
      "▁ach": 2472,
      "ialog": 2473,
      "▁std": 2474,
      "ae": 2475,
      "▁foot": 2476,
      "▁unter": 2477,
      "gress": 2478,
      "rad": 2479,
      "▁util": 2480,
      "orem": 2481,
      "▁sou": 2482,
      "opt": 2483,
      "▁og": 2484,
      "▁uma": 2485,
      "itar": 2486,
      "sqrt": 2487,
      "▁ant": 2488,
      "▁werden": 2489,
      "▁exception": 2490,
      "▁determ": 2491,
      "▁ess": 2492,
      "lies": 2493,
      "ioni": 2494,
      "oding": 2495,
      "idget": 2496,
      "▁pri": 2497,
      "▁whether": 2498,
      "▁numbers": 2499,
      "event": 2500,
      "▁shows": 2501,
      "atures": 2502,
      "▁house": 2503,
      "▁face": 2504,
      "vironment": 2505,
      "van": 2506,
      "▁including": 2507,
      "times": 2508,
      "now": 2509,
      "▁pur": 2510,
      "ifier": 2511,
      "▁emp": 2512,
      "▁cla": 2513,
      "mon": 2514,
      "ady": 2515,
      "abor": 2516,
      "▁band": 2517,
      "▁exactly": 2518,
      "iert": 2519,
      "avig": 2520,
      "▁redu": 2521,
      "lished": 2522,
      "cell": 2523,
      "fully": 2524,
      "▁sv": 2525,
      "▁makes": 2526,
      "pol": 2527,
      "▁required": 2528,
      "ferrer": 2529,
      "▁pers": 2530,
      "▁mi": 2531,
      "inc": 2532,
      "▁contains": 2533,
      "asure": 2534,
      "pu": 2535,
      "oto": 2536,
      "▁game": 2537,
      "zn": 2538,
      "orith": 2539,
      "big": 2540,
      "sigma": 2541,
      "▁quite": 2542,
      "▁jed": 2543,
      "rec": 2544,
      "ya": 2545,
      "▁school": 2546,
      "▁simply": 2547,
      "▁vor": 2548,
      "▁double": 2549,
      "iem": 2550,
      "▁album": 2551,
      "▁resol": 2552,
      "▁dei": 2553,
      "▁aw": 2554,
      "umb": 2555,
      "ols": 2556,
      "▁ze": 2557,
      "▁anim": 2558,
      "ris": 2559,
      "resh": 2560,
      "iques": 2561,
      "current": 2562,
      "▁period": 2563,
      "▁store": 2564,
      "','": 2565,
      "ached": 2566,
      "antes": 2567,
      "aterial": 2568,
      "▁worked": 2569,
      "leq": 2570,
      "oreferrer": 2571,
      "▁happen": 2572,
      "▁box": 2573,
      "ney": 2574,
      "▁close": 2575,
      "▁gran": 2576,
      "▁lie": 2577,
      "▁ir": 2578,
      "▁expected": 2579,
      "click": 2580,
      "▁parte": 2581,
      "ogn": 2582,
      "▁memb": 2583,
      "▁plan": 2584,
      "▁team": 2585,
      "▁commun": 2586,
      "orry": 2587,
      "ency": 2588,
      "gl": 2589,
      "inary": 2590,
      "cdot": 2591,
      "ander": 2592,
      "request": 2593,
      "▁structure": 2594,
      "actory": 2595,
      "▁assum": 2596,
      "uen": 2597,
      "▁words": 2598,
      "▁days": 2599,
      "ories": 2600,
      "sm": 2601,
      "vin": 2602,
      "partial": 2603,
      "▁parent": 2604,
      "oj": 2605,
      "ugin": 2606,
      "▁q": 2607,
      "▁ben": 2608,
      "iana": 2609,
      "▁label": 2610,
      "state": 2611,
      "uted": 2612,
      "▁edit": 2613,
      "uring": 2614,
      "▁provide": 2615,
      "anel": 2616,
      "ename": 2617,
      "isk": 2618,
      "gra": 2619,
      "elij": 2620,
      "▁root": 2621,
      "used": 2622,
      "range": 2623,
      "▁tamb": 2624,
      "▁module": 2625,
      "▁directory": 2626,
      "ounds": 2627,
      "▁mu": 2628,
      "info": 2629,
      "▁free": 2630,
      "orge": 2631,
      "tab": 2632,
      "lang": 2633,
      "▁enter": 2634,
      "▁became": 2635,
      "idae": 2636,
      "verse": 2637,
      "▁expl": 2638,
      "ynt": 2639,
      "ee": 2640,
      "endent": 2641,
      "▁making": 2642,
      "uni": 2643,
      "quence": 2644,
      "▁lui": 2645,
      "▁uses": 2646,
      "zie": 2647,
      "nia": 2648,
      "▁standard": 2649,
      "fort": 2650,
      "adas": 2651,
      "▁ever": 2652,
      "▁correspond": 2653,
      "argin": 2654,
      "▁remain": 2655,
      "cio": 2656,
      "▁actual": 2657,
      "▁sind": 2658,
      "▁changed": 2659,
      "skie": 2660,
      "▁family": 2661,
      "cos": 2662,
      "txt": 2663,
      "ker": 2664,
      "ceed": 2665,
      "▁arr": 2666,
      "▁cam": 2667,
      "izer": 2668,
      "hel": 2669,
      "icult": 2670,
      "iler": 2671,
      "▁connection": 2672,
      "usion": 2673,
      "kn": 2674,
      "▁vom": 2675,
      "▁dim": 2676,
      "▁press": 2677,
      "▁esc": 2678,
      "atalog": 2679,
      "▁thanks": 2680,
      "▁written": 2681,
      "dir": 2682,
      "rew": 2683,
      "▁fire": 2684,
      "enc": 2685,
      "▁origin": 2686,
      "▁graph": 2687,
      "▁mis": 2688,
      "▁options": 2689,
      "▁php": 2690,
      "▁integr": 2691,
      "inner": 2692,
      "▁crit": 2693,
      "▁tog": 2694,
      "nof": 2695,
      "▁ses": 2696,
      "ube": 2697,
      "▁section": 2698,
      "▁gi": 2699,
      "ford": 2700,
      "ainer": 2701,
      "ttp": 2702,
      "▁behav": 2703,
      "ports": 2704,
      "draw": 2705,
      "ranch": 2706,
      "inding": 2707,
      "▁estab": 2708,
      "▁obtain": 2709,
      "rich": 2710,
      "licit": 2711,
      "▁qual": 2712,
      "▁za": 2713,
      "▁har": 2714,
      "▁fac": 2715,
      "aar": 2716,
      "jet": 2717,
      "icles": 2718,
      "▁hor": 2719,
      "▁remov": 2720,
      "▁wie": 2721,
      "▁natur": 2722,
      "hip": 2723,
      "▁random": 2724,
      "▁area": 2725,
      "tag": 2726,
      "▁roku": 2727,
      "nofollow": 2728,
      "▁others": 2729,
      "▁limit": 2730,
      "▁sil": 2731,
      "▁sav": 2732,
      "▁often": 2733,
      "▁render": 2734,
      "▁zijn": 2735,
      "▁tag": 2736,
      "ming": 2737,
      "lichen": 2738,
      "pack": 2739,
      "▁sense": 2740,
      "pg": 2741,
      "aged": 2742,
      "▁interest": 2743,
      "▁associ": 2744,
      "volution": 2745,
      "▁empty": 2746,
      "iche": 2747,
      "▁gro": 2748,
      "▁types": 2749,
      "▁noreferrer": 2750,
      "▁gives": 2751,
      "hal": 2752,
      "▁save": 2753,
      "▁font": 2754,
      "ruction": 2755,
      "▁alla": 2756,
      "▁says": 2757,
      "▁fu": 2758,
      "ape": 2759,
      "▁language": 2760,
      "iger": 2761,
      "bor": 2762,
      "uv": 2763,
      "▁shall": 2764,
      "▁einem": 2765,
      "▁water": 2766,
      "▁govern": 2767,
      "anz": 2768,
      "ators": 2769,
      "▁month": 2770,
      "ye": 2771,
      "▁important": 2772,
      "atz": 2773,
      "first": 2774,
      "▁bra": 2775,
      "ika": 2776,
      "oria": 2777,
      "kre": 2778,
      "ements": 2779,
      "lav": 2780,
      "▁admin": 2781,
      "ril": 2782,
      "cat": 2783,
      "▁pract": 2784,
      "▁young": 2785,
      "oma": 2786,
      "teger": 2787,
      "ibility": 2788,
      "▁parameters": 2789,
      "▁everything": 2790,
      "dat": 2791,
      "urop": 2792,
      "olean": 2793,
      "▁returned": 2794,
      "acy": 2795,
      "▁folder": 2796,
      "▁kon": 2797,
      "▁guess": 2798,
      "gt": 2799,
      "jen": 2800,
      "annel": 2801,
      "icon": 2802,
      "▁comb": 2803,
      "rict": 2804,
      "▁hij": 2805,
      "▁author": 2806,
      "see": 2807,
      "here": 2808,
      "stra": 2809,
      "▁entire": 2810,
      "▁directly": 2811,
      "raft": 2812,
      "heet": 2813,
      "ester": 2814,
      "▁mass": 2815,
      "untu": 2816,
      "▁users": 2817,
      "chi": 2818,
      "▁component": 2819,
      "▁sobre": 2820,
      "ands": 2821,
      "ori": 2822,
      "▁sua": 2823,
      "std": 2824,
      "entic": 2825,
      "▁filter": 2826,
      "▁performance": 2827,
      "delta": 2828,
      "ande": 2829,
      "amer": 2830,
      "▁cult": 2831,
      "but": 2832,
      "▁lik": 2833,
      "▁comme": 2834,
      "▁dr": 2835,
      "imer": 2836,
      "ordin": 2837,
      "▁condition": 2838,
      "este": 2839,
      "imo": 2840,
      "rab": 2841,
      "▁half": 2842,
      "each": 2843,
      "▁rows": 2844,
      "▁hon": 2845,
      "▁together": 2846,
      "medi": 2847,
      "agn": 2848,
      "alled": 2849,
      "▁vill": 2850,
      "idden": 2851,
      "▁draw": 2852,
      "yntax": 2853,
      "▁attempt": 2854,
      "pose": 2855,
      "▁indic": 2856,
      "▁needs": 2857,
      "▁normal": 2858,
      "urt": 2859,
      "last": 2860,
      "ila": 2861,
      "▁country": 2862,
      "▁fields": 2863,
      "▁max": 2864,
      "owie": 2865,
      "▁deux": 2866,
      "▁built": 2867,
      "▁camp": 2868,
      "ivo": 2869,
      "iva": 2870,
      "icy": 2871,
      "zione": 2872,
      "▁among": 2873,
      "▁cases": 2874,
      "haps": 2875,
      "sers": 2876,
      "arter": 2877,
      "▁iter": 2878,
      "▁named": 2879,
      "exec": 2880,
      "▁season": 2881,
      "tot": 2882,
      "graph": 2883,
      "▁nil": 2884,
      "acional": 2885,
      "▁special": 2886,
      "css": 2887,
      "vs": 2888,
      "ael": 2889,
      "▁city": 2890,
      "ova": 2891,
      "▁article": 2892,
      "spring": 2893,
      "itude": 2894,
      "▁complex": 2895,
      "build": 2896,
      "gamma": 2897,
      "iers": 2898,
      "'.": 2899,
      "car": 2900,
      "apache": 2901,
      "ingen": 2902,
      "▁dynam": 2903,
      "alls": 2904,
      "show": 2905,
      "▁wird": 2906,
      "alth": 2907,
      "model": 2908,
      "abe": 2909,
      "▁lib": 2910,
      "null": 2911,
      "ragment": 2912,
      "▁law": 2913,
      "geb": 2914,
      "▁needed": 2915,
      "▁contr": 2916,
      "aries": 2917,
      "▁screen": 2918,
      "yr": 2919,
      "mm": 2920,
      "▁shown": 2921,
      "▁bad": 2922,
      "▁cast": 2923,
      "▁quant": 2924,
      "iga": 2925,
      "▁ren": 2926,
      "▁transform": 2927,
      "▁difference": 2928,
      "▁tit": 2929,
      "▁step": 2930,
      "▁capt": 2931,
      "▁collection": 2932,
      "ictionary": 2933,
      "rier": 2934,
      "▁move": 2935,
      "cope": 2936,
      "ords": 2937,
      "▁further": 2938,
      "▁columns": 2939,
      "▁fixed": 2940,
      "▁children": 2941,
      "mo": 2942,
      "una": 2943,
      "▁individ": 2944,
      "tty": 2945,
      "aste": 2946,
      "src": 2947,
      "match": 2948,
      "wi": 2949,
      "▁ord": 2950,
      "iving": 2951,
      "▁almost": 2952,
      "reci": 2953,
      "aring": 2954,
      "▁sig": 2955,
      "light": 2956,
      "▁suggest": 2957,
      "olf": 2958,
      "isation": 2959,
      "unicip": 2960,
      "▁figure": 2961,
      "mt": 2962,
      "iale": 2963,
      "▁catch": 2964,
      "default": 2965,
      "▁tele": 2966,
      "▁matter": 2967,
      "cast": 2968,
      "▁handle": 2969,
      "valu": 2970,
      "▁json": 2971,
      "▁exam": 2972,
      "ored": 2973,
      "idos": 2974,
      "append": 2975,
      "rive": 2976,
      "▁club": 2977,
      "mann": 2978,
      "▁este": 2979,
      "esta": 2980,
      "oups": 2981,
      "ismo": 2982,
      "▁classes": 2983,
      "▁infl": 2984,
      "hl": 2985,
      "▁adding": 2986,
      "▁fail": 2987,
      "xx": 2988,
      "util": 2989,
      "▁location": 2990,
      "lege": 2991,
      "ago": 2992,
      "▁properties": 2993,
      "abil": 2994,
      "vas": 2995,
      "itted": 2996,
      "▁asked": 2997,
      "▁tab": 2998,
      "▁errors": 2999,
      "ographie": 3000,
      "▁mal": 3001,
      "stract": 3002,
      "▁dro": 3003,
      "rak": 3004,
      "▁note": 3005,
      "▁setting": 3006,
      "▁fem": 3007,
      "▁saw": 3008,
      "iar": 3009,
      "▁pred": 3010,
      "▁items": 3011,
      "▁werd": 3012,
      "ersion": 3013,
      "lia": 3014,
      "▁sin": 3015,
      "ichte": 3016,
      "▁feel": 3017,
      "▁oder": 3018,
      "ocument": 3019,
      "▁mode": 3020,
      "mes": 3021,
      "framework": 3022,
      "▁auto": 3023,
      "uby": 3024,
      "▁template": 3025,
      "▁mess": 3026,
      "ieder": 3027,
      "▁related": 3028,
      "oken": 3029,
      "▁follows": 3030,
      "search": 3031,
      "ami": 3032,
      "▁wait": 3033,
      "igr": 3034,
      "▁low": 3035,
      "▁ill": 3036,
      "amento": 3037,
      "▁df": 3038,
      "osition": 3039,
      "isf": 3040,
      "ahl": 3041,
      "war": 3042,
      "itect": 3043,
      "▁sal": 3044,
      "elen": 3045,
      "▁gru": 3046,
      "sv": 3047,
      "▁passed": 3048,
      "▁solve": 3049,
      "weise": 3050,
      "atos": 3051,
      "▁meg": 3052,
      "▁member": 3053,
      "ername": 3054,
      "▁connect": 3055,
      "ips": 3056,
      "▁round": 3057,
      "nes": 3058,
      "▁dir": 3059,
      "dy": 3060,
      "▁received": 3061,
      "reet": 3062,
      "ango": 3063,
      "▁ener": 3064,
      "lad": 3065,
      "▁define": 3066,
      "sign": 3067,
      "▁cle": 3068,
      "figure": 3069,
      "textbf": 3070,
      "number": 3071,
      "▁din": 3072,
      "eller": 3073,
      "orithm": 3074,
      "false": 3075,
      "fol": 3076,
      "fficient": 3077,
      "liche": 3078,
      "▁introdu": 3079,
      "exp": 3080,
      "▁strong": 3081,
      "▁thus": 3082,
      "▁ele": 3083,
      "▁dont": 3084,
      "▁cause": 3085,
      "▁images": 3086,
      "▁sample": 3087,
      "▁sci": 3088,
      "like": 3089,
      "div": 3090,
      "anc": 3091,
      "▁front": 3092,
      "nen": 3093,
      "▁missing": 3094,
      "aria": 3095,
      "pres": 3096,
      "filter": 3097,
      "▁opp": 3098,
      "▁sql": 3099,
      "eren": 3100,
      "emat": 3101,
      "▁ci": 3102,
      "enne": 3103,
      "atform": 3104,
      "▁taken": 3105,
      "▁err": 3106,
      "wiki": 3107,
      "▁grand": 3108,
      "▁einen": 3109,
      "conom": 3110,
      "anger": 3111,
      "▁expression": 3112,
      "yal": 3113,
      "▁switch": 3114,
      "▁vector": 3115,
      "▁virt": 3116,
      "leased": 3117,
      "▁cover": 3118,
      "▁resp": 3119,
      "ako": 3120,
      "rench": 3121,
      "ota": 3122,
      "anged": 3123,
      "lac": 3124,
      "ska": 3125,
      "next": 3126,
      "▁ont": 3127,
      "ibr": 3128,
      "ustr": 3129,
      "▁black": 3130,
      "▁selected": 3131,
      "cher": 3132,
      "▁liter": 3133,
      "root": 3134,
      "▁insert": 3135,
      "▁matrix": 3136,
      "ises": 3137,
      "▁pel": 3138,
      "rypt": 3139,
      "▁former": 3140,
      "client": 3141,
      "▁night": 3142,
      "rho": 3143,
      "ipedia": 3144,
      "▁express": 3145,
      "▁third": 3146,
      "▁major": 3147,
      "▁grad": 3148,
      "owe": 3149,
      "▁believe": 3150,
      "ournal": 3151,
      "▁status": 3152,
      "unc": 3153,
      "▁dou": 3154,
      "uis": 3155,
      "▁population": 3156,
      "enz": 3157,
      "sf": 3158,
      "▁cin": 3159,
      "curity": 3160,
      "lar": 3161,
      "adding": 3162,
      "▁kom": 3163,
      "▁kil": 3164,
      "umer": 3165,
      "▁feature": 3166,
      "cks": 3167,
      "▁ih": 3168,
      "▁started": 3169,
      "▁early": 3170,
      "▁began": 3171,
      "python": 3172,
      "asp": 3173,
      "▁clos": 3174,
      "istic": 3175,
      "▁music": 3176,
      "▁dig": 3177,
      "▁ital": 3178,
      "▁website": 3179,
      "▁controller": 3180,
      "context": 3181,
      "product": 3182,
      "osp": 3183,
      "▁jun": 3184,
      "rown": 3185,
      "▁aan": 3186,
      "mult": 3187,
      "▁browser": 3188,
      "which": 3189,
      "quare": 3190,
      "▁soon": 3191,
      "tau": 3192,
      "▁week": 3193,
      "▁oct": 3194,
      "▁town": 3195,
      "roy": 3196,
      "▁els": 3197,
      "blic": 3198,
      "undle": 3199,
      "▁foi": 3200,
      "▁models": 3201,
      "onym": 3202,
      "gener": 3203,
      "▁espe": 3204,
      "▁device": 3205,
      "ellow": 3206,
      "▁debug": 3207,
      "using": 3208,
      "udi": 3209,
      "posed": 3210,
      "▁zwe": 3211,
      "lop": 3212,
      "jar": 3213,
      "▁aver": 3214,
      "▁habit": 3215,
      "▁pow": 3216,
      "▁src": 3217,
      "▁pattern": 3218,
      "▁bi": 3219,
      "otes": 3220,
      "▁sens": 3221,
      "▁avoid": 3222,
      "example": 3223,
      "utt": 3224,
      "tex": 3225,
      "boot": 3226,
      "esto": 3227,
      "▁easy": 3228,
      "icture": 3229,
      "▁father": 3230,
      "▁updated": 3231,
      "omega": 3232,
      "▁alle": 3233,
      "yg": 3234,
      "nect": 3235,
      "▁deutsch": 3236,
      "▁white": 3237,
      "▁national": 3238,
      "ppe": 3239,
      "▁air": 3240,
      "▁password": 3241,
      "det": 3242,
      "▁big": 3243,
      "call": 3244,
      "▁extra": 3245,
      "ania": 3246,
      "▁hold": 3247,
      "iti": 3248,
      "enu": 3249,
      "▁auth": 3250,
      "▁center": 3251,
      "iding": 3252,
      "▁across": 3253,
      "▁song": 3254,
      "▁phys": 3255,
      "▁numer": 3256,
      "▁problems": 3257,
      "format": 3258,
      "▁six": 3259,
      "▁db": 3260,
      "oms": 3261,
      "project": 3262,
      "▁vert": 3263,
      "cret": 3264,
      "▁header": 3265,
      "▁stream": 3266,
      "ids": 3267,
      "▁tor": 3268,
      "▁sept": 3269,
      "▁estim": 3270,
      "▁decl": 3271,
      "▁gave": 3272,
      "▁player": 3273,
      "ysis": 3274,
      "amm": 3275,
      "▁ax": 3276,
      "usr": 3277,
      "▁someone": 3278,
      "▁impro": 3279,
      "aden": 3280,
      "rote": 3281,
      "ih": 3282,
      "▁video": 3283,
      "▁exists": 3284,
      "▁complete": 3285,
      "▁session": 3286,
      "▁constant": 3287,
      "icos": 3288,
      "▁pack": 3289,
      "rome": 3290,
      "egr": 3291,
      "▁yes": 3292,
      "▁elle": 3293,
      "▁email": 3294,
      "orf": 3295,
      "case": 3296,
      "▁pointer": 3297,
      "▁regard": 3298,
      "sen": 3299,
      "status": 3300,
      "▁mes": 3301,
      "▁delle": 3302,
      "ington": 3303,
      "develop": 3304,
      "▁force": 3305,
      "▁characters": 3306,
      "▁cross": 3307,
      "▁death": 3308,
      "▁takes": 3309,
      "igne": 3310,
      "ju": 3311,
      "iny": 3312,
      "▁details": 3313,
      "▁xml": 3314,
      "tait": 3315,
      "output": 3316,
      "message": 3317,
      "''": 3318,
      "ville": 3319,
      "cm": 3320,
      "column": 3321,
      "eqref": 3322,
      "onom": 3323,
      "ellen": 3324,
      "▁perfect": 3325,
      "vision": 3326,
      "active": 3327,
      "lier": 3328,
      "rij": 3329,
      "sd": 3330,
      "▁nie": 3331,
      "▁relig": 3332,
      "▁ot": 3333,
      "▁machine": 3334,
      "▁held": 3335,
      "cker": 3336,
      "born": 3337,
      "▁past": 3338,
      "▁regular": 3339,
      "▁provided": 3340,
      "▁univers": 3341,
      "▁gets": 3342,
      "▁nu": 3343,
      "ober": 3344,
      "fin": 3345,
      "▁nella": 3346,
      "▁become": 3347,
      "▁history": 3348,
      "▁terms": 3349,
      "▁events": 3350,
      "lymp": 3351,
      "▁absol": 3352,
      "▁soft": 3353,
      "links": 3354,
      "▁hope": 3355,
      "▁subject": 3356,
      "▁creating": 3357,
      "▁flow": 3358,
      "▁assert": 3359,
      "zet": 3360,
      "sa": 3361,
      "▁distribution": 3362,
      "cu": 3363,
      "band": 3364,
      "izz": 3365,
      "▁job": 3366,
      "iner": 3367,
      "struct": 3368,
      "auf": 3369,
      "▁extends": 3370,
      "display": 3371,
      "▁signific": 3372,
      "oney": 3373,
      "source": 3374,
      "microsoft": 3375,
      "inder": 3376,
      "▁quick": 3377,
      "▁wonder": 3378,
      "elles": 3379,
      "▁company": 3380,
      "▁separate": 3381,
      "▁writing": 3382,
      "itution": 3383,
      "process": 3384,
      "▁sym": 3385,
      "▁ao": 3386,
      "▁wy": 3387,
      "▁anyone": 3388,
      "useum": 3389,
      "aron": 3390,
      "▁definition": 3391,
      "▁fav": 3392,
      "ributes": 3393,
      "ografia": 3394,
      "element": 3395,
      "cap": 3396,
      "pat": 3397,
      "▁according": 3398,
      "▁pie": 3399,
      "eli": 3400,
      "▁activ": 3401,
      "▁stop": 3402,
      "patch": 3403,
      "▁prze": 3404,
      "▁age": 3405,
      "itory": 3406,
      "agement": 3407,
      "▁pretty": 3408,
      "▁recomm": 3409,
      "▁sud": 3410,
      "▁requ": 3411,
      "atives": 3412,
      "oul": 3413,
      "rest": 3414,
      "under": 3415,
      "thern": 3416,
      "center": 3417,
      "▁ur": 3418,
      "lat": 3419,
      "▁interface": 3420,
      "▁whose": 3421,
      "icas": 3422,
      "amen": 3423,
      "▁station": 3424,
      "▁arm": 3425,
      "▁eyes": 3426,
      "▁seu": 3427,
      "oli": 3428,
      "win": 3429,
      "lik": 3430,
      "gex": 3431,
      "chan": 3432,
      "idence": 3433,
      "args": 3434,
      "aking": 3435,
      "▁ho": 3436,
      "▁automat": 3437,
      "▁cy": 3438,
      "lor": 3439,
      "▁stack": 3440,
      "▁compet": 3441,
      "▁pair": 3442,
      "grad": 3443,
      "▁documentation": 3444,
      "▁cant": 3445,
      "▁appreci": 3446,
      "▁learn": 3447,
      "▁indep": 3448,
      "▁pal": 3449,
      "package": 3450,
      "ares": 3451,
      "reich": 3452,
      "▁satisf": 3453,
      "▁region": 3454,
      "▁friend": 3455,
      "▁desde": 3456,
      "ouv": 3457,
      "▁installed": 3458,
      "▁wanted": 3459,
      "▁interpre": 3460,
      "▁included": 3461,
      "▁altern": 3462,
      "isto": 3463,
      "gn": 3464,
      "▁border": 3465,
      "pdf": 3466,
      "▁dup": 3467,
      "▁download": 3468,
      "just": 3469,
      "▁members": 3470,
      "child": 3471,
      "▁pay": 3472,
      "▁cer": 3473,
      "▁looked": 3474,
      "▁correctly": 3475,
      "auth": 3476,
      "▁esp": 3477,
      "▁desc": 3478,
      "eben": 3479,
      "▁questions": 3480,
      "mal": 3481,
      "▁abgerufen": 3482,
      "▁ris": 3483,
      "▁fort": 3484,
      "▁various": 3485,
      "irl": 3486,
      "itter": 3487,
      "▁fast": 3488,
      "sta": 3489,
      "▁except": 3490,
      "icz": 3491,
      "▁environment": 3492,
      "▁conse": 3493,
      "▁necessary": 3494,
      "target": 3495,
      "▁reading": 3496,
      "home": 3497,
      "zeich": 3498,
      "▁equal": 3499,
      "▁prem": 3500,
      "▁difficult": 3501,
      "▁unit": 3502,
      "▁replace": 3503,
      "▁heart": 3504,
      "▁talk": 3505,
      "endency": 3506,
      "▁imm": 3507,
      "▁human": 3508,
      "dn": 3509,
      "known": 3510,
      "▁frequ": 3511,
      "system": 3512,
      "selves": 3513,
      "rightarrow": 3514,
      "▁building": 3515,
      "import": 3516,
      "▁fam": 3517,
      "▁delete": 3518,
      "aire": 3519,
      "mary": 3520,
      "▁fund": 3521,
      "▁particip": 3522,
      "▁syn": 3523,
      "sin": 3524,
      "▁lower": 3525,
      "▁zero": 3526,
      "▁sec": 3527,
      "▁fra": 3528,
      "▁failed": 3529,
      "iento": 3530,
      "cup": 3531,
      "▁slow": 3532,
      "▁nation": 3533,
      "▁info": 3534,
      "▁decla": 3535,
      "▁sold": 3536,
      "▁mehr": 3537,
      "▁fait": 3538,
      "▁gew": 3539,
      "println": 3540,
      "obile": 3541,
      "▁assume": 3542,
      "lands": 3543,
      "▁amount": 3544,
      "▁maxim": 3545,
      "library": 3546,
      "▁zw": 3547,
      "▁social": 3548,
      "vor": 3549,
      "email": 3550,
      "raint": 3551,
      "oni": 3552,
      "▁alt": 3553,
      "ography": 3554,
      "▁mentioned": 3555,
      "▁cette": 3556,
      "▁currently": 3557,
      "vare": 3558,
      "izing": 3559,
      "icol": 3560,
      "▁configuration": 3561,
      "estig": 3562,
      "lam": 3563,
      "▁tu": 3564,
      "cie": 3565,
      "▁proof": 3566,
      "▁invol": 3567,
      "avy": 3568,
      "▁relations": 3569,
      "▁comes": 3570,
      "▁direction": 3571,
      "ech": 3572,
      "sg": 3573,
      "▁stra": 3574,
      "uct": 3575,
      "▁implementation": 3576,
      "attle": 3577,
      "▁cz": 3578,
      "plot": 3579,
      "▁played": 3580,
      "▁five": 3581,
      "▁coll": 3582,
      "▁suo": 3583,
      "files": 3584,
      "entes": 3585,
      "response": 3586,
      "▁ign": 3587,
      "▁led": 3588,
      "udo": 3589,
      "▁tim": 3590,
      "ounter": 3591,
      "▁attack": 3592,
      "uri": 3593,
      "esse": 3594,
      "ivil": 3595,
      "▁vel": 3596,
      "matrix": 3597,
      "gio": 3598,
      "has": 3599,
      "▁ihr": 3600,
      "▁attribute": 3601,
      "▁discuss": 3602,
      "▁domain": 3603,
      "bind": 3604,
      "rik": 3605,
      "close": 3606,
      "gin": 3607,
      "▁love": 3608,
      "anto": 3609,
      "gent": 3610,
      "aba": 3611,
      "jango": 3612,
      "bi": 3613,
      "▁obser": 3614,
      "itting": 3615,
      "agen": 3616,
      "some": 3617,
      "▁soci": 3618,
      "▁individual": 3619,
      "▁deal": 3620,
      "▁outside": 3621,
      "rio": 3622,
      "andid": 3623,
      "▁business": 3624,
      "▁tempor": 3625,
      "riter": 3626,
      "▁google": 3627,
      "itte": 3628,
      "xi": 3629,
      "hol": 3630,
      "ring": 3631,
      "▁sul": 3632,
      "gar": 3633,
      "▁modern": 3634,
      "▁win": 3635,
      "uster": 3636,
      "han": 3637,
      "formation": 3638,
      "void": 3639,
      "▁useful": 3640,
      "los": 3641,
      "etime": 3642,
      "eur": 3643,
      "▁unique": 3644,
      "ying": 3645,
      "obj": 3646,
      "uid": 3647,
      "▁windows": 3648,
      "▁distance": 3649,
      "▁nombre": 3650,
      "ocus": 3651,
      "ahn": 3652,
      "ierte": 3653,
      "▁dar": 3654,
      "long": 3655,
      "asta": 3656,
      "iven": 3657,
      "▁told": 3658,
      "foo": 3659,
      "▁calling": 3660,
      "iembre": 3661,
      "▁future": 3662,
      "leep": 3663,
      "avigation": 3664,
      "▁described": 3665,
      "▁noch": 3666,
      "unit": 3667,
      "allen": 3668,
      "▁branch": 3669,
      "fa": 3670,
      "▁fill": 3671,
      "▁obj": 3672,
      "▁tree": 3673,
      "▁wurden": 3674,
      "rot": 3675,
      "split": 3676,
      "emein": 3677,
      "module": 3678,
      "▁operator": 3679,
      "▁wrote": 3680,
      "ologie": 3681,
      "stream": 3682,
      "epsilon": 3683,
      "non": 3684,
      "stein": 3685,
      "▁simpl": 3686,
      "pub": 3687,
      "▁nature": 3688,
      "iles": 3689,
      "▁wel": 3690,
      "▁mut": 3691,
      "location": 3692,
      "▁therefore": 3693,
      "elli": 3694,
      "ledge": 3695,
      "▁conver": 3696,
      "vider": 3697,
      "▁usually": 3698,
      "▁released": 3699,
      "iller": 3700,
      "▁jan": 3701,
      "▁letter": 3702,
      "produ": 3703,
      "rd": 3704,
      ",'": 3705,
      "▁push": 3706,
      "update": 3707,
      "▁maybe": 3708,
      "service": 3709,
      "parse": 3710,
      "▁dass": 3711,
      "more": 3712,
      "▁mas": 3713,
      "▁likely": 3714,
      "▁material": 3715,
      "▁longer": 3716,
      "bal": 3717,
      "igt": 3718,
      "▁egy": 3719,
      "idge": 3720,
      "igu": 3721,
      "conf": 3722,
      "▁inc": 3723,
      "▁mai": 3724,
      "▁global": 3725,
      "▁sel": 3726,
      "▁municip": 3727,
      "▁viol": 3728,
      "▁compos": 3729,
      "▁respons": 3730,
      "▁considered": 3731,
      "pes": 3732,
      "osto": 3733,
      "▁milit": 3734,
      "attr": 3735,
      "cil": 3736,
      "irectory": 3737,
      "aving": 3738,
      "▁prevent": 3739,
      "idade": 3740,
      "git": 3741,
      "iform": 3742,
      "outer": 3743,
      "inct": 3744,
      "level": 3745,
      "atever": 3746,
      "▁repe": 3747,
      "▁exc": 3748,
      "eline": 3749,
      "untime": 3750,
      "▁larg": 3751,
      "creen": 3752,
      "yles": 3753,
      "▁transl": 3754,
      "ensions": 3755,
      "isse": 3756,
      "▁volt": 3757,
      "cially": 3758,
      "nik": 3759,
      "fill": 3760,
      "lov": 3761,
      "▁nur": 3762,
      "ience": 3763,
      "efined": 3764,
      "dz": 3765,
      "iker": 3766,
      "owa": 3767,
      "▁linear": 3768,
      "▁export": 3769,
      "ahr": 3770,
      "icial": 3771,
      "▁natural": 3772,
      "▁cop": 3773,
      "zz": 3774,
      "inger": 3775,
      "▁taking": 3776,
      "▁dam": 3777,
      "▁issues": 3778,
      "edit": 3779,
      "▁prz": 3780,
      "password": 3781,
      "rim": 3782,
      "▁parts": 3783,
      "iginal": 3784,
      "▁mother": 3785,
      "rea": 3786,
      "▁container": 3787,
      "▁none": 3788,
      "▁followed": 3789,
      "▁ple": 3790,
      "▁measure": 3791,
      "▁tout": 3792,
      "▁explain": 3793,
      "▁paper": 3794,
      "ws": 3795,
      "▁mm": 3796,
      "font": 3797,
      "ecause": 3798,
      "▁ens": 3799,
      "▁retr": 3800,
      "▁sequence": 3801,
      "arc": 3802,
      "▁roz": 3803,
      "ovie": 3804,
      "make": 3805,
      "orph": 3806,
      "reference": 3807,
      "▁features": 3808,
      "▁late": 3809,
      "▁additional": 3810,
      "▁flo": 3811,
      "▁algorithm": 3812,
      "kar": 3813,
      "▁appears": 3814,
      "yw": 3815,
      "▁temp": 3816,
      "▁aussi": 3817,
      "method": 3818,
      "▁pet": 3819,
      "strap": 3820,
      "arning": 3821,
      "▁cut": 3822,
      "▁track": 3823,
      "▁employ": 3824,
      "▁inde": 3825,
      "rav": 3826,
      "▁generate": 3827,
      "bes": 3828,
      "arts": 3829,
      "uge": 3830,
      "alis": 3831,
      "▁override": 3832,
      "▁fi": 3833,
      "▁lost": 3834,
      "oted": 3835,
      "▁room": 3836,
      "▁calls": 3837,
      "▁consist": 3838,
      "▁village": 3839,
      "dist": 3840,
      "▁techn": 3841,
      "enza": 3842,
      "▁becom": 3843,
      "rows": 3844,
      "comple": 3845,
      "▁premi": 3846,
      "▁rot": 3847,
      "▁football": 3848,
      "▁compar": 3849,
      "▁live": 3850,
      "▁equival": 3851,
      "cape": 3852,
      "nder": 3853,
      "▁behind": 3854,
      "gers": 3855,
      "voke": 3856,
      "▁media": 3857,
      "that": 3858,
      "▁sono": 3859,
      "▁mysql": 3860,
      "ev": 3861,
      "▁rule": 3862,
      "acc": 3863,
      "▁jul": 3864,
      "▁mort": 3865,
      "▁generated": 3866,
      "encia": 3867,
      "acter": 3868,
      "clud": 3869,
      "▁scen": 3870,
      "▁closed": 3871,
      "▁mount": 3872,
      "▁drop": 3873,
      "▁combin": 3874,
      "tocol": 3875,
      "▁goes": 3876,
      "▁geb": 3877,
      "▁ca": 3878,
      "▁instru": 3879,
      "eds": 3880,
      "▁tool": 3881,
      "mys": 3882,
      "▁route": 3883,
      "▁float": 3884,
      "▁services": 3885,
      "embly": 3886,
      "aker": 3887,
      "asse": 3888,
      "ously": 3889,
      "lications": 3890,
      "▁ru": 3891,
      "▁immedi": 3892,
      "oro": 3893,
      "▁production": 3894,
      "rei": 3895,
      "▁jquery": 3896,
      "annt": 3897,
      "▁sn": 3898,
      "▁star": 3899,
      "▁ko": 3900,
      "cha": 3901,
      "what": 3902,
      "omin": 3903,
      "endant": 3904,
      "hy": 3905,
      "▁observ": 3906,
      "▁prefer": 3907,
      "▁constructor": 3908,
      "bs": 3909,
      "▁mac": 3910,
      "▁story": 3911,
      "▁symbol": 3912,
      "eles": 3913,
      "asing": 3914,
      "▁west": 3915,
      "ians": 3916,
      "▁master": 3917,
      "▁ways": 3918,
      "bm": 3919,
      "▁pick": 3920,
      "▁depart": 3921,
      "enk": 3922,
      "lipse": 3923,
      "▁math": 3924,
      "fs": 3925,
      "rum": 3926,
      "▁development": 3927,
      "ernel": 3928,
      "rangle": 3929,
      "▁conditions": 3930,
      "▁gli": 3931,
      "▁operation": 3932,
      "acht": 3933,
      "ights": 3934,
      "▁mist": 3935,
      "anda": 3936,
      "▁energy": 3937,
      "▁women": 3938,
      "akt": 3939,
      "gebra": 3940,
      "▁meet": 3941,
      "iu": 3942,
      "well": 3943,
      "▁government": 3944,
      "ieg": 3945,
      "▁syntax": 3946,
      "fix": 3947,
      "jquery": 3948,
      "▁card": 3949,
      "▁principal": 3950,
      "▁dru": 3951,
      "▁territ": 3952,
      "tres": 3953,
      "agne": 3954,
      "lying": 3955,
      "tilde": 3956,
      "bern": 3957,
      "enter": 3958,
      "▁somet": 3959,
      "lice": 3960,
      "▁sous": 3961,
      "▁logic": 3962,
      "▁cir": 3963,
      "chron": 3964,
      "▁han": 3965,
      "▁margin": 3966,
      "nych": 3967,
      "push": 3968,
      "bolds": 3969,
      "▁layout": 3970,
      "boldsymbol": 3971,
      "ising": 3972,
      "▁states": 3973,
      "▁existing": 3974,
      "support": 3975,
      "▁research": 3976,
      "licate": 3977,
      "vari": 3978,
      "▁bij": 3979,
      "▁appe": 3980,
      "▁happens": 3981,
      "▁concern": 3982,
      "west": 3983,
      "▁saying": 3984,
      "pid": 3985,
      "▁recogn": 3986,
      "▁cs": 3987,
      "▁clean": 3988,
      "lections": 3989,
      "access": 3990,
      "acity": 3991,
      "▁easily": 3992,
      "▁jako": 3993,
      "▁iz": 3994,
      "▁forma": 3995,
      "sche": 3996,
      "swers": 3997,
      "▁offer": 3998,
      "quired": 3999,
      "▁subst": 4000,
      "▁ground": 4001,
      "unn": 4002,
      "rod": 4003,
      "spe": 4004,
      "ursor": 4005,
      "▁leave": 4006,
      "erk": 4007,
      "▁tal": 4008,
      "▁bottom": 4009,
      "▁popular": 4010,
      "igo": 4011,
      "values": 4012,
      "▁anche": 4013,
      "▁located": 4014,
      "ulate": 4015,
      "▁join": 4016,
      "aves": 4017,
      "vet": 4018,
      "lio": 4019,
      "remove": 4020,
      "▁token": 4021,
      "▁optim": 4022,
      "▁claim": 4023,
      "ological": 4024,
      "▁css": 4025,
      "▁although": 4026,
      "▁priv": 4027,
      "entication": 4028,
      "▁ven": 4029,
      "dt": 4030,
      "perties": 4031,
      "▁epis": 4032,
      "wikipedia": 4033,
      "▁engine": 4034,
      "▁fer": 4035,
      "▁rom": 4036,
      "varepsilon": 4037,
      "▁prime": 4038,
      "istry": 4039,
      "pected": 4040,
      "orage": 4041,
      "▁touch": 4042,
      "▁dan": 4043,
      "aciones": 4044,
      "▁whom": 4045,
      "▁behavior": 4046,
      "▁strings": 4047,
      "circ": 4048,
      "▁pun": 4049,
      "▁register": 4050,
      "buntu": 4051,
      "rain": 4052,
      "▁sometimes": 4053,
      "▁ment": 4054,
      "▁integer": 4055,
      "legate": 4056,
      "othing": 4057,
      "▁sound": 4058,
      "laces": 4059,
      "rb": 4060,
      "di": 4061,
      "▁themselves": 4062,
      "▁settings": 4063,
      "▁norm": 4064,
      "▁runs": 4065,
      "▁perhaps": 4066,
      "▁mol": 4067,
      "▁ans": 4068,
      "atre": 4069,
      "anie": 4070,
      "▁allowed": 4071,
      "via": 4072,
      "utorial": 4073,
      "ensor": 4074,
      "estival": 4075,
      "▁turned": 4076,
      "scope": 4077,
      "▁bien": 4078,
      "▁extension": 4079,
      "atore": 4080,
      "▁specify": 4081,
      "edu": 4082,
      "▁stored": 4083,
      "▁parse": 4084,
      "▁answers": 4085,
      "ills": 4086,
      "▁heard": 4087,
      "lu": 4088,
      "▁ful": 4089,
      "ez": 4090,
      "then": 4091,
      "dp": 4092,
      "▁categ": 4093,
      "▁guer": 4094,
      "stat": 4095,
      "▁woman": 4096,
      "wood": 4097,
      "oder": 4098,
      "▁bool": 4099,
      "▁international": 4100,
      "▁addition": 4101,
      "▁aber": 4102,
      "▁hier": 4103,
      "ugh": 4104,
      "▁pob": 4105,
      "▁tables": 4106,
      "▁higher": 4107,
      "psi": 4108,
      "▁active": 4109,
      "▁description": 4110,
      "▁seemed": 4111,
      "▁myself": 4112,
      "▁menu": 4113,
      "del": 4114,
      "ele": 4115,
      "mut": 4116,
      "oon": 4117,
      "asc": 4118,
      "bug": 4119,
      "▁moved": 4120,
      "▁datas": 4121,
      "▁reach": 4122,
      "▁evalu": 4123,
      "▁sets": 4124,
      ".'": 4125,
      "overn": 4126,
      "jpg": 4127,
      "imento": 4128,
      "▁achieve": 4129,
      "▁incor": 4130,
      "▁onder": 4131,
      "engl": 4132,
      "▁waren": 4133,
      "lage": 4134,
      "encias": 4135,
      "uda": 4136,
      "only": 4137,
      "nej": 4138,
      "▁relative": 4139,
      "▁hours": 4140,
      "▁indeed": 4141,
      "undo": 4142,
      "ingu": 4143,
      "area": 4144,
      "beit": 4145,
      "▁removed": 4146,
      "master": 4147,
      "haus": 4148,
      "▁speed": 4149,
      "application": 4150,
      "▁fit": 4151,
      "▁nord": 4152,
      "▁split": 4153,
      "▁stru": 4154,
      "▁official": 4155,
      "▁execute": 4156,
      "ouve": 4157,
      "dim": 4158,
      "▁setup": 4159,
      "▁share": 4160,
      "▁minutes": 4161,
      "gle": 4162,
      "oco": 4163,
      "stell": 4164,
      "▁temper": 4165,
      "keit": 4166,
      "ao": 4167,
      "▁dens": 4168,
      "gan": 4169,
      "▁entry": 4170,
      "install": 4171,
      "▁starting": 4172,
      "▁sto": 4173,
      "▁minim": 4174,
      "▁explicit": 4175,
      "▁bytes": 4176,
      "▁party": 4177,
      "tober": 4178,
      "▁leur": 4179,
      "erc": 4180,
      "ensive": 4181,
      "env": 4182,
      "▁arguments": 4183,
      "arily": 4184,
      "▁lin": 4185,
      "tn": 4186,
      "geq": 4187,
      "▁tour": 4188,
      "▁nav": 4189,
      "▁properly": 4190,
      "▁scale": 4191,
      "astic": 4192,
      "ds": 4193,
      "you": 4194,
      "▁brought": 4195,
      "▁role": 4196,
      "▁fond": 4197,
      "▁ges": 4198,
      "eten": 4199,
      "▁equation": 4200,
      "aspx": 4201,
      "▁dit": 4202,
      "empty": 4203,
      "alement": 4204,
      "wrap": 4205,
      "▁collect": 4206,
      "▁git": 4207,
      "▁vie": 4208,
      "▁..": 4209,
      "▁educ": 4210,
      "kl": 4211,
      "ensis": 4212,
      "cert": 4213,
      "essor": 4214,
      "cade": 4215,
      "dot": 4216,
      "augh": 4217,
      "hib": 4218,
      "▁automatically": 4219,
      "▁spir": 4220,
      "present": 4221,
      "custom": 4222,
      "▁proget": 4223,
      "▁administr": 4224,
      "▁born": 4225,
      "athol": 4226,
      "ierre": 4227,
      "▁ran": 4228,
      "▁profession": 4229,
      "ogen": 4230,
      "▁activity": 4231,
      "▁scroll": 4232,
      "▁prove": 4233,
      "ibrary": 4234,
      "eries": 4235,
      "year": 4236,
      "▁lang": 4237,
      "▁knew": 4238,
      "▁protected": 4239,
      "▁wor": 4240,
      "▁effic": 4241,
      "▁theory": 4242,
      "▁published": 4243,
      "real": 4244,
      "▁durante": 4245,
      "▁positive": 4246,
      "▁forward": 4247,
      "park": 4248,
      "▁eer": 4249,
      "enta": 4250,
      "▁imag": 4251,
      "piel": 4252,
      "isme": 4253,
      "chni": 4254,
      "organ": 4255,
      "▁args": 4256,
      "oir": 4257,
      "heim": 4258,
      "rian": 4259,
      "eless": 4260,
      "uses": 4261,
      "▁indust": 4262,
      "▁wish": 4263,
      "oca": 4264,
      "▁angular": 4265,
      "ieved": 4266,
      "▁occur": 4267,
      "onia": 4268,
      "admin": 4269,
      "▁loss": 4270,
      "▁bal": 4271,
      "▁career": 4272,
      "▁fall": 4273,
      "ened": 4274,
      "graphics": 4275,
      "▁coming": 4276,
      "▁died": 4277,
      "eden": 4278,
      "▁abs": 4279,
      "▁inner": 4280,
      "▁trav": 4281,
      "▁cel": 4282,
      "▁stuff": 4283,
      "▁situation": 4284,
      "acle": 4285,
      "▁purpose": 4286,
      "▁upload": 4287,
      "▁showing": 4288,
      "▁completely": 4289,
      "avel": 4290,
      "bd": 4291,
      "▁proced": 4292,
      "control": 4293,
      "▁thank": 4294,
      "undred": 4295,
      "▁tom": 4296,
      "▁examples": 4297,
      "▁remember": 4298,
      "▁possib": 4299,
      "▁detect": 4300,
      "▁poor": 4301,
      "▁century": 4302,
      "utter": 4303,
      "▁login": 4304,
      "unst": 4305,
      "▁otherwise": 4306,
      "lan": 4307,
      "▁groups": 4308,
      "rip": 4309,
      "▁shell": 4310,
      "▁district": 4311,
      "▁records": 4312,
      "fortun": 4313,
      "enty": 4314,
      "▁changing": 4315,
      "aught": 4316,
      "▁deep": 4317,
      "subset": 4318,
      "agy": 4319,
      "endar": 4320,
      "jax": 4321,
      "imate": 4322,
      "ardo": 4323,
      "▁plot": 4324,
      "▁visit": 4325,
      "▁bug": 4326,
      "▁opened": 4327,
      "▁repla": 4328,
      "▁pp": 4329,
      "bas": 4330,
      "▁dark": 4331,
      "▁resource": 4332,
      "iling": 4333,
      "▁watch": 4334,
      "replace": 4335,
      "▁release": 4336,
      "▁learning": 4337,
      "menu": 4338,
      "▁allows": 4339,
      "▁whatever": 4340,
      "▁pages": 4341,
      "▁compiler": 4342,
      "command": 4343,
      "▁road": 4344,
      "▁unless": 4345,
      "▁discover": 4346,
      "bour": 4347,
      "▁regex": 4348,
      "▁ps": 4349,
      "▁wife": 4350,
      "amenti": 4351,
      "▁fair": 4352,
      "enen": 4353,
      "ajax": 4354,
      "▁seiner": 4355,
      "icker": 4356,
      "exchange": 4357,
      "oles": 4358,
      "ohn": 4359,
      "▁grow": 4360,
      "spec": 4361,
      "▁hatte": 4362,
      "allel": 4363,
      "▁rate": 4364,
      "▁central": 4365,
      "iforn": 4366,
      "▁study": 4367,
      "▁beaut": 4368,
      "mid": 4369,
      "▁advance": 4370,
      "▁hands": 4371,
      "▁lay": 4372,
      "imp": 4373,
      "▁sun": 4374,
      "▁steps": 4375,
      "▁jud": 4376,
      "qui": 4377,
      "▁boot": 4378,
      "nost": 4379,
      "▁nem": 4380,
      "▁pen": 4381,
      "▁church": 4382,
      "▁average": 4383,
      "▁comments": 4384,
      "▁corresponding": 4385,
      "levant": 4386,
      "▁bed": 4387,
      "▁meaning": 4388,
      "bel": 4389,
      "▁extract": 4390,
      "▁computer": 4391,
      "▁affect": 4392,
      "sort": 4393,
      "▁species": 4394,
      "▁hash": 4395,
      "ches": 4396,
      "▁keys": 4397,
      "▁marzo": 4398,
      "▁interpret": 4399,
      "hood": 4400,
      "▁coordin": 4401,
      "rage": 4402,
      "etz": 4403,
      "iza": 4404,
      "▁modify": 4405,
      "▁termin": 4406,
      "▁cred": 4407,
      "zon": 4408,
      "▁mie": 4409,
      "▁''": 4410,
      "▁connected": 4411,
      "▁compile": 4412,
      "▁cat": 4413,
      "fiddle": 4414,
      "uta": 4415,
      "▁north": 4416,
      "▁alloc": 4417,
      "ialize": 4418,
      "oupe": 4419,
      "ropri": 4420,
      "▁solo": 4421,
      "nav": 4422,
      "▁alert": 4423,
      "esis": 4424,
      "▁feb": 4425,
      "foot": 4426,
      "▁rev": 4427,
      "zeit": 4428,
      "▁blo": 4429,
      "wick": 4430,
      "caption": 4431,
      "header": 4432,
      "▁president": 4433,
      "▁multip": 4434,
      "▁seine": 4435,
      "▁spect": 4436,
      "▁redirect": 4437,
      "rupt": 4438,
      "▁walk": 4439,
      "springframework": 4440,
      "place": 4441,
      "inte": 4442,
      "▁training": 4443,
      "aur": 4444,
      "▁fetch": 4445,
      "atively": 4446,
      "▁execut": 4447,
      "based": 4448,
      "▁spring": 4449,
      "phone": 4450,
      "send": 4451,
      "bon": 4452,
      "▁asking": 4453,
      "▁testing": 4454,
      "imm": 4455,
      "▁progress": 4456,
      "bro": 4457,
      "▁phot": 4458,
      "developer": 4459,
      "annot": 4460,
      "mission": 4461,
      "pc": 4462,
      "bach": 4463,
      "zent": 4464,
      "ued": 4465,
      "▁ones": 4466,
      "▁rout": 4467,
      "nek": 4468,
      "aging": 4469,
      "izont": 4470,
      "▁agosto": 4471,
      "▁choose": 4472,
      "▁systems": 4473,
      "loss": 4474,
      "iente": 4475,
      "▁contra": 4476,
      "ums": 4477,
      "▁beginning": 4478,
      "emy": 4479,
      "istics": 4480,
      "▁served": 4481,
      "options": 4482,
      "▁jest": 4483,
      "▁continue": 4484,
      "pers": 4485,
      "▁easier": 4486,
      "▁cos": 4487,
      "esso": 4488,
      "▁transfer": 4489,
      "▁finns": 4490,
      "username": 4491,
      "▁constru": 4492,
      "▁pain": 4493,
      "▁specified": 4494,
      "▁brit": 4495,
      "irk": 4496,
      "rapper": 4497,
      "▁counter": 4498,
      "oded": 4499,
      "property": 4500,
      "hard": 4501,
      "istrict": 4502,
      "▁sowie": 4503,
      "▁dess": 4504,
      "▁tras": 4505,
      "note": 4506,
      "cp": 4507,
      "▁grande": 4508,
      "▁passing": 4509,
      "▁giving": 4510,
      "angular": 4511,
      "▁launch": 4512,
      "varphi": 4513,
      "▁foreach": 4514,
      "sequ": 4515,
      "ifi": 4516,
      "arp": 4517,
      "▁buffer": 4518,
      "▁ni": 4519,
      "▁mix": 4520,
      "▁meant": 4521,
      "asi": 4522,
      "▁kan": 4523,
      "istoire": 4524,
      "iful": 4525,
      "jer": 4526,
      "issions": 4527,
      "▁solutions": 4528,
      "▁belong": 4529,
      "cf": 4530,
      "▁grid": 4531,
      "▁requires": 4532,
      "kk": 4533,
      "▁teach": 4534,
      "emeinde": 4535,
      "▁square": 4536,
      "▁rules": 4537,
      "▁bur": 4538,
      "▁eing": 4539,
      "▁nam": 4540,
      "▁tip": 4541,
      "▁scope": 4542,
      "overline": 4543,
      "▁exit": 4544,
      "bet": 4545,
      "▁vict": 4546,
      "▁approxim": 4547,
      "ktop": 4548,
      "heit": 4549,
      "template": 4550,
      "▁uno": 4551,
      "▁framework": 4552,
      "operator": 4553,
      "▁generally": 4554,
      "▁hundred": 4555,
      "▁divers": 4556,
      "ovi": 4557,
      "abs": 4558,
      "▁gal": 4559,
      "▁feet": 4560,
      "▁virtual": 4561,
      "czy": 4562,
      "hu": 4563,
      "ancy": 4564,
      "▁recommend": 4565,
      "▁money": 4566,
      "▁versions": 4567,
      "▁helps": 4568,
      "look": 4569,
      "connect": 4570,
      "anges": 4571,
      "elijk": 4572,
      "▁occup": 4573,
      "▁editor": 4574,
      "auto": 4575,
      "▁seconds": 4576,
      "▁obvious": 4577,
      "vm": 4578,
      "akes": 4579,
      "▁gegen": 4580,
      "▁til": 4581,
      "jection": 4582,
      "▁operations": 4583,
      "ogy": 4584,
      "uten": 4585,
      "▁callback": 4586,
      "▁sen": 4587,
      "▁associated": 4588,
      "▁containing": 4589,
      "▁practice": 4590,
      "elijke": 4591,
      "oke": 4592,
      "uns": 4593,
      "anta": 4594,
      "vey": 4595,
      "zu": 4596,
      "mem": 4597,
      "ycz": 4598,
      "▁architect": 4599,
      "▁anni": 4600,
      "▁contact": 4601,
      "ovo": 4602,
      "▁bring": 4603,
      "▁concept": 4604,
      "▁js": 4605,
      "emble": 4606,
      "▁supported": 4607,
      "erv": 4608,
      "▁arriv": 4609,
      "▁probability": 4610,
      "token": 4611,
      "ooth": 4612,
      "lap": 4613,
      "▁assist": 4614,
      "adow": 4615,
      "▁tests": 4616,
      "▁king": 4617,
      "langle": 4618,
      "▁security": 4619,
      "nis": 4620,
      "▁basic": 4621,
      "unity": 4622,
      "kow": 4623,
      "asion": 4624,
      "alo": 4625,
      "ifest": 4626,
      "▁novembre": 4627,
      "▁peu": 4628,
      "enschaft": 4629,
      "clus": 4630,
      "▁tur": 4631,
      "▁ideas": 4632,
      "▁ces": 4633,
      "frak": 4634,
      "▁premier": 4635,
      "itation": 4636,
      "▁byte": 4637,
      "▁segu": 4638,
      "inen": 4639,
      "▁external": 4640,
      "▁secret": 4641,
      "pository": 4642,
      "▁potential": 4643,
      "names": 4644,
      "asons": 4645,
      "stackexchange": 4646,
      "background": 4647,
      "after": 4648,
      "▁pero": 4649,
      "▁software": 4650,
      "▁sed": 4651,
      "▁arrays": 4652,
      "tmp": 4653,
      "▁asp": 4654,
      "scale": 4655,
      "anal": 4656,
      "▁gem": 4657,
      "ifact": 4658,
      "▁south": 4659,
      "▁formula": 4660,
      "ktion": 4661,
      "▁sac": 4662,
      "ajo": 4663,
      "etc": 4664,
      "vc": 4665,
      "items": 4666,
      "elo": 4667,
      "▁plugin": 4668,
      "▁serie": 4669,
      "ienne": 4670,
      "got": 4671,
      "andas": 4672,
      "▁matches": 4673,
      "▁worth": 4674,
      "▁cache": 4675,
      "▁felt": 4676,
      "ersch": 4677,
      "izes": 4678,
      "▁commune": 4679,
      "thread": 4680,
      "▁ny": 4681,
      "dec": 4682,
      "ouw": 4683,
      "▁surface": 4684,
      "▁candid": 4685,
      "gru": 4686,
      "▁depends": 4687,
      "▁influ": 4688,
      "▁towards": 4689,
      "ained": 4690,
      "▁rank": 4691,
      "▁components": 4692,
      "gest": 4693,
      "▁checked": 4694,
      "airs": 4695,
      "join": 4696,
      "▁dead": 4697,
      "▁hit": 4698,
      "▁equivalent": 4699,
      "▁appropri": 4700,
      "▁primer": 4701,
      "englisch": 4702,
      "▁appar": 4703,
      "▁knowledge": 4704,
      "▁trigger": 4705,
      "▁core": 4706,
      "erve": 4707,
      "▁mid": 4708,
      "▁finally": 4709,
      "aires": 4710,
      "▁especially": 4711,
      "▁tut": 4712,
      "▁receive": 4713,
      "adre": 4714,
      "▁neigh": 4715,
      "ktet": 4716,
      "ilde": 4717,
      "▁radio": 4718,
      "▁driver": 4719,
      "endencies": 4720,
      "▁saved": 4721,
      "ffect": 4722,
      "iat": 4723,
      "▁padding": 4724,
      "window": 4725,
      "▁mur": 4726,
      "actor": 4727,
      "▁gar": 4728,
      "▁familjen": 4729,
      "▁nationale": 4730,
      "ded": 4731,
      "onal": 4732,
      "▁placed": 4733,
      "erni": 4734,
      "▁signal": 4735,
      "nab": 4736,
      "hm": 4737,
      "▁vs": 4738,
      "▁progetti": 4739,
      "▁forms": 4740,
      "▁messages": 4741,
      "inf": 4742,
      "users": 4743,
      "▁dels": 4744,
      "▁compr": 4745,
      "▁larger": 4746,
      "gres": 4747,
      "aper": 4748,
      "undes": 4749,
      "▁sea": 4750,
      "ulo": 4751,
      "▁mechan": 4752,
      "▁sans": 4753,
      "▁communic": 4754,
      "▁pra": 4755,
      "vier": 4756,
      "▁ain": 4757,
      "kom": 4758,
      "skiego": 4759,
      "adata": 4760,
      "▁boolean": 4761,
      "sets": 4762,
      "▁effort": 4763,
      "▁emb": 4764,
      "▁prima": 4765,
      "▁hour": 4766,
      "subsection": 4767,
      "mathfrak": 4768,
      "igin": 4769,
      "fi": 4770,
      "▁anci": 4771,
      "▁pan": 4772,
      "▁lug": 4773,
      "▁deploy": 4774,
      "domain": 4775,
      "▁slight": 4776,
      "▁morning": 4777,
      "▁hi": 4778,
      "▁compare": 4779,
      "ije": 4780,
      "▁blue": 4781,
      "▁middle": 4782,
      "anden": 4783,
      "▁shared": 4784,
      "ounded": 4785,
      "uw": 4786,
      "ierung": 4787,
      "▁eines": 4788,
      "lij": 4789,
      "enti": 4790,
      "▁experience": 4791,
      "▁await": 4792,
      "uls": 4793,
      "▁requests": 4794,
      "▁impos": 4795,
      "▁constraint": 4796,
      "emph": 4797,
      "▁significant": 4798,
      "cr": 4799,
      "▁million": 4800,
      "reek": 4801,
      "▁dalla": 4802,
      "otal": 4803,
      "ateur": 4804,
      "btn": 4805,
      "▁thinking": 4806,
      "▁interval": 4807,
      "onne": 4808,
      "▁liv": 4809,
      "oe": 4810,
      "meta": 4811,
      "▁broad": 4812,
      "apply": 4813,
      "▁couple": 4814,
      "▁techni": 4815,
      "idades": 4816,
      "▁goal": 4817,
      "hab": 4818,
      "▁explan": 4819,
      "anner": 4820,
      "blog": 4821,
      "includegraphics": 4822,
      "▁voice": 4823,
      "vention": 4824,
      "▁sor": 4825,
      "category": 4826,
      "ashington": 4827,
      "pop": 4828,
      "illet": 4829,
      "▁zwei": 4830,
      "address": 4831,
      "▁factor": 4832,
      "▁ligne": 4833,
      "▁suf": 4834,
      "▁personal": 4835,
      "cip": 4836,
      "▁adm": 4837,
      "▁god": 4838,
      "aa": 4839,
      "▁dynamic": 4840,
      "▁maintain": 4841,
      "tor": 4842,
      "▁choice": 4843,
      "ston": 4844,
      "▁flag": 4845,
      "kit": 4846,
      "icks": 4847,
      "▁haven": 4848,
      "itat": 4849,
      "eler": 4850,
      "itet": 4851,
      "▁produced": 4852,
      "▁delet": 4853,
      "▁hot": 4854,
      "▁months": 4855,
      "▁tod": 4856,
      "temp": 4857,
      "ypes": 4858,
      "▁cui": 4859,
      "ommun": 4860,
      "actions": 4861,
      "▁eigen": 4862,
      "▁immediately": 4863,
      "ului": 4864,
      "▁online": 4865,
      "▁namespace": 4866,
      "▁mond": 4867,
      "etzt": 4868,
      "▁defin": 4869,
      "▁doubt": 4870,
      "▁investig": 4871,
      "views": 4872,
      "▁stage": 4873,
      "ettings": 4874,
      "ubre": 4875,
      "float": 4876,
      "ptr": 4877,
      "▁becomes": 4878,
      "estamp": 4879,
      "▁independent": 4880,
      "▁analysis": 4881,
      "lain": 4882,
      "▁sorry": 4883,
      "▁supposed": 4884,
      "▁degree": 4885,
      "utz": 4886,
      "▁desired": 4887,
      "▁len": 4888,
      "▁alone": 4889,
      "signed": 4890,
      "▁applied": 4891,
      "▁mars": 4892,
      "▁externes": 4893,
      "▁np": 4894,
      "ongo": 4895,
      "▁esta": 4896,
      "▁pou": 4897,
      "adores": 4898,
      "▁reached": 4899,
      "bot": 4900,
      "tons": 4901,
      "itel": 4902,
      "▁articles": 4903,
      "▁trouble": 4904,
      "lide": 4905,
      "▁equip": 4906,
      "▁internal": 4907,
      "▁async": 4908,
      "gel": 4909,
      "▁ai": 4910,
      "ensure": 4911,
      "▁appeared": 4912,
      "▁maximum": 4913,
      "▁announ": 4914,
      "▁cm": 4915,
      "aupt": 4916,
      "▁latter": 4917,
      "▁platform": 4918,
      "▁dra": 4919,
      "▁capital": 4920,
      "▁solved": 4921,
      "riz": 4922,
      "edic": 4923,
      "rule": 4924,
      "etic": 4925,
      "second": 4926,
      "isl": 4927,
      "▁hy": 4928,
      "▁niet": 4929,
      "▁loaded": 4930,
      "dig": 4931,
      "▁mayo": 4932,
      "▁bek": 4933,
      "login": 4934,
      "tx": 4935,
      "azz": 4936,
      "▁conduct": 4937,
      "irth": 4938,
      "tw": 4939,
      "▁wieder": 4940,
      "▁manually": 4941,
      "fortunately": 4942,
      "params": 4943,
      "▁native": 4944,
      "rift": 4945,
      "▁yourself": 4946,
      "▁prior": 4947,
      "▁cit": 4948,
      "▁treat": 4949,
      "▁meas": 4950,
      "ributed": 4951,
      "▁clar": 4952,
      "card": 4953,
      "illes": 4954,
      "▁layer": 4955,
      "auer": 4956,
      "▁rat": 4957,
      "bernate": 4958,
      "▁stato": 4959,
      "▁naar": 4960,
      "zip": 4961,
      "▁appreciated": 4962,
      "▁przez": 4963,
      "internal": 4964,
      "ionale": 4965,
      "▁upper": 4966,
      "▁printf": 4967,
      "▁continued": 4968,
      "▁nodes": 4969,
      "▁nice": 4970,
      "modules": 4971,
      "eign": 4972,
      "▁undefined": 4973,
      "▁binary": 4974,
      "cut": 4975,
      "edy": 4976,
      "bles": 4977,
      "scri": 4978,
      "eqn": 4979,
      "▁remote": 4980,
      "▁quel": 4981,
      "▁align": 4982,
      "yer": 4983,
      "▁places": 4984,
      "▁primary": 4985,
      "▁conv": 4986,
      "▁visual": 4987,
      "atory": 4988,
      "iser": 4989,
      "▁intent": 4990,
      "sur": 4991,
      "container": 4992,
      "iced": 4993,
      "▁board": 4994,
      "astr": 4995,
      "omial": 4996,
      "▁cru": 4997,
      "save": 4998,
      "▁greater": 4999,
      "▁inn": 5000,
      "▁picture": 5001,
      "▁obtained": 5002,
      "▁lors": 5003,
      "▁mont": 5004,
      "obre": 5005,
      "▁civil": 5006,
      "▁construction": 5007,
      "undert": 5008,
      "▁edge": 5009,
      "csv": 5010,
      "▁experiment": 5011,
      "localhost": 5012,
      "greg": 5013,
      "msg": 5014,
      "▁beskre": 5015,
      "▁ber": 5016,
      "▁wouldn": 5017,
      "▁react": 5018,
      "zw": 5019,
      "orie": 5020,
      "task": 5021,
      "▁category": 5022,
      "▁artist": 5023,
      "anno": 5024,
      "▁ook": 5025,
      "ammen": 5026,
      "▁declar": 5027,
      ",.": 5028,
      "▁mach": 5029,
      "▁ww": 5030,
      "isen": 5031,
      "▁rock": 5032,
      "quis": 5033,
      "mos": 5034,
      "▁esterni": 5035,
      "▁gold": 5036,
      "▁partial": 5037,
      "▁weight": 5038,
      "▁spr": 5039,
      "fun": 5040,
      "▁thous": 5041,
      "holder": 5042,
      "▁gone": 5043,
      "▁rend": 5044,
      "▁answered": 5045,
      "▁daugh": 5046,
      "▁rect": 5047,
      "dr": 5048,
      "osoph": 5049,
      "▁yield": 5050,
      "urity": 5051,
      "aval": 5052,
      "▁lock": 5053,
      "imation": 5054,
      "antic": 5055,
      "▁beskrevs": 5056,
      "grid": 5057,
      "▁speak": 5058,
      "summary": 5059,
      "prop": 5060,
      "javascript": 5061,
      "zk": 5062,
      "izontal": 5063,
      "▁trois": 5064,
      "prise": 5065,
      "▁odd": 5066,
      "▁gest": 5067,
      "▁produce": 5068,
      "▁waar": 5069,
      "ribu": 5070,
      "▁finished": 5071,
      "▁adapt": 5072,
      "textit": 5073,
      "osen": 5074,
      "▁deriv": 5075,
      "▁ship": 5076,
      "▁opin": 5077,
      "gesch": 5078,
      "▁suppose": 5079,
      "▁worden": 5080,
      "sey": 5081,
      "hline": 5082,
      "▁vez": 5083,
      "▁econom": 5084,
      "oi": 5085,
      "▁orient": 5086,
      "rent": 5087,
      "▁solid": 5088,
      "▁cart": 5089,
      "▁cab": 5090,
      "dots": 5091,
      "▁twe": 5092,
      "aga": 5093,
      "▁naz": 5094,
      "▁underarter": 5095,
      "ppen": 5096,
      "▁recent": 5097,
      "▁net": 5098,
      "▁resources": 5099,
      "▁cele": 5100,
      "▁lic": 5101,
      "▁benef": 5102,
      "ldots": 5103,
      "▁serial": 5104,
      "cles": 5105,
      "▁miles": 5106,
      "▁entered": 5107,
      "wie": 5108,
      "▁includes": 5109,
      "elling": 5110,
      "quer": 5111,
      "pf": 5112,
      "▁straight": 5113,
      "▁nos": 5114,
      "atro": 5115,
      "ilo": 5116,
      "▁www": 5117,
      "jsfiddle": 5118,
      "nic": 5119,
      "▁commer": 5120,
      "▁girl": 5121,
      "total": 5122,
      "▁suggested": 5123,
      "pal": 5124,
      "▁zwischen": 5125,
      "▁handler": 5126,
      "xsl": 5127,
      "▁vid": 5128,
      "▁established": 5129,
      "ometry": 5130,
      "unes": 5131,
      "▁sit": 5132,
      "▁inher": 5133,
      "▁puis": 5134,
      "insert": 5135,
      "▁sist": 5136,
      "▁favor": 5137,
      "dest": 5138,
      "▁entity": 5139,
      "iments": 5140,
      "▁returning": 5141,
      "sto": 5142,
      "▁liber": 5143,
      "▁bind": 5144,
      "voir": 5145,
      "weg": 5146,
      "ket": 5147,
      "▁friends": 5148,
      "▁fn": 5149,
      "arden": 5150,
      "fficial": 5151,
      "▁community": 5152,
      "▁api": 5153,
      "ieren": 5154,
      "▁dann": 5155,
      "omorph": 5156,
      "adr": 5157,
      "loop": 5158,
      "uman": 5159,
      "▁vous": 5160,
      "bst": 5161,
      "submit": 5162,
      "asket": 5163,
      "▁drive": 5164,
      "▁swe": 5165,
      "▁amer": 5166,
      "▁mine": 5167,
      "▁avait": 5168,
      "▁increase": 5169,
      "▁ty": 5170,
      "sky": 5171,
      "▁accur": 5172,
      "article": 5173,
      "weight": 5174,
      "▁sex": 5175,
      "▁listade": 5176,
      "argo": 5177,
      "define": 5178,
      "session": 5179,
      "ads": 5180,
      "▁dialog": 5181,
      "▁duplicate": 5182,
      "▁voc": 5183,
      "fri": 5184,
      "▁green": 5185,
      "▁hidden": 5186,
      "▁diag": 5187,
      "owej": 5188,
      "mysql": 5189,
      "teil": 5190,
      "ikan": 5191,
      "aled": 5192,
      "▁train": 5193,
      "▁stay": 5194,
      "▁foo": 5195,
      "▁accom": 5196,
      "▁hers": 5197,
      "ideos": 5198,
      "static": 5199,
      "▁ready": 5200,
      "▁visible": 5201,
      "ulated": 5202,
      "▁smaller": 5203,
      "atura": 5204,
      "▁perfectly": 5205,
      "req": 5206,
      "▁proposed": 5207,
      "▁degli": 5208,
      "▁ich": 5209,
      "▁volume": 5210,
      "execute": 5211,
      "gre": 5212,
      "▁sport": 5213,
      "udad": 5214,
      "▁cook": 5215,
      "▁expand": 5216,
      "▁altri": 5217,
      "ppet": 5218,
      "arse": 5219,
      "▁wet": 5220,
      "uje": 5221,
      "▁fel": 5222,
      "while": 5223,
      "▁sufficient": 5224,
      "▁understanding": 5225,
      "▁nue": 5226,
      "▁raz": 5227,
      "▁ye": 5228,
      "hem": 5229,
      "▁hasta": 5230,
      "enso": 5231,
      "▁wire": 5232,
      "uj": 5233,
      "proof": 5234,
      "▁relevant": 5235,
      "▁partir": 5236,
      "▁ago": 5237,
      "ificate": 5238,
      "▁domin": 5239,
      "▁boy": 5240,
      "▁plant": 5241,
      "▁encoding": 5242,
      "▁throws": 5243,
      "zone": 5244,
      "gang": 5245,
      "widget": 5246,
      "▁interesting": 5247,
      "▁demon": 5248,
      "▁office": 5249,
      "amt": 5250,
      "▁versch": 5251,
      "▁dieser": 5252,
      "▁students": 5253,
      "ija": 5254,
      "▁abril": 5255,
      "▁declared": 5256,
      "appa": 5257,
      "echo": 5258,
      "numer": 5259,
      "▁posted": 5260,
      "▁weak": 5261,
      "▁champion": 5262,
      "ensuremath": 5263,
      "your": 5264,
      "isa": 5265,
      "yy": 5266,
      "▁fully": 5267,
      "partment": 5268,
      "kon": 5269,
      "▁contract": 5270,
      "▁ale": 5271,
      "lah": 5272,
      "oren": 5273,
      "▁disk": 5274,
      "▁eg": 5275,
      "atu": 5276,
      "▁games": 5277,
      "▁lu": 5278,
      "▁finite": 5279,
      "▁crash": 5280,
      "pher": 5281,
      "exe": 5282,
      "▁brother": 5283,
      "tat": 5284,
      "▁colon": 5285,
      "iqu": 5286,
      "ivi": 5287,
      "arten": 5288,
      "vector": 5289,
      "▁wood": 5290,
      "▁gent": 5291,
      "▁contents": 5292,
      "▁compan": 5293,
      "▁jou": 5294,
      "uent": 5295,
      "printf": 5296,
      "▁kept": 5297,
      "▁provides": 5298,
      "▁kter": 5299,
      "atr": 5300,
      "delete": 5301,
      "odo": 5302,
      "▁calculate": 5303,
      "keys": 5304,
      "▁hence": 5305,
      "▁ow": 5306,
      "eno": 5307,
      "osi": 5308,
      "wide": 5309,
      "▁score": 5310,
      "full": 5311,
      "▁determine": 5312,
      "▁spaces": 5313,
      "▁peut": 5314,
      "▁appoint": 5315,
      "▁hop": 5316,
      "random": 5317,
      "cache": 5318,
      "▁destroy": 5319,
      "▁race": 5320,
      "▁rid": 5321,
      "▁negative": 5322,
      "ensional": 5323,
      "dk": 5324,
      "▁cro": 5325,
      "ensk": 5326,
      "▁kle": 5327,
      "ospital": 5328,
      "kte": 5329,
      "udes": 5330,
      "otion": 5331,
      "leich": 5332,
      "cide": 5333,
      "lab": 5334,
      "▁pull": 5335,
      "▁appropriate": 5336,
      "▁manner": 5337,
      "description": 5338,
      "▁relation": 5339,
      "har": 5340,
      "cpp": 5341,
      "▁execution": 5342,
      "inos": 5343,
      "▁bul": 5344,
      "grade": 5345,
      "▁pil": 5346,
      "writ": 5347,
      "ifications": 5348,
      "inese": 5349,
      "dx": 5350,
      "▁leading": 5351,
      "oved": 5352,
      "▁contro": 5353,
      "▁channel": 5354,
      "isten": 5355,
      "aka": 5356,
      "mas": 5357,
      "▁ett": 5358,
      "▁forces": 5359,
      "ulations": 5360,
      "▁explanation": 5361,
      "oring": 5362,
      "chter": 5363,
      "when": 5364,
      "▁commands": 5365,
      "▁rich": 5366,
      "bus": 5367,
      "mbox": 5368,
      "▁recon": 5369,
      "▁shape": 5370,
      "owy": 5371,
      "entry": 5372,
      "itable": 5373,
      "▁election": 5374,
      "▁prep": 5375,
      "▁infin": 5376,
      "lot": 5377,
      "▁books": 5378,
      "▁pom": 5379,
      "▁nas": 5380,
      "▁tags": 5381,
      "▁executed": 5382,
      "aille": 5383,
      "lung": 5384,
      "▁ball": 5385,
      "▁ainsi": 5386,
      "▁hear": 5387,
      "▁pure": 5388,
      "▁embed": 5389,
      "controller": 5390,
      "▁married": 5391,
      "famil": 5392,
      "▁prec": 5393,
      "▁recurs": 5394,
      "pad": 5395,
      "istration": 5396,
      "▁respectively": 5397,
      "autor": 5398,
      "▁grav": 5399,
      "iera": 5400,
      "azioni": 5401,
      "mond": 5402,
      "packages": 5403,
      "msdn": 5404,
      "▁przy": 5405,
      "▁charge": 5406,
      "▁applications": 5407,
      "aren": 5408,
      "▁sudden": 5409,
      "ometer": 5410,
      "▁dot": 5411,
      "acji": 5412,
      "imin": 5413,
      "ening": 5414,
      "▁donde": 5415,
      "tree": 5416,
      "mb": 5417,
      "▁drag": 5418,
      "aje": 5419,
      "▁invalid": 5420,
      "▁finish": 5421,
      "laim": 5422,
      "▁feed": 5423,
      "room": 5424,
      "images": 5425,
      "▁succ": 5426,
      "iffer": 5427,
      "▁cual": 5428,
      "rait": 5429,
      "pan": 5430,
      "▁distinct": 5431,
      "anced": 5432,
      "▁loading": 5433,
      "mus": 5434,
      "▁rail": 5435,
      "▁student": 5436,
      "▁notice": 5437,
      "▁sla": 5438,
      "▁guard": 5439,
      "aison": 5440,
      "ipp": 5441,
      "▁fell": 5442,
      "▁absolute": 5443,
      "debug": 5444,
      "ugins": 5445,
      "▁views": 5446,
      "lay": 5447,
      "▁surr": 5448,
      "▁stood": 5449,
      "selected": 5450,
      "▁attributes": 5451,
      "final": 5452,
      "enda": 5453,
      "ners": 5454,
      "bur": 5455,
      "ittel": 5456,
      "▁moving": 5457,
      "isches": 5458,
      "▁basis": 5459,
      "handle": 5460,
      "▁oraz": 5461,
      "ocr": 5462,
      "▁seit": 5463,
      "onder": 5464,
      "chor": 5465,
      "▁definit": 5466,
      "react": 5467,
      "▁piece": 5468,
      "unter": 5469,
      "▁formed": 5470,
      "▁earth": 5471,
      "▁ville": 5472,
      "▁centre": 5473,
      "▁helpful": 5474,
      "izione": 5475,
      "▁pip": 5476,
      "▁describe": 5477,
      "▁checking": 5478,
      "▁manager": 5479,
      "buch": 5480,
      "▁decided": 5481,
      "▁fif": 5482,
      "efficient": 5483,
      "anci": 5484,
      "braries": 5485,
      "▁fails": 5486,
      "▁kernel": 5487,
      "▁proceed": 5488,
      "▁fuer": 5489,
      "▁living": 5490,
      "▁successfully": 5491,
      "▁faster": 5492,
      "▁contre": 5493,
      "▁prison": 5494,
      "help": 5495,
      "▁autor": 5496,
      "▁provin": 5497,
      "▁naam": 5498,
      "sed": 5499,
      "▁gesch": 5500,
      "esk": 5501,
      "term": 5502,
      "iring": 5503,
      "▁tools": 5504,
      "▁ult": 5505,
      "issenschaft": 5506,
      "▁couldn": 5507,
      "ding": 5508,
      "▁predict": 5509,
      "antage": 5510,
      "tools": 5511,
      "estra": 5512,
      "▁ki": 5513,
      "star": 5514,
      "▁remark": 5515,
      "nabla": 5516,
      "mode": 5517,
      "▁strange": 5518,
      "black": 5519,
      "anza": 5520,
      "icket": 5521,
      "▁flex": 5522,
      "▁enero": 5523,
      "▁alors": 5524,
      "▁zo": 5525,
      "▁spl": 5526,
      "yond": 5527,
      "▁dram": 5528,
      "▁division": 5529,
      "▁efficient": 5530,
      "▁vier": 5531,
      "nak": 5532,
      "▁spirit": 5533,
      "zeichnet": 5534,
      "▁dici": 5535,
      "clear": 5536,
      "copy": 5537,
      "yar": 5538,
      "usqu": 5539,
      "▁nous": 5540,
      "▁blev": 5541,
      "▁performed": 5542,
      "etto": 5543,
      "rero": 5544,
      "hash": 5545,
      "▁focus": 5546,
      "▁attention": 5547,
      "▁agre": 5548,
      "▁divis": 5549,
      "▁ej": 5550,
      "▁march": 5551,
      "▁phase": 5552,
      "▁phil": 5553,
      "▁river": 5554,
      "▁caused": 5555,
      "plugin": 5556,
      "uler": 5557,
      "iej": 5558,
      "nam": 5559,
      "▁fight": 5560,
      "vid": 5561,
      "arios": 5562,
      "▁deutscher": 5563,
      "▁dictionary": 5564,
      "▁political": 5565,
      "ridge": 5566,
      "atten": 5567,
      "▁circle": 5568,
      "▁transport": 5569,
      "emas": 5570,
      "▁replaced": 5571,
      "iska": 5572,
      "▁soort": 5573,
      "▁sequ": 5574,
      "▁bud": 5575,
      "ders": 5576,
      "usammen": 5577,
      "esa": 5578,
      "mac": 5579,
      "▁suc": 5580,
      "uy": 5581,
      "▁illustr": 5582,
      "▁primera": 5583,
      "ilation": 5584,
      "▁storage": 5585,
      "▁params": 5586,
      "kaz": 5587,
      "▁terminal": 5588,
      "▁holds": 5589,
      "▁nad": 5590,
      "▁octubre": 5591,
      "bul": 5592,
      "▁hus": 5593,
      "▁contiene": 5594,
      "▁plain": 5595,
      "ativa": 5596,
      "ocker": 5597,
      "▁agree": 5598,
      "lare": 5599,
      "▁starts": 5600,
      "▁price": 5601,
      "cus": 5602,
      "▁alternative": 5603,
      "▁organiz": 5604,
      "inu": 5605,
      "▁completed": 5606,
      "▁carry": 5607,
      "atom": 5608,
      "▁depending": 5609,
      "▁insp": 5610,
      "aily": 5611,
      "irection": 5612,
      "▁defe": 5613,
      "▁designed": 5614,
      "▁voir": 5615,
      "break": 5616,
      "▁partie": 5617,
      "▁studio": 5618,
      "▁jour": 5619,
      "fire": 5620,
      "house": 5621,
      "success": 5622,
      "▁besch": 5623,
      "▁stated": 5624,
      "bootstrap": 5625,
      "hav": 5626,
      "▁sleep": 5627,
      "eda": 5628,
      "hot": 5629,
      "▁temps": 5630,
      "amar": 5631,
      "▁scal": 5632,
      "▁ast": 5633,
      "▁opening": 5634,
      "clipse": 5635,
      "▁programming": 5636,
      "▁letters": 5637,
      "▁profile": 5638,
      "nah": 5639,
      "▁beyond": 5640,
      "faces": 5641,
      "▁chart": 5642,
      "aign": 5643,
      "terior": 5644,
      "wed": 5645,
      "▁herself": 5646,
      "▁ng": 5647,
      "anguages": 5648,
      "ynamic": 5649,
      "▁jug": 5650,
      "▁playing": 5651,
      "▁usage": 5652,
      "▁managed": 5653,
      "eria": 5654,
      "▁daughter": 5655,
      "▁hol": 5656,
      "▁ihn": 5657,
      "instance": 5658,
      "▁comun": 5659,
      "▁truth": 5660,
      "▁implemented": 5661,
      "▁anyway": 5662,
      "ubuntu": 5663,
      "types": 5664,
      "fold": 5665,
      "▁joined": 5666,
      "▁wild": 5667,
      "rowser": 5668,
      "skiej": 5669,
      "▁juin": 5670,
      "hof": 5671,
      "▁dataset": 5672,
      "▁miejs": 5673,
      "▁edited": 5674,
      "ools": 5675,
      "▁seeing": 5676,
      "ijd": 5677,
      "▁procedure": 5678,
      "▁signed": 5679,
      "▁externos": 5680,
      "▁disapp": 5681,
      "cyc": 5682,
      "▁consult": 5683,
      "cious": 5684,
      "sect": 5685,
      "▁wind": 5686,
      "aml": 5687,
      "kbd": 5688,
      "▁suffer": 5689,
      "artifact": 5690,
      "▁resolve": 5691,
      "idas": 5692,
      "▁tax": 5693,
      "idi": 5694,
      "▁actions": 5695,
      "▁naj": 5696,
      "▁chance": 5697,
      "▁dol": 5698,
      "▁env": 5699,
      "▁basically": 5700,
      "zte": 5701,
      "▁displayed": 5702,
      "nil": 5703,
      "complete": 5704,
      "iance": 5705,
      "▁depend": 5706,
      "plom": 5707,
      "ensus": 5708,
      "uts": 5709,
      "bitr": 5710,
      "▁validation": 5711,
      "abb": 5712,
      "km": 5713,
      "zd": 5714,
      "▁interested": 5715,
      "aro": 5716,
      "▁correl": 5717,
      "▁dedic": 5718,
      "▁lists": 5719,
      "▁earlier": 5720,
      "program": 5721,
      "front": 5722,
      "drop": 5723,
      "▁fear": 5724,
      "▁realiz": 5725,
      "▁hal": 5726,
      "▁instances": 5727,
      "▁susp": 5728,
      "illing": 5729,
      "▁partition": 5730,
      "▁wo": 5731,
      "▁director": 5732,
      "rsg": 5733,
      "ouver": 5734,
      "▁nearly": 5735,
      "oda": 5736,
      "▁sir": 5737,
      "▁janvier": 5738,
      "ieurs": 5739,
      "double": 5740,
      "▁policy": 5741,
      "store": 5742,
      "▁observed": 5743,
      "▁familie": 5744,
      "nica": 5745,
      "rey": 5746,
      "▁developed": 5747,
      "▁reply": 5748,
      "ician": 5749,
      "▁dall": 5750,
      "▁desp": 5751,
      "cken": 5752,
      "unda": 5753,
      "▁ig": 5754,
      "author": 5755,
      "zig": 5756,
      "nat": 5757,
      "security": 5758,
      "onic": 5759,
      "▁pes": 5760,
      "itan": 5761,
      "jan": 5762,
      "bold": 5763,
      "▁disput": 5764,
      "▁trick": 5765,
      "▁ped": 5766,
      "into": 5767,
      "▁parallel": 5768,
      "fox": 5769,
      "normal": 5770,
      "inent": 5771,
      "hold": 5772,
      "▁chem": 5773,
      "▁twice": 5774,
      "▁username": 5775,
      "▁representation": 5776,
      "▁journal": 5777,
      "▁batt": 5778,
      "▁certainly": 5779,
      "eps": 5780,
      "shot": 5781,
      "ategy": 5782,
      "rig": 5783,
      "▁reported": 5784,
      "bottom": 5785,
      "nap": 5786,
      "▁court": 5787,
      "▁sources": 5788,
      "iour": 5789,
      "▁conserv": 5790,
      "dict": 5791,
      "azine": 5792,
      "▁internet": 5793,
      "▁carried": 5794,
      "axis": 5795,
      "▁ave": 5796,
      "asy": 5797,
      "▁julio": 5798,
      "▁depuis": 5799,
      "▁suggestion": 5800,
      "reh": 5801,
      "▁demonstr": 5802,
      "cmd": 5803,
      "▁wasn": 5804,
      "▁phone": 5805,
      "upload": 5806,
      "aya": 5807,
      "lines": 5808,
      "▁indu": 5809,
      "▁vot": 5810,
      "▁espa": 5811,
      "▁bin": 5812,
      "plan": 5813,
      "▁junio": 5814,
      "orial": 5815,
      "free": 5816,
      "sterreich": 5817,
      "▁linked": 5818,
      "▁enable": 5819,
      "▁density": 5820,
      "yo": 5821,
      "endre": 5822,
      "▁italiano": 5823,
      "buffer": 5824,
      "imiento": 5825,
      "▁health": 5826,
      "vat": 5827,
      "▁kw": 5828,
      "▁riv": 5829,
      "▁somewhere": 5830,
      "ografie": 5831,
      "private": 5832,
      "▁delay": 5833,
      "job": 5834,
      "rael": 5835,
      "empor": 5836,
      "▁diciembre": 5837,
      "▁commit": 5838,
      "oso": 5839,
      "▁headers": 5840,
      "transform": 5841,
      "▁processing": 5842,
      "▁faire": 5843,
      "▁hun": 5844,
      "▁review": 5845,
      "▁limited": 5846,
      "▁serve": 5847,
      "riage": 5848,
      "▁kann": 5849,
      "crete": 5850,
      "phere": 5851,
      "▁chief": 5852,
      "▁scene": 5853,
      "kin": 5854,
      "▁uniform": 5855,
      "▁febrero": 5856,
      "illo": 5857,
      "ouvel": 5858,
      "usepackage": 5859,
      "enth": 5860,
      "▁quickly": 5861,
      "xes": 5862,
      "▁cells": 5863,
      "rog": 5864,
      "amin": 5865,
      "▁mayor": 5866,
      "player": 5867,
      "▁safe": 5868,
      "▁veloc": 5869,
      "neh": 5870,
      "▁fle": 5871,
      "▁foreign": 5872,
      "▁magn": 5873,
      "▁modified": 5874,
      "▁military": 5875,
      "▁monde": 5876,
      "▁bank": 5877,
      "▁continuous": 5878,
      "▁gel": 5879,
      "▁physical": 5880,
      "▁introduced": 5881,
      "uture": 5882,
      "rick": 5883,
      "▁presented": 5884,
      "super": 5885,
      "▁finding": 5886,
      "nel": 5887,
      "unde": 5888,
      "skim": 5889,
      "fn": 5890,
      "▁intended": 5891,
      "▁juillet": 5892,
      "▁successful": 5893,
      "▁charg": 5894,
      "iele": 5895,
      "omething": 5896,
      "oku": 5897,
      "fetch": 5898,
      "bank": 5899,
      "operatorname": 5900,
      "tu": 5901,
      "wid": 5902,
      "▁gep": 5903,
      "licated": 5904,
      "zero": 5905,
      "price": 5906,
      "don": 5907,
      "▁warning": 5908,
      "ulator": 5909,
      "▁theorem": 5910,
      "▁entirely": 5911,
      "het": 5912,
      "▁dopo": 5913,
      "mlung": 5914,
      "wig": 5915,
      "licher": 5916,
      "▁sudo": 5917,
      "ests": 5918,
      "▁septiembre": 5919,
      "▁micro": 5920,
      "▁trop": 5921,
      "fit": 5922,
      "▁oppos": 5923,
      "▁offset": 5924,
      "▁regia": 5925,
      "▁minimum": 5926,
      "▁helped": 5927,
      "andon": 5928,
      "ifying": 5929,
      "ruit": 5930,
      "enschapp": 5931,
      "▁bere": 5932,
      "▁agr": 5933,
      "ynomial": 5934,
      "enced": 5935,
      "▁devices": 5936,
      "▁bot": 5937,
      "▁firm": 5938,
      "▁writer": 5939,
      "▁ring": 5940,
      "istes": 5941,
      "▁mel": 5942,
      "entation": 5943,
      "▁nome": 5944,
      "▁pobla": 5945,
      "▁woj": 5946,
      "▁ul": 5947,
      "ento": 5948,
      "▁resist": 5949,
      "▁remains": 5950,
      "utable": 5951,
      "entially": 5952,
      "▁trat": 5953,
      "▁restrict": 5954,
      "▁previously": 5955,
      "cation": 5956,
      "cala": 5957,
      "▁culture": 5958,
      "live": 5959,
      "▁accepted": 5960,
      "▁hous": 5961,
      "▁selection": 5962,
      "▁decre": 5963,
      "margin": 5964,
      "urb": 5965,
      "ibt": 5966,
      "▁succeed": 5967,
      "▁shouldn": 5968,
      "cloud": 5969,
      "▁dz": 5970,
      "▁pix": 5971,
      "small": 5972,
      "▁projects": 5973,
      "▁latest": 5974,
      "▁references": 5975,
      "▁erst": 5976,
      "▁kam": 5977,
      "ellt": 5978,
      "none": 5979,
      "▁jusqu": 5980,
      "king": 5981,
      "assert": 5982,
      "rito": 5983,
      "essa": 5984,
      "▁impossible": 5985,
      "np": 5986,
      "words": 5987,
      "ielt": 5988,
      "lers": 5989,
      "▁pier": 5990,
      "ittee": 5991,
      "▁trust": 5992,
      "redu": 5993,
      "rial": 5994,
      "▁products": 5995,
      "▁nested": 5996,
      "▁strength": 5997,
      "▁announced": 5998,
      "uments": 5999,
      "▁adopt": 6000,
      "▁cli": 6001,
      "▁lem": 6002,
      "stood": 6003,
      "ponents": 6004,
      "comment": 6005,
      "▁ya": 6006,
      "should": 6007,
      "ike": 6008,
      "tim": 6009,
      "ellig": 6010,
      "▁sending": 6011,
      "▁ajax": 6012,
      "▁noviembre": 6013,
      "umes": 6014,
      "▁weiter": 6015,
      "opp": 6016,
      "▁septembre": 6017,
      "otimes": 6018,
      "▁ep": 6019,
      "vere": 6020,
      "▁oh": 6021,
      "▁viv": 6022,
      "▁queries": 6023,
      "▁unable": 6024,
      "▁erh": 6025,
      "▁ersten": 6026,
      "▁fragment": 6027,
      "▁wide": 6028,
      "▁suff": 6029,
      "▁dut": 6030,
      "ading": 6031,
      "iego": 6032,
      "icago": 6033,
      "orer": 6034,
      "ennes": 6035,
      "linux": 6036,
      "acing": 6037,
      "▁broken": 6038,
      "tp": 6039,
      "abeth": 6040,
      "istas": 6041,
      "gew": 6042,
      "cas": 6043,
      "▁preced": 6044,
      "▁compared": 6045,
      "equiv": 6046,
      "illy": 6047,
      "teen": 6048,
      "▁strict": 6049,
      "itaire": 6050,
      "entials": 6051,
      "▁perman": 6052,
      "▁tous": 6053,
      "▁geme": 6054,
      "▁extrem": 6055,
      "kg": 6056,
      "▁heavy": 6057,
      "▁avril": 6058,
      "▁anti": 6059,
      "▁octobre": 6060,
      "utf": 6061,
      "helm": 6062,
      "amples": 6063,
      "aken": 6064,
      "▁dear": 6065,
      "▁opinion": 6066,
      "▁fish": 6067,
      "iw": 6068,
      "cadem": 6069,
      "▁reflect": 6070,
      "▁trib": 6071,
      "common": 6072,
      "▁clearly": 6073,
      "▁saf": 6074,
      "eqnarray": 6075,
      "nung": 6076,
      "▁relationship": 6077,
      "▁killed": 6078,
      "ted": 6079,
      "uno": 6080,
      "▁wid": 6081,
      "anning": 6082,
      "▁panel": 6083,
      "▁ruby": 6084,
      "ansion": 6085,
      "▁aren": 6086,
      "tabular": 6087,
      "alet": 6088,
      "▁suite": 6089,
      "▁minor": 6090,
      "▁xmlns": 6091,
      "driver": 6092,
      "ints": 6093,
      "▁vic": 6094,
      "prim": 6095,
      "rivial": 6096,
      "atie": 6097,
      "▁eight": 6098,
      "▁conflic": 6099,
      "angel": 6100,
      "▁explicitly": 6101,
      "render": 6102,
      "▁reprodu": 6103,
      "▁remained": 6104,
      "▁kl": 6105,
      "▁byl": 6106,
      "▁detail": 6107,
      "jav": 6108,
      "▁mouse": 6109,
      "asser": 6110,
      "hs": 6111,
      "▁shift": 6112,
      "rand": 6113,
      "▁btn": 6114,
      "raz": 6115,
      "▁pul": 6116,
      "▁statements": 6117,
      "filename": 6118,
      "▁prompt": 6119,
      "ikz": 6120,
      "▁debut": 6121,
      "forms": 6122,
      "stadt": 6123,
      "ennis": 6124,
      "arante": 6125,
      "▁queue": 6126,
      "▁reci": 6127,
      "▁sta": 6128,
      "ynchron": 6129,
      "centering": 6130,
      "▁tested": 6131,
      "ieu": 6132,
      "▁oficial": 6133,
      "allow": 6134,
      "blue": 6135,
      "▁verw": 6136,
      "▁pare": 6137,
      "▁aware": 6138,
      "▁effects": 6139,
      "lopedia": 6140,
      "rale": 6141,
      "▁propos": 6142,
      "lacement": 6143,
      "kten": 6144,
      "▁novel": 6145,
      "orter": 6146,
      "▁django": 6147,
      "▁transition": 6148,
      "▁happened": 6149,
      "▁beautiful": 6150,
      "▁neither": 6151,
      "▁libraries": 6152,
      "▁hide": 6153,
      "alg": 6154,
      "▁aspect": 6155,
      "▁forget": 6156,
      "cademy": 6157,
      "onte": 6158,
      "refix": 6159,
      "▁cloud": 6160,
      "ned": 6161,
      "cdots": 6162,
      "register": 6163,
      "nym": 6164,
      "▁proc": 6165,
      "▁gan": 6166,
      "▁cours": 6167,
      "▁conj": 6168,
      "▁reasons": 6169,
      "▁reader": 6170,
      "icate": 6171,
      "▁tasks": 6172,
      "▁ric": 6173,
      "onie": 6174,
      "rf": 6175,
      "▁subsequ": 6176,
      "mathsf": 6177,
      "▁declare": 6178,
      "▁protocol": 6179,
      "▁animation": 6180,
      "▁confused": 6181,
      "▁enabled": 6182,
      "owo": 6183,
      "▁mand": 6184,
      "fields": 6185,
      "▁algebra": 6186,
      "▁tv": 6187,
      "late": 6188,
      "ifer": 6189,
      "▁musical": 6190,
      "▁trace": 6191,
      "▁scient": 6192,
      "fic": 6193,
      "▁forgot": 6194,
      "video": 6195,
      "▁older": 6196,
      "▁uns": 6197,
      "▁vec": 6198,
      "span": 6199,
      "▁blank": 6200,
      "▁dict": 6201,
      "▁confirm": 6202,
      "film": 6203,
      "▁demand": 6204,
      "▁minist": 6205,
      "▁usual": 6206,
      "spiel": 6207,
      "eros": 6208,
      "▁tutorial": 6209,
      "sys": 6210,
      "▁spread": 6211,
      "▁convers": 6212,
      "▁roll": 6213,
      "▁symmet": 6214,
      "expected": 6215,
      "▁axis": 6216,
      "▁matching": 6217,
      "▁food": 6218,
      "▁vend": 6219,
      "otto": 6220,
      "crit": 6221,
      "istent": 6222,
      "▁drei": 6223,
      "▁ended": 6224,
      "component": 6225,
      "▁involved": 6226,
      "▁danger": 6227,
      "▁chain": 6228,
      "hom": 6229,
      "cop": 6230,
      "▁nap": 6231,
      "rif": 6232,
      "plements": 6233,
      "▁vent": 6234,
      "anna": 6235,
      "anted": 6236,
      "dated": 6237,
      "anth": 6238,
      "▁threads": 6239,
      "▁eerst": 6240,
      "buf": 6241,
      "heid": 6242,
      "▁migr": 6243,
      "▁arbitr": 6244,
      "▁roman": 6245,
      "ountry": 6246,
      "ultur": 6247,
      "▁annot": 6248,
      "aching": 6249,
      "umin": 6250,
      "▁hem": 6251,
      "ckets": 6252,
      "bau": 6253,
      "ection": 6254,
      "eft": 6255,
      "▁packages": 6256,
      "thur": 6257,
      "▁pays": 6258,
      "liament": 6259,
      "▁cada": 6260,
      "points": 6261,
      "ocket": 6262,
      "▁verb": 6263,
      "▁submit": 6264,
      "▁san": 6265,
      "ruby": 6266,
      "▁east": 6267,
      "kov": 6268,
      "▁spot": 6269,
      "ppo": 6270,
      "jekt": 6271,
      "▁news": 6272,
      "ufact": 6273,
      "▁dia": 6274,
      "▁accompl": 6275,
      "ilities": 6276,
      "▁ihm": 6277,
      "invoke": 6278,
      "▁append": 6279,
      "▁lab": 6280,
      "anging": 6281,
      "istan": 6282,
      "resol": 6283,
      "moz": 6284,
      "styles": 6285,
      "unden": 6286,
      "irtschaft": 6287,
      "phen": 6288,
      "▁recover": 6289,
      "▁education": 6290,
      "models": 6291,
      "ped": 6292,
      "▁happy": 6293,
      "▁guerra": 6294,
      "media": 6295,
      "▁ensure": 6296,
      "database": 6297,
      "oggle": 6298,
      "▁publish": 6299,
      "▁repository": 6300,
      "high": 6301,
      "oven": 6302,
      "▁ger": 6303,
      "▁unknown": 6304,
      "▁resulting": 6305,
      "▁bor": 6306,
      "▁poet": 6307,
      "▁hist": 6308,
      "▁today": 6309,
      "▁buttons": 6310,
      "▁sni": 6311,
      "▁union": 6312,
      "▁zich": 6313,
      "ishop": 6314,
      "▁quando": 6315,
      "erved": 6316,
      "▁abstract": 6317,
      "stop": 6318,
      "▁advice": 6319,
      "▁icon": 6320,
      "▁travel": 6321,
      "vens": 6322,
      "▁batch": 6323,
      "lique": 6324,
      "sheet": 6325,
      "▁ihre": 6326,
      "emon": 6327,
      "berto": 6328,
      "▁assigned": 6329,
      "▁award": 6330,
      "▁functionality": 6331,
      "alla": 6332,
      "▁ciudad": 6333,
      "▁cluster": 6334,
      "▁sheet": 6335,
      "▁wondering": 6336,
      "aine": 6337,
      "▁represented": 6338,
      "kappa": 6339,
      "nb": 6340,
      "▁sy": 6341,
      "▁seven": 6342,
      "▁sister": 6343,
      "plates": 6344,
      "▁luck": 6345,
      "▁remaining": 6346,
      "werk": 6347,
      "anni": 6348,
      "etti": 6349,
      "func": 6350,
      "▁ban": 6351,
      "ims": 6352,
      "miss": 6353,
      "agraph": 6354,
      "nitt": 6355,
      "▁andere": 6356,
      "▁jedoch": 6357,
      "results": 6358,
      "▁listed": 6359,
      "▁loro": 6360,
      "▁knows": 6361,
      "▁socket": 6362,
      "multi": 6363,
      "rails": 6364,
      "▁tar": 6365,
      "▁gentle": 6366,
      "sett": 6367,
      "services": 6368,
      "bound": 6369,
      "igkeit": 6370,
      "aja": 6371,
      "▁cmd": 6372,
      "agger": 6373,
      "▁ba": 6374,
      "▁wordt": 6375,
      "▁fost": 6376,
      "▁dimension": 6377,
      "uming": 6378,
      "exists": 6379,
      "emente": 6380,
      "▁highest": 6381,
      "aki": 6382,
      "▁tres": 6383,
      "▁circum": 6384,
      "ommen": 6385,
      "urer": 6386,
      "▁causes": 6387,
      "venue": 6388,
      "issance": 6389,
      "▁influence": 6390,
      "▁fat": 6391,
      "▁entr": 6392,
      "▁binding": 6393,
      "essen": 6394,
      "appro": 6395,
      "▁dependencies": 6396,
      "▁talking": 6397,
      "connection": 6398,
      "bbe": 6399,
      "irls": 6400,
      "wd": 6401,
      "road": 6402,
      "▁conven": 6403,
      "▁entries": 6404,
      "esc": 6405,
      "▁bits": 6406,
      "asso": 6407,
      "ships": 6408,
      "esp": 6409,
      "▁familiar": 6410,
      "▁army": 6411,
      "ctr": 6412,
      "queue": 6413,
      "uela": 6414,
      "amiento": 6415,
      "contr": 6416,
      "▁market": 6417,
      "citep": 6418,
      "rank": 6419,
      "▁sender": 6420,
      "▁beim": 6421,
      "▁compat": 6422,
      "▁occurs": 6423,
      "▁diese": 6424,
      "awa": 6425,
      "▁creates": 6426,
      "▁showed": 6427,
      "ologia": 6428,
      "▁protest": 6429,
      "▁squad": 6430,
      "▁essere": 6431,
      "kol": 6432,
      "▁slightly": 6433,
      "addr": 6434,
      "▁reduce": 6435,
      "▁generic": 6436,
      "▁occasion": 6437,
      "entity": 6438,
      "▁avant": 6439,
      "aggio": 6440,
      "atholic": 6441,
      "▁respond": 6442,
      "neg": 6443,
      "blob": 6444,
      "cke": 6445,
      "iki": 6446,
      "inden": 6447,
      "alen": 6448,
      "▁maj": 6449,
      "racy": 6450,
      "orte": 6451,
      "ients": 6452,
      "ells": 6453,
      "activity": 6454,
      "▁runtime": 6455,
      "▁possibly": 6456,
      "▁stri": 6457,
      "izi": 6458,
      "▁mir": 6459,
      "prime": 6460,
      "▁twenty": 6461,
      "▁sounds": 6462,
      "clusion": 6463,
      "acz": 6464,
      "▁determined": 6465,
      "▁wall": 6466,
      "igi": 6467,
      "▁reset": 6468,
      "yan": 6469,
      "ei": 6470,
      "▁appearance": 6471,
      "▁fois": 6472,
      "▁nell": 6473,
      "esi": 6474,
      "loor": 6475,
      "▁resolution": 6476,
      "▁fot": 6477,
      "▁throughout": 6478,
      "▁ri": 6479,
      "pool": 6480,
      "▁identity": 6481,
      "▁janu": 6482,
      "▁imper": 6483,
      "▁infer": 6484,
      "▁dates": 6485,
      "force": 6486,
      "ockey": 6487,
      "tera": 6488,
      "▁distingu": 6489,
      "▁presence": 6490,
      "lica": 6491,
      "▁leaving": 6492,
      "itung": 6493,
      "▁establish": 6494,
      "▁maar": 6495,
      "adi": 6496,
      "azon": 6497,
      "folg": 6498,
      "▁fab": 6499,
      "itmap": 6500,
      "rov": 6501,
      "device": 6502,
      "▁wetenschapp": 6503,
      "▁torn": 6504,
      "vest": 6505,
      "account": 6506,
      "▁largest": 6507,
      "▁percent": 6508,
      "▁img": 6509,
      "tool": 6510,
      "▁roce": 6511,
      "▁ay": 6512,
      "inet": 6513,
      "▁polynomial": 6514,
      "▁integral": 6515,
      "▁areas": 6516,
      "▁hyp": 6517,
      "loyee": 6518,
      "▁proxy": 6519,
      "▁escape": 6520,
      "olar": 6521,
      "▁mistake": 6522,
      "▁processes": 6523,
      "halten": 6524,
      "zza": 6525,
      "amo": 6526,
      "ocia": 6527,
      "two": 6528,
      "profile": 6529,
      "embro": 6530,
      "▁arms": 6531,
      "inas": 6532,
      "innen": 6533,
      "▁msg": 6534,
      "▁batter": 6535,
      "ignment": 6536,
      "▁vy": 6537,
      "roc": 6538,
      "seg": 6539,
      "▁decor": 6540,
      "▁eventually": 6541,
      "▁pag": 6542,
      "anten": 6543,
      "▁strugg": 6544,
      "daten": 6545,
      "▁rela": 6546,
      "▁labor": 6547,
      "ugen": 6548,
      "▁jap": 6549,
      "▁husband": 6550,
      "▁etwa": 6551,
      "richt": 6552,
      "rach": 6553,
      "bat": 6554,
      "▁prepar": 6555,
      "▁lack": 6556,
      "▁hogy": 6557,
      "▁comparison": 6558,
      "▁increasing": 6559,
      "imi": 6560,
      "▁gef": 6561,
      "ucht": 6562,
      "gence": 6563,
      "▁incorrect": 6564,
      "▁assuming": 6565,
      "ourse": 6566,
      "ieron": 6567,
      "▁casa": 6568,
      "jes": 6569,
      "▁suiv": 6570,
      "libs": 6571,
      "▁quart": 6572,
      "▁professional": 6573,
      "▁tiene": 6574,
      "▁accomp": 6575,
      "kel": 6576,
      "▁dise": 6577,
      "onto": 6578,
      "ifs": 6579,
      "bild": 6580,
      "▁compute": 6581,
      "▁languages": 6582,
      "cen": 6583,
      "enez": 6584,
      "▁upp": 6585,
      "▁cuando": 6586,
      "eerd": 6587,
      "offset": 6588,
      "▁haben": 6589,
      "reme": 6590,
      "▁dri": 6591,
      "▁seinem": 6592,
      "▁combination": 6593,
      "▁soll": 6594,
      "▁movement": 6595,
      "retch": 6596,
      "wart": 6597,
      "▁harm": 6598,
      "agr": 6599,
      "nego": 6600,
      "resource": 6601,
      "▁seinen": 6602,
      "▁reve": 6603,
      "▁shot": 6604,
      "othe": 6605,
      "▁repeated": 6606,
      "▁recently": 6607,
      "aks": 6608,
      "▁cha": 6609,
      "ohl": 6610,
      "▁tend": 6611,
      "chts": 6612,
      "pling": 6613,
      "album": 6614,
      "ej": 6615,
      "maps": 6616,
      "▁units": 6617,
      "ikon": 6618,
      "▁tan": 6619,
      "▁docker": 6620,
      "▁audio": 6621,
      "iko": 6622,
      "▁coordinates": 6623,
      "xs": 6624,
      "▁replied": 6625,
      "▁anc": 6626,
      "▁infinite": 6627,
      "▁ga": 6628,
      "▁adjust": 6629,
      "▁merge": 6630,
      "▁poster": 6631,
      "▁exhib": 6632,
      "▁ordered": 6633,
      "ictures": 6634,
      "lets": 6635,
      "▁ip": 6636,
      "▁existence": 6637,
      "liga": 6638,
      "download": 6639,
      "▁lemma": 6640,
      "iev": 6641,
      "udent": 6642,
      "sko": 6643,
      "itate": 6644,
      "byte": 6645,
      "ikt": 6646,
      "▁mad": 6647,
      "odb": 6648,
      "▁elimin": 6649,
      "▁spent": 6650,
      "▁fellow": 6651,
      "▁thousand": 6652,
      "ktor": 6653,
      "▁extended": 6654,
      "aters": 6655,
      "totype": 6656,
      "▁blood": 6657,
      "▁mapping": 6658,
      "▁nomin": 6659,
      "▁manifest": 6660,
      "▁pens": 6661,
      "▁rit": 6662,
      "▁filename": 6663,
      "▁filled": 6664,
      "▁raised": 6665,
      "▁mobile": 6666,
      "▁temperature": 6667,
      "▁somehow": 6668,
      "▁kommun": 6669,
      "▁chosen": 6670,
      "▁horse": 6671,
      "▁originally": 6672,
      "▁citt": 6673,
      "▁encore": 6674,
      "▁capture": 6675,
      "owych": 6676,
      "▁boundary": 6677,
      "kehr": 6678,
      "amment": 6679,
      "▁rights": 6680,
      "▁happening": 6681,
      "▁science": 6682,
      "aws": 6683,
      "▁behaviour": 6684,
      "▁implies": 6685,
      "ovan": 6686,
      "pay": 6687,
      "aret": 6688,
      "ership": 6689,
      "▁recorded": 6690,
      "zem": 6691,
      "▁todo": 6692,
      "ogo": 6693,
      "▁scenario": 6694,
      "▁concent": 6695,
      "▁dirig": 6696,
      "▁gas": 6697,
      "rate": 6698,
      "▁kap": 6699,
      "windows": 6700,
      "aped": 6701,
      "▁sistema": 6702,
      "▁surv": 6703,
      "▁canvas": 6704,
      "▁guarante": 6705,
      "scroll": 6706,
      "aved": 6707,
      "▁pd": 6708,
      "utch": 6709,
      "▁mail": 6710,
      "screen": 6711,
      "scr": 6712,
      "zial": 6713,
      "▁suggestions": 6714,
      "chester": 6715,
      "person": 6716,
      "zel": 6717,
      "▁waiting": 6718,
      "ewrite": 6719,
      "▁sentence": 6720,
      "▁linux": 6721,
      "▁noticed": 6722,
      "bing": 6723,
      "▁alter": 6724,
      "heel": 6725,
      "▁battle": 6726,
      "▁geld": 6727,
      "▁docs": 6728,
      "▁retrieve": 6729,
      "▁trab": 6730,
      "step": 6731,
      "▁laugh": 6732,
      "▁pela": 6733,
      "rough": 6734,
      "osh": 6735,
      "▁somewhat": 6736,
      "stru": 6737,
      "▁inline": 6738,
      "▁modules": 6739,
      "widet": 6740,
      "▁zn": 6741,
      "poses": 6742,
      "▁gradu": 6743,
      "▁aqu": 6744,
      "▁putting": 6745,
      "▁purch": 6746,
      "▁smooth": 6747,
      "engine": 6748,
      "▁lived": 6749,
      "▁tells": 6750,
      "▁decision": 6751,
      "▁dependency": 6752,
      "ocation": 6753,
      "oval": 6754,
      "feld": 6755,
      "▁ends": 6756,
      "▁ios": 6757,
      "▁excel": 6758,
      "agu": 6759,
      "▁eleg": 6760,
      "▁experien": 6761,
      "▁directed": 6762,
      "▁camb": 6763,
      "▁folg": 6764,
      "▁conce": 6765,
      "▁advantage": 6766,
      "prod": 6767,
      "▁vir": 6768,
      "▁span": 6769,
      "▁zone": 6770,
      "▁attach": 6771,
      "▁management": 6772,
      "once": 6773,
      "halt": 6774,
      "uso": 6775,
      "▁raw": 6776,
      "idel": 6777,
      "law": 6778,
      "▁mission": 6779,
      "▁camera": 6780,
      "▁honor": 6781,
      "▁appointed": 6782,
      "linear": 6783,
      "ferences": 6784,
      "▁covered": 6785,
      "raj": 6786,
      "▁tid": 6787,
      "isc": 6788,
      "▁encuent": 6789,
      "▁failure": 6790,
      "▁squ": 6791,
      "▁paint": 6792,
      "▁serious": 6793,
      "▁cursor": 6794,
      "tras": 6795,
      "▁discussion": 6796,
      "▁cried": 6797,
      "erie": 6798,
      "▁rewrite": 6799,
      "wait": 6800,
      "▁gepublic": 6801,
      "▁equations": 6802,
      "▁plane": 6803,
      "▁acqu": 6804,
      "▁angle": 6805,
      "▁trees": 6806,
      "pert": 6807,
      "▁documents": 6808,
      "cb": 6809,
      "▁implements": 6810,
      "▁chap": 6811,
      "plex": 6812,
      "▁magnet": 6813,
      "▁gepubliceerd": 6814,
      "▁highly": 6815,
      "▁leurs": 6816,
      "▁dress": 6817,
      "▁restart": 6818,
      "iso": 6819,
      "▁constitu": 6820,
      "▁derived": 6821,
      "▁stad": 6822,
      "omo": 6823,
      "uren": 6824,
      "▁tourn": 6825,
      "▁particularly": 6826,
      "abc": 6827,
      "widetilde": 6828,
      "andra": 6829,
      "▁plusieurs": 6830,
      "▁wave": 6831,
      "neq": 6832,
      "fre": 6833,
      "▁alc": 6834,
      "▁logs": 6835,
      "▁permission": 6836,
      "▁soul": 6837,
      "▁wants": 6838,
      "▁guide": 6839,
      "▁viene": 6840,
      "▁evidence": 6841,
      "ropol": 6842,
      "▁authentication": 6843,
      "▁occurred": 6844,
      "noc": 6845,
      "▁ble": 6846,
      "▁segment": 6847,
      "▁players": 6848,
      "isi": 6849,
      "▁stuck": 6850,
      "hou": 6851,
      "▁formatt": 6852,
      "▁peace": 6853,
      "etes": 6854,
      "dfrac": 6855,
      "▁clim": 6856,
      "▁oblig": 6857,
      "ieb": 6858,
      "▁pros": 6859,
      "racle": 6860,
      "kes": 6861,
      "ouvelle": 6862,
      "aby": 6863,
      "rane": 6864,
      "▁powers": 6865,
      "▁transaction": 6866,
      "▁causing": 6867,
      "ellschaft": 6868,
      "▁depth": 6869,
      "▁rare": 6870,
      "▁bon": 6871,
      "▁specifically": 6872,
      "rics": 6873,
      "▁stars": 6874,
      "▁configure": 6875,
      "▁agent": 6876,
      "▁explained": 6877,
      "▁coefficient": 6878,
      "▁vida": 6879,
      "▁rob": 6880,
      "antly": 6881,
      "dependency": 6882,
      "▁frances": 6883,
      "▁ideal": 6884,
      "▁todos": 6885,
      "▁pelo": 6886,
      "▁faith": 6887,
      "▁fresh": 6888,
      "▁propri": 6889,
      "▁veh": 6890,
      "contents": 6891,
      "collection": 6892,
      "▁kar": 6893,
      "ruck": 6894,
      "uma": 6895,
      "▁mathemat": 6896,
      "▁fon": 6897,
      "archive": 6898,
      "▁frequency": 6899,
      "▁kor": 6900,
      "month": 6901,
      "▁sys": 6902,
      "erme": 6903,
      "▁impact": 6904,
      "urrency": 6905,
      "licht": 6906,
      "▁apt": 6907,
      "iere": 6908,
      "▁motion": 6909,
      "▁ms": 6910,
      "shift": 6911,
      "▁autres": 6912,
      "▁bash": 6913,
      "hidden": 6914,
      "orio": 6915,
      "▁celebr": 6916,
      "eto": 6917,
      "▁dove": 6918,
      "▁paths": 6919,
      "▁inj": 6920,
      "▁cry": 6921,
      "▁marked": 6922,
      "ashion": 6923,
      "▁lan": 6924,
      "▁teams": 6925,
      "▁kv": 6926,
      "iams": 6927,
      "aban": 6928,
      "▁pubblic": 6929,
      "▁countries": 6930,
      "▁spin": 6931,
      "white": 6932,
      "▁pse": 6933,
      "▁theme": 6934,
      "▁blocks": 6935,
      "▁glad": 6936,
      "▁manage": 6937,
      "orden": 6938,
      "osten": 6939,
      "cole": 6940,
      "▁schema": 6941,
      "uras": 6942,
      "▁whenever": 6943,
      "▁discovered": 6944,
      "▁prefix": 6945,
      "global": 6946,
      "roke": 6947,
      "zes": 6948,
      "chte": 6949,
      "▁rapid": 6950,
      "▁lleg": 6951,
      "equals": 6952,
      "forall": 6953,
      "usz": 6954,
      "▁attached": 6955,
      "▁stock": 6956,
      "pet": 6957,
      "essions": 6958,
      "colo": 6959,
      "▁gy": 6960,
      "▁inputs": 6961,
      "▁learned": 6962,
      "▁police": 6963,
      "▁eye": 6964,
      "aient": 6965,
      "▁repres": 6966,
      "▁fest": 6967,
      "▁nouve": 6968,
      "▁extend": 6969,
      "▁deze": 6970,
      "erna": 6971,
      "▁motor": 6972,
      "bie": 6973,
      "▁resid": 6974,
      "▁finale": 6975,
      "▁pairs": 6976,
      "ivot": 6977,
      "rees": 6978,
      "▁evening": 6979,
      "rg": 6980,
      "▁conn": 6981,
      "schema": 6982,
      "▁flash": 6983,
      "skip": 6984,
      "▁minute": 6985,
      "▁ved": 6986,
      "aylor": 6987,
      "▁seus": 6988,
      "▁franc": 6989,
      "▁rac": 6990,
      "kw": 6991,
      "cv": 6992,
      "settings": 6993,
      "▁quality": 6994,
      "props": 6995,
      "▁allem": 6996,
      "ustration": 6997,
      "pattern": 6998,
      "mir": 6999,
      "▁incorpor": 7000,
      "skich": 7001,
      "▁technique": 7002,
      "tikz": 7003,
      "▁minister": 7004,
      "▁curl": 7005,
      "kan": 7006,
      "▁maps": 7007,
      "inda": 7008,
      "rieb": 7009,
      "ifies": 7010,
      "console": 7011,
      "bury": 7012,
      "▁independ": 7013,
      "▁ta": 7014,
      "onel": 7015,
      "utive": 7016,
      "▁compact": 7017,
      "▁labels": 7018,
      "▁stan": 7019,
      "▁removing": 7020,
      "yc": 7021,
      "mag": 7022,
      "before": 7023,
      "▁stopped": 7024,
      "▁refresh": 7025,
      "unkt": 7026,
      "icio": 7027,
      "▁founded": 7028,
      "▁fal": 7029,
      "fx": 7030,
      "▁decide": 7031,
      "▁understood": 7032,
      "▁jur": 7033,
      "▁capac": 7034,
      "was": 7035,
      "▁enemy": 7036,
      "▁programs": 7037,
      "▁mask": 7038,
      "▁groupe": 7039,
      "cam": 7040,
      "▁widget": 7041,
      "▁seva": 7042,
      "▁perd": 7043,
      "rance": 7044,
      "▁bill": 7045,
      "bahn": 7046,
      "▁contained": 7047,
      "rug": 7048,
      "egy": 7049,
      "▁sight": 7050,
      "arz": 7051,
      "▁deleted": 7052,
      "▁meter": 7053,
      "▁pent": 7054,
      "▁bezeichnet": 7055,
      "dbc": 7056,
      "ectors": 7057,
      "night": 7058,
      "▁ll": 7059,
      "▁mostly": 7060,
      "▁bez": 7061,
      "dob": 7062,
      "terne": 7063,
      "▁corner": 7064,
      "aty": 7065,
      "▁improve": 7066,
      "▁intr": 7067,
      "arod": 7068,
      "▁installation": 7069,
      "igan": 7070,
      "▁critic": 7071,
      "adel": 7072,
      "atori": 7073,
      "▁tant": 7074,
      "unci": 7075,
      "▁levels": 7076,
      "eres": 7077,
      "▁emer": 7078,
      "safe": 7079,
      "tk": 7080,
      "▁cham": 7081,
      "▁greatly": 7082,
      "▁weit": 7083,
      "▁coach": 7084,
      "▁toward": 7085,
      "▁mock": 7086,
      "▁appreciate": 7087,
      "▁sides": 7088,
      "stal": 7089,
      "▁cout": 7090,
      "bn": 7091,
      "▁bird": 7092,
      "▁dynamically": 7093,
      "▁dog": 7094,
      "▁nuc": 7095,
      "▁ak": 7096,
      "reland": 7097,
      "▁guitar": 7098,
      "▁regarding": 7099,
      "auss": 7100,
      "▁jej": 7101,
      "aco": 7102,
      "▁updates": 7103,
      "▁cold": 7104,
      "hin": 7105,
      "▁feeling": 7106,
      "igli": 7107,
      "fah": 7108,
      "bool": 7109,
      "initial": 7110,
      "▁hors": 7111,
      "▁doll": 7112,
      "▁consum": 7113,
      "uber": 7114,
      "standing": 7115,
      "activ": 7116,
      "checked": 7117,
      "▁permissions": 7118,
      "plus": 7119,
      "unque": 7120,
      "ea": 7121,
      "sample": 7122,
      "iesz": 7123,
      "oral": 7124,
      "oston": 7125,
      "fast": 7126,
      "mk": 7127,
      "assen": 7128,
      "▁architecture": 7129,
      "enses": 7130,
      "▁topic": 7131,
      "▁disable": 7132,
      "▁creation": 7133,
      "▁hyper": 7134,
      "itud": 7135,
      "aram": 7136,
      "ienst": 7137,
      "edule": 7138,
      "anne": 7139,
      "ydro": 7140,
      "entlich": 7141,
      "leton": 7142,
      "▁supports": 7143,
      "manual": 7144,
      "▁vice": 7145,
      "asa": 7146,
      "clos": 7147,
      "vised": 7148,
      "▁pok": 7149,
      "track": 7150,
      "........": 7151,
      "▁orders": 7152,
      "etta": 7153,
      "▁conversion": 7154,
      "▁trade": 7155,
      "cli": 7156,
      "▁akt": 7157,
      "▁subset": 7158,
      "▁aug": 7159,
      "▁leaves": 7160,
      "anned": 7161,
      "kal": 7162,
      "▁nog": 7163,
      "▁eth": 7164,
      "▁hair": 7165,
      "around": 7166,
      "▁javax": 7167,
      "uti": 7168,
      "▁navigation": 7169,
      "▁wa": 7170,
      "usa": 7171,
      "zeta": 7172,
      "▁mismo": 7173,
      "properties": 7174,
      "meister": 7175,
      "forward": 7176,
      "kins": 7177,
      "▁sido": 7178,
      "tags": 7179,
      "▁actor": 7180,
      "▁fly": 7181,
      "agini": 7182,
      "▁lett": 7183,
      "eni": 7184,
      "tech": 7185,
      "oracle": 7186,
      "amilton": 7187,
      "zej": 7188,
      "fen": 7189,
      "umerate": 7190,
      "▁questo": 7191,
      "dart": 7192,
      "apis": 7193,
      "eper": 7194,
      "wall": 7195,
      "▁island": 7196,
      "she": 7197,
      "▁ligger": 7198,
      "fang": 7199,
      "▁tard": 7200,
      "▁plaats": 7201,
      "▁circuit": 7202,
      "jed": 7203,
      "iders": 7204,
      "erer": 7205,
      "▁lady": 7206,
      "▁scheme": 7207,
      "ielle": 7208,
      "▁exerc": 7209,
      "athan": 7210,
      "▁moins": 7211,
      "▁instrument": 7212,
      "▁politique": 7213,
      "▁tradition": 7214,
      "▁aggreg": 7215,
      "▁weeks": 7216,
      "▁opport": 7217,
      "iting": 7218,
      "▁vertical": 7219,
      "izo": 7220,
      "▁cycle": 7221,
      "▁tempo": 7222,
      "▁handling": 7223,
      "istence": 7224,
      "▁paste": 7225,
      "▁enjo": 7226,
      "▁outer": 7227,
      "▁supply": 7228,
      "eman": 7229,
      "▁accident": 7230,
      "oting": 7231,
      "onymous": 7232,
      "▁ud": 7233,
      "construct": 7234,
      "textwidth": 7235,
      "quipe": 7236,
      "cases": 7237,
      "wan": 7238,
      "arna": 7239,
      "sun": 7240,
      "▁apps": 7241,
      "▁ihrer": 7242,
      "▁famille": 7243,
      "▁py": 7244,
      "▁ignore": 7245,
      "▁television": 7246,
      "hide": 7247,
      "▁bear": 7248,
      "phy": 7249,
      "▁noise": 7250,
      "▁wra": 7251,
      "ationale": 7252,
      "▁collabor": 7253,
      "border": 7254,
      "▁elected": 7255,
      "▁surpr": 7256,
      "▁avoir": 7257,
      "▁assembly": 7258,
      "▁arbitrary": 7259,
      "▁brief": 7260,
      "gression": 7261,
      "icia": 7262,
      "▁liegt": 7263,
      "▁onto": 7264,
      "▁forth": 7265,
      "▁clicked": 7266,
      "seite": 7267,
      "▁notes": 7268,
      "native": 7269,
      "amental": 7270,
      "▁rose": 7271,
      "▁puede": 7272,
      "uba": 7273,
      "neo": 7274,
      "xis": 7275,
      "aming": 7276,
      "▁diam": 7277,
      "▁pron": 7278,
      "ois": 7279,
      "coming": 7280,
      "uvud": 7281,
      "▁ability": 7282,
      "fd": 7283,
      "socket": 7284,
      "▁conoc": 7285,
      "contains": 7286,
      "essed": 7287,
      "▁geldig": 7288,
      "▁pointed": 7289,
      "esti": 7290,
      "nom": 7291,
      "▁represents": 7292,
      "▁manip": 7293,
      "world": 7294,
      "▁resolved": 7295,
      "tegr": 7296,
      "▁dort": 7297,
      "astern": 7298,
      "▁campaign": 7299,
      "▁primo": 7300,
      "▁snippet": 7301,
      "issement": 7302,
      "▁verify": 7303,
      "iffe": 7304,
      "lagen": 7305,
      "ieur": 7306,
      "▁converted": 7307,
      "▁konn": 7308,
      "apple": 7309,
      "▁dispos": 7310,
      "stellung": 7311,
      "▁retain": 7312,
      "▁mentre": 7313,
      "▁neut": 7314,
      "atti": 7315,
      "▁obra": 7316,
      "▁superior": 7317,
      "▁codes": 7318,
      "▁opposite": 7319,
      "▁pool": 7320,
      "inv": 7321,
      "anim": 7322,
      "utely": 7323,
      "▁drawing": 7324,
      "▁gain": 7325,
      "▁fourth": 7326,
      "▁suddenly": 7327,
      "onna": 7328,
      "▁konnte": 7329,
      "▁secure": 7330,
      "▁eq": 7331,
      "▁formal": 7332,
      "amerikan": 7333,
      "created": 7334,
      "apes": 7335,
      "▁especial": 7336,
      "edom": 7337,
      "▁categor": 7338,
      "abilities": 7339,
      "trz": 7340,
      "uset": 7341,
      "ierra": 7342,
      "network": 7343,
      "▁doctor": 7344,
      "eurs": 7345,
      "▁listen": 7346,
      "▁consists": 7347,
      "asm": 7348,
      "aland": 7349,
      "▁lugar": 7350,
      "▁definitely": 7351,
      "move": 7352,
      "ismus": 7353,
      "▁dt": 7354,
      "▁promise": 7355,
      "reens": 7356,
      "▁psych": 7357,
      "record": 7358,
      "▁inject": 7359,
      "▁crow": 7360,
      "▁increased": 7361,
      "acher": 7362,
      "peat": 7363,
      "rices": 7364,
      "agnost": 7365,
      "dl": 7366,
      "▁curve": 7367,
      "rice": 7368,
      "language": 7369,
      "▁municipal": 7370,
      "▁noted": 7371,
      "▁subs": 7372,
      "iation": 7373,
      "ingly": 7374,
      "iens": 7375,
      "ativo": 7376,
      "gende": 7377,
      "▁isol": 7378,
      "edes": 7379,
      "nier": 7380,
      "beans": 7381,
      "▁pandas": 7382,
      "▁gather": 7383,
      "▁legal": 7384,
      "includ": 7385,
      "▁circumst": 7386,
      "criptor": 7387,
      "rible": 7388,
      "▁apro": 7389,
      "owski": 7390,
      "iek": 7391,
      "▁vote": 7392,
      "▁bibli": 7393,
      "▁haar": 7394,
      "▁vr": 7395,
      "subseteq": 7396,
      "iani": 7397,
      "idea": 7398,
      "seh": 7399,
      "▁encounter": 7400,
      "▁reform": 7401,
      "exception": 7402,
      "trl": 7403,
      "equal": 7404,
      "▁lif": 7405,
      "▁voltage": 7406,
      "shire": 7407,
      "nings": 7408,
      "▁lag": 7409,
      "▁anderen": 7410,
      "▁vac": 7411,
      "▁macro": 7412,
      "▁controls": 7413,
      "seq": 7414,
      "ologies": 7415,
      "▁selector": 7416,
      "allenge": 7417,
      "ummy": 7418,
      "yen": 7419,
      "▁beste": 7420,
      "▁chair": 7421,
      "erde": 7422,
      "▁nast": 7423,
      "ivamente": 7424,
      "▁requirements": 7425,
      "▁meeting": 7426,
      "▁finan": 7427,
      "▁televis": 7428,
      "▁bright": 7429,
      "▁ft": 7430,
      "erne": 7431,
      "▁ils": 7432,
      "▁gall": 7433,
      "▁csv": 7434,
      "▁summer": 7435,
      "game": 7436,
      "▁posts": 7437,
      "▁zij": 7438,
      "▁determin": 7439,
      "▁abandon": 7440,
      "counter": 7441,
      "▁requirement": 7442,
      "irtual": 7443,
      "▁quiet": 7444,
      "▁timeout": 7445,
      "▁invent": 7446,
      "lais": 7447,
      "▁monitor": 7448,
      "halb": 7449,
      "▁leader": 7450,
      "▁utiliz": 7451,
      "▁parents": 7452,
      "▁forced": 7453,
      "▁proved": 7454,
      "▁effective": 7455,
      "▁llam": 7456,
      "orb": 7457,
      "ggi": 7458,
      "▁assumption": 7459,
      "▁subm": 7460,
      "ilia": 7461,
      "▁reverse": 7462,
      "▁quotes": 7463,
      "▁sites": 7464,
      "igung": 7465,
      "▁screens": 7466,
      "▁clause": 7467,
      "▁bundle": 7468,
      "▁philosoph": 7469,
      "▁gleich": 7470,
      "uly": 7471,
      "direct": 7472,
      "asketball": 7473,
      "owany": 7474,
      "▁radius": 7475,
      "▁elev": 7476,
      "▁prod": 7477,
      "lez": 7478,
      "pson": 7479,
      "▁erste": 7480,
      "▁lit": 7481,
      "▁exem": 7482,
      "▁eu": 7483,
      "▁gab": 7484,
      "etailed": 7485,
      "even": 7486,
      "▁consec": 7487,
      "hang": 7488,
      "▁contribution": 7489,
      "rollers": 7490,
      "▁studies": 7491,
      "▁poi": 7492,
      "gems": 7493,
      "▁floor": 7494,
      "▁initialize": 7495,
      "zek": 7496,
      "arte": 7497,
      "▁positions": 7498,
      "▁portion": 7499,
      "cover": 7500,
      "wp": 7501,
      "▁piano": 7502,
      "▁metal": 7503,
      "▁samples": 7504,
      "variable": 7505,
      "▁integers": 7506,
      "family": 7507,
      "▁nun": 7508,
      "▁increment": 7509,
      "ixed": 7510,
      "▁heeft": 7511,
      "fte": 7512,
      "▁vil": 7513,
      "▁otros": 7514,
      "aded": 7515,
      "▁capit": 7516,
      "isp": 7517,
      "▁constraints": 7518,
      "found": 7519,
      "▁pic": 7520,
      "▁tou": 7521,
      "cred": 7522,
      "▁styles": 7523,
      "fall": 7524,
      "▁street": 7525,
      "occer": 7526,
      "esen": 7527,
      "▁colors": 7528,
      "cean": 7529,
      "conne": 7530,
      "▁ratio": 7531,
      "anton": 7532,
      "▁customer": 7533,
      "pred": 7534,
      "▁electron": 7535,
      "sym": 7536,
      "▁overflow": 7537,
      "scheid": 7538,
      "▁searching": 7539,
      "▁purposes": 7540,
      "▁arrived": 7541,
      "▁punt": 7542,
      "▁lad": 7543,
      "▁leads": 7544,
      "▁sand": 7545,
      "▁communes": 7546,
      "▁caso": 7547,
      "rz": 7548,
      "▁dw": 7549,
      "aca": 7550,
      "children": 7551,
      "schemas": 7552,
      "▁instructions": 7553,
      "▁immagini": 7554,
      "▁thick": 7555,
      "▁fueron": 7556,
      "▁thrown": 7557,
      "▁clock": 7558,
      "enable": 7559,
      "'''": 7560,
      "▁contempor": 7561,
      "answer": 7562,
      "▁manufact": 7563,
      "▁io": 7564,
      "qquad": 7565,
      "legal": 7566,
      "▁raise": 7567,
      "▁deliver": 7568,
      "▁assumed": 7569,
      "ierten": 7570,
      "▁declaration": 7571,
      "▁speech": 7572,
      "▁tent": 7573,
      "archy": 7574,
      "▁dent": 7575,
      "▁risk": 7576,
      "▁vectors": 7577,
      "▁routes": 7578,
      "ymn": 7579,
      "gie": 7580,
      "walt": 7581,
      "▁efter": 7582,
      "▁subt": 7583,
      "▁birth": 7584,
      "▁drawn": 7585,
      "mess": 7586,
      "▁asc": 7587,
      "▁feder": 7588,
      "▁stick": 7589,
      "reset": 7590,
      "yk": 7591,
      "studio": 7592,
      "▁scripts": 7593,
      "undial": 7594,
      "▁lives": 7595,
      "▁szer": 7596,
      "▁estado": 7597,
      "folder": 7598,
      "▁communication": 7599,
      "▁swift": 7600,
      "▁kill": 7601,
      "joint": 7602,
      "▁objective": 7603,
      "▁complicated": 7604,
      "esh": 7605,
      "picture": 7606,
      "raine": 7607,
      "comput": 7608,
      "▁proport": 7609,
      "ogs": 7610,
      "▁quantum": 7611,
      "▁sop": 7612,
      "▁loops": 7613,
      "▁nei": 7614,
      "▁verm": 7615,
      "▁adj": 7616,
      "▁trou": 7617,
      "isions": 7618,
      "servable": 7619,
      "oret": 7620,
      "oks": 7621,
      "▁kg": 7622,
      "defined": 7623,
      "platform": 7624,
      "cler": 7625,
      "ographic": 7626,
      "ritt": 7627,
      "▁dic": 7628,
      "▁commercial": 7629,
      "▁precis": 7630,
      "▁quatre": 7631,
      "ustral": 7632,
      "▁dag": 7633,
      "igue": 7634,
      "▁burn": 7635,
      "▁officer": 7636,
      "▁highlight": 7637,
      "odi": 7638,
      "servlet": 7639,
      "quant": 7640,
      "▁flat": 7641,
      "role": 7642,
      "▁diesen": 7643,
      "lus": 7644,
      "▁zm": 7645,
      "deg": 7646,
      "▁rough": 7647,
      "▁hur": 7648,
      "chs": 7649,
      "▁turns": 7650,
      "nero": 7651,
      "functions": 7652,
      "▁habitants": 7653,
      "issues": 7654,
      "▁huge": 7655,
      "▁coast": 7656,
      "shape": 7657,
      "▁logging": 7658,
      "endor": 7659,
      "▁lies": 7660,
      "▁difer": 7661,
      "▁critical": 7662,
      "ansk": 7663,
      "kc": 7664,
      "iverse": 7665,
      "compile": 7666,
      "hello": 7667,
      "▁edition": 7668,
      "grund": 7669,
      "▁dataframe": 7670,
      "reib": 7671,
      "▁reduced": 7672,
      "obil": 7673,
      "▁anywhere": 7674,
      "▁phr": 7675,
      "▁manual": 7676,
      "▁cra": 7677,
      "▁synchron": 7678,
      "iration": 7679,
      "▁typically": 7680,
      "▁implicit": 7681,
      "orient": 7682,
      "▁timer": 7683,
      "iest": 7684,
      "raid": 7685,
      "▁expressions": 7686,
      "▁aim": 7687,
      "▁stre": 7688,
      "▁wrap": 7689,
      "▁bron": 7690,
      "▁keyboard": 7691,
      "pow": 7692,
      "▁grupo": 7693,
      "▁professor": 7694,
      "minus": 7695,
      "mor": 7696,
      "widehat": 7697,
      "aris": 7698,
      "defn": 7699,
      "istrz": 7700,
      "▁tanto": 7701,
      "▁indicate": 7702,
      "reshold": 7703,
      "▁owner": 7704,
      "▁disp": 7705,
      "report": 7706,
      "require": 7707,
      "▁voy": 7708,
      "ichten": 7709,
      "▁structures": 7710,
      "▁muy": 7711,
      "▁certificate": 7712,
      "▁province": 7713,
      "pages": 7714,
      "dal": 7715,
      "▁ancient": 7716,
      "▁films": 7717,
      "▁atom": 7718,
      "▁ell": 7719,
      "▁nacional": 7720,
      "▁neighbor": 7721,
      "▁wit": 7722,
      "▁repeat": 7723,
      "bad": 7724,
      "▁saison": 7725,
      "directory": 7726,
      "uan": 7727,
      "norm": 7728,
      "▁suspect": 7729,
      "▁anno": 7730,
      "bc": 7731,
      "▁befind": 7732,
      "ocs": 7733,
      "latest": 7734,
      "▁afterwards": 7735,
      "▁ja": 7736,
      "yz": 7737,
      "▁laid": 7738,
      "pie": 7739,
      "watch": 7740,
      "contact": 7741,
      "iber": 7742,
      "checkbox": 7743,
      "anse": 7744,
      "eff": 7745,
      "xxx": 7746,
      "▁lov": 7747,
      "itute": 7748,
      "zech": 7749,
      "tere": 7750,
      "▁purs": 7751,
      "kens": 7752,
      "iante": 7753,
      "kreis": 7754,
      "shared": 7755,
      "▁connections": 7756,
      "sson": 7757,
      "▁restaur": 7758,
      "▁enf": 7759,
      "▁prev": 7760,
      "▁ik": 7761,
      "▁colour": 7762,
      "chten": 7763,
      "▁estad": 7764,
      "inois": 7765,
      "▁confir": 7766,
      "omer": 7767,
      "dll": 7768,
      "▁youth": 7769,
      "emen": 7770,
      "▁studied": 7771,
      "cion": 7772,
      "▁navig": 7773,
      "required": 7774,
      "orithms": 7775,
      "ilor": 7776,
      "▁persons": 7777,
      "▁formation": 7778,
      "abei": 7779,
      "rir": 7780,
      "▁gate": 7781,
      "oration": 7782,
      "maven": 7783,
      "▁combined": 7784,
      "▁attr": 7785,
      "▁hook": 7786,
      "▁servers": 7787,
      "ucture": 7788,
      "tv": 7789,
      "▁req": 7790,
      "jal": 7791,
      "▁locally": 7792,
      "▁apart": 7793,
      "▁zusammen": 7794,
      "▁identify": 7795,
      "gh": 7796,
      "▁nelle": 7797,
      "ounding": 7798,
      "aph": 7799,
      "▁thre": 7800,
      "▁prin": 7801,
      "▁society": 7802,
      "▁veg": 7803,
      "▁schools": 7804,
      "▁overall": 7805,
      "▁tail": 7806,
      "▁rapp": 7807,
      "▁traffic": 7808,
      "question": 7809,
      "▁environ": 7810,
      "ateien": 7811,
      "icus": 7812,
      "▁narrow": 7813,
      "▁pray": 7814,
      "abl": 7815,
      "▁npm": 7816,
      "aver": 7817,
      "onymes": 7818,
      "▁tensor": 7819,
      "istra": 7820,
      "▁jump": 7821,
      "▁principle": 7822,
      "oked": 7823,
      "▁sau": 7824,
      "encode": 7825,
      "▁pon": 7826,
      "catch": 7827,
      "▁tiem": 7828,
      "limits": 7829,
      "▁keeping": 7830,
      "▁songs": 7831,
      "▁notification": 7832,
      "▁offered": 7833,
      "▁shut": 7834,
      "errors": 7835,
      "▁latach": 7836,
      "▁selbst": 7837,
      "▁checkbox": 7838,
      "▁cool": 7839,
      "▁factory": 7840,
      "▁paid": 7841,
      "dimensional": 7842,
      "niej": 7843,
      "pton": 7844,
      "▁pin": 7845,
      "aked": 7846,
      "▁reli": 7847,
      "imum": 7848,
      "▁iteration": 7849,
      "▁boys": 7850,
      "▁destination": 7851,
      "limp": 7852,
      "worth": 7853,
      "▁fairly": 7854,
      "falls": 7855,
      "▁reject": 7856,
      "▁dream": 7857,
      "bell": 7858,
      "▁toute": 7859,
      "▁stone": 7860,
      "▁protect": 7861,
      "▁excell": 7862,
      "▁dash": 7863,
      "▁fault": 7864,
      "pmatrix": 7865,
      "aller": 7866,
      "▁guerre": 7867,
      "origin": 7868,
      "hibernate": 7869,
      "unto": 7870,
      "▁bow": 7871,
      "▁fou": 7872,
      "▁ott": 7873,
      "sup": 7874,
      "reas": 7875,
      "▁pointers": 7876,
      "▁driv": 7877,
      "▁thou": 7878,
      "spark": 7879,
      "lament": 7880,
      "oy": 7881,
      "▁trivial": 7882,
      "▁signature": 7883,
      "unos": 7884,
      "▁cancel": 7885,
      "eed": 7886,
      "▁sulla": 7887,
      "▁quarter": 7888,
      "asz": 7889,
      "▁blog": 7890,
      "fica": 7891,
      "won": 7892,
      "quet": 7893,
      "▁generation": 7894,
      "▁caught": 7895,
      "▁lands": 7896,
      "schaften": 7897,
      "rons": 7898,
      "annels": 7899,
      "tutorial": 7900,
      "tip": 7901,
      "▁bounded": 7902,
      "tar": 7903,
      "▁notation": 7904,
      "▁apache": 7905,
      "▁gaz": 7906,
      "ierno": 7907,
      "angen": 7908,
      "pective": 7909,
      "▁electric": 7910,
      "▁semi": 7911,
      "ederb": 7912,
      "objects": 7913,
      "▁differences": 7914,
      "isted": 7915,
      "href": 7916,
      "icip": 7917,
      "▁numpy": 7918,
      "loader": 7919,
      "▁dich": 7920,
      "documentation": 7921,
      "ircraft": 7922,
      "▁institution": 7923,
      "compat": 7924,
      "▁broadcast": 7925,
      "datetime": 7926,
      "async": 7927,
      "vre": 7928,
      "mean": 7929,
      "▁estimate": 7930,
      "icana": 7931,
      "▁grep": 7932,
      "tek": 7933,
      "orig": 7934,
      "utenant": 7935,
      "anga": 7936,
      "pin": 7937,
      "▁vertex": 7938,
      "city": 7939,
      "ugby": 7940,
      "green": 7941,
      "▁necessarily": 7942,
      "alem": 7943,
      "▁meta": 7944,
      "jem": 7945,
      "ragen": 7946,
      "▁sorted": 7947,
      "ussen": 7948,
      "▁spoke": 7949,
      "▁disabled": 7950,
      "▁accomplish": 7951,
      "there": 7952,
      "ees": 7953,
      "▁hall": 7954,
      "▁metric": 7955,
      "attribute": 7956,
      "about": 7957,
      "channel": 7958,
      "▁episode": 7959,
      "▁ought": 7960,
      "▁validate": 7961,
      "▁rim": 7962,
      "▁numerous": 7963,
      "onato": 7964,
      "books": 7965,
      "stone": 7966,
      "▁jel": 7967,
      "iri": 7968,
      "▁stata": 7969,
      "▁baz": 7970,
      "thm": 7971,
      "dh": 7972,
      "▁checks": 7973,
      "kr": 7974,
      "▁venne": 7975,
      "avia": 7976,
      "kazy": 7977,
      "▁college": 7978,
      "tion": 7979,
      "▁curious": 7980,
      "short": 7981,
      "▁bass": 7982,
      "diff": 7983,
      "▁operators": 7984,
      "▁edges": 7985,
      "inds": 7986,
      "▁ging": 7987,
      "rano": 7988,
      "▁adds": 7989,
      "elor": 7990,
      "▁unsigned": 7991,
      "▁chose": 7992,
      "▁pieces": 7993,
      "▁regions": 7994,
      "▁foc": 7995,
      "padding": 7996,
      "aben": 7997,
      "▁europ": 7998,
      "illon": 7999,
      "▁bord": 8000,
      "▁vul": 8001,
      "plugins": 8002,
      "▁kur": 8003,
      "region": 8004,
      "icher": 8005,
      "▁medal": 8006,
      "uter": 8007,
      "▁scan": 8008,
      "▁contrast": 8009,
      "related": 8010,
      "aling": 8011,
      "wy": 8012,
      "▁temporada": 8013,
      "▁assignment": 8014,
      "▁calculated": 8015,
      "▁eller": 8016,
      "riel": 8017,
      "▁hardware": 8018,
      "▁intens": 8019,
      "illi": 8020,
      "agon": 8021,
      "▁heute": 8022,
      "▁sle": 8023,
      "▁literature": 8024,
      "sem": 8025,
      "manager": 8026,
      "▁mixed": 8027,
      "▁soit": 8028,
      "▁welcome": 8029,
      "▁builder": 8030,
      "simple": 8031,
      "icode": 8032,
      "indent": 8033,
      "opo": 8034,
      "▁advanced": 8035,
      "temper": 8036,
      "edge": 8037,
      "▁datetime": 8038,
      "▁donc": 8039,
      "▁verd": 8040,
      "itos": 8041,
      "▁heat": 8042,
      "visible": 8043,
      "mel": 8044,
      "▁variety": 8045,
      "▁router": 8046,
      "▁obviously": 8047,
      "hein": 8048,
      "▁velocity": 8049,
      "alert": 8050,
      "▁normally": 8051,
      "▁ctx": 8052,
      "ulture": 8053,
      "▁nah": 8054,
      "isms": 8055,
      "icul": 8056,
      "pisode": 8057,
      "▁diesem": 8058,
      "▁rig": 8059,
      "▁glass": 8060,
      "▁initially": 8061,
      "▁kr": 8062,
      "plays": 8063,
      "▁sigu": 8064,
      "storage": 8065,
      "ivos": 8066,
      "eu": 8067,
      "▁originale": 8068,
      "irs": 8069,
      "itut": 8070,
      "nl": 8071,
      "mvc": 8072,
      "▁female": 8073,
      "▁bridge": 8074,
      "ktr": 8075,
      "▁seat": 8076,
      "▁vess": 8077,
      "▁oc": 8078,
      "▁houses": 8079,
      "lon": 8080,
      "▁pressure": 8081,
      "igned": 8082,
      "▁religious": 8083,
      "fan": 8084,
      "iglia": 8085,
      "▁classification": 8086,
      "ogether": 8087,
      "▁commission": 8088,
      "▁antes": 8089,
      "▁jak": 8090,
      "ienen": 8091,
      "ugg": 8092,
      "▁placeholder": 8093,
      ",,": 8094,
      "▁wen": 8095,
      "▁aud": 8096,
      "▁sue": 8097,
      "▁referred": 8098,
      "▁bla": 8099,
      "▁statist": 8100,
      "gue": 8101,
      "mathscr": 8102,
      "▁lieu": 8103,
      "▁bod": 8104,
      "▁rus": 8105,
      "▁boat": 8106,
      "xspace": 8107,
      "▁modal": 8108,
      "topic": 8109,
      "many": 8110,
      "▁organization": 8111,
      "▁comfort": 8112,
      "ibil": 8113,
      "▁animal": 8114,
      "jon": 8115,
      "▁ker": 8116,
      "mozilla": 8117,
      "antin": 8118,
      "emento": 8119,
      "may": 8120,
      "▁lung": 8121,
      "▁blow": 8122,
      "edeut": 8123,
      "▁typed": 8124,
      "▁december": 8125,
      "▁....": 8126,
      "liance": 8127,
      "▁viel": 8128,
      "presa": 8129,
      "stre": 8130,
      "weis": 8131,
      "▁protection": 8132,
      "taient": 8133,
      "▁officers": 8134,
      "▁intellig": 8135,
      "▁separated": 8136,
      "clock": 8137,
      "▁apare": 8138,
      "gebiet": 8139,
      "▁convent": 8140,
      "furt": 8141,
      "▁beiden": 8142,
      "bash": 8143,
      "▁ub": 8144,
      "▁limits": 8145,
      "ctx": 8146,
      "guide": 8147,
      "mic": 8148,
      "iesa": 8149,
      "▁huvud": 8150,
      "▁lect": 8151,
      "conn": 8152,
      "imit": 8153,
      "▁bajo": 8154,
      "scribe": 8155,
      "regex": 8156,
      "▁propag": 8157,
      "▁profes": 8158,
      "unique": 8159,
      "union": 8160,
      "rios": 8161,
      "pip": 8162,
      "kadem": 8163,
      "columns": 8164,
      "▁vary": 8165,
      "▁bereits": 8166,
      "▁doi": 8167,
      "▁sei": 8168,
      "▁syst": 8169,
      "▁tym": 8170,
      "pel": 8171,
      "▁believed": 8172,
      "▁provider": 8173,
      "▁minimal": 8174,
      "aines": 8175,
      "izio": 8176,
      "issen": 8177,
      "pressed": 8178,
      "▁stag": 8179,
      "▁uint": 8180,
      "kor": 8181,
      "▁inherit": 8182,
      "▁compiled": 8183,
      "▁febru": 8184,
      "▁tmp": 8185,
      "works": 8186,
      "drawable": 8187,
      "▁thoughts": 8188,
      "route": 8189,
      "▁concert": 8190,
      "▁optional": 8191,
      "▁bras": 8192,
      "▁providing": 8193,
      "idx": 8194,
      "emplo": 8195,
      "cout": 8196,
      "layer": 8197,
      "▁glob": 8198,
      "foreach": 8199,
      "▁improv": 8200,
      "▁clients": 8201,
      "groups": 8202,
      "▁kont": 8203,
      "rett": 8204,
      "▁sup": 8205,
      "▁mog": 8206,
      "tan": 8207,
      "▁compl": 8208,
      "irty": 8209,
      "▁nouveau": 8210,
      "osz": 8211,
      "bere": 8212,
      "mask": 8213,
      "zil": 8214,
      "▁detailed": 8215,
      "▁families": 8216,
      "abet": 8217,
      "▁pendant": 8218,
      "▁bil": 8219,
      "▁hint": 8220,
      "oden": 8221,
      "▁expansion": 8222,
      "▁pont": 8223,
      "asant": 8224,
      "iji": 8225,
      "laimed": 8226,
      "reflect": 8227,
      "bytes": 8228,
      "hover": 8229,
      "gradle": 8230,
      "apest": 8231,
      "▁temporary": 8232,
      "classes": 8233,
      "▁mole": 8234,
      "▁pec": 8235,
      "roduction": 8236,
      "▁instanti": 8237,
      "▁notamment": 8238,
      "▁libre": 8239,
      "does": 8240,
      "▁league": 8241,
      "▁quale": 8242,
      "▁apparently": 8243,
      "▁troops": 8244,
      "icano": 8245,
      "enze": 8246,
      "loading": 8247,
      "▁distributed": 8248,
      "writer": 8249,
      "resources": 8250,
      "utils": 8251,
      "▁prepared": 8252,
      "cier": 8253,
      "opol": 8254,
      "hes": 8255,
      "▁opens": 8256,
      "agog": 8257,
      "interface": 8258,
      "▁pentru": 8259,
      "▁configured": 8260,
      "▁listener": 8261,
      "ivel": 8262,
      "mina": 8263,
      "▁invest": 8264,
      "▁dav": 8265,
      "▁patch": 8266,
      "pieler": 8267,
      "tf": 8268,
      "▁ered": 8269,
      "▁sout": 8270,
      "▁verk": 8271,
      "mers": 8272,
      "toggle": 8273,
      "▁updating": 8274,
      "eca": 8275,
      "▁titre": 8276,
      "▁pode": 8277,
      "▁silver": 8278,
      "▁capacity": 8279,
      "▁completion": 8280,
      "fel": 8281,
      "vano": 8282,
      "zeug": 8283,
      "▁interior": 8284,
      "quel": 8285,
      "▁cum": 8286,
      "cep": 8287,
      "▁functional": 8288,
      "▁adapter": 8289,
      "configuration": 8290,
      "▁tipo": 8291,
      "vy": 8292,
      "▁travers": 8293,
      "▁absolutely": 8294,
      "ycle": 8295,
      "best": 8296,
      "▁constructed": 8297,
      "cido": 8298,
      "exit": 8299,
      "gart": 8300,
      "▁provincia": 8301,
      "vez": 8302,
      "cipl": 8303,
      "▁yellow": 8304,
      "▁pointing": 8305,
      "▁possibility": 8306,
      "▁legisl": 8307,
      "dern": 8308,
      "▁mechanism": 8309,
      "expr": 8310,
      "▁digits": 8311,
      "▁delegate": 8312,
      "ogram": 8313,
      "isy": 8314,
      "▁spo": 8315,
      "cluded": 8316,
      "▁printed": 8317,
      "ansas": 8318,
      "htm": 8319,
      "▁duty": 8320,
      "owego": 8321,
      "pus": 8322,
      "embl": 8323,
      "dispatch": 8324,
      "apps": 8325,
      "▁impl": 8326,
      "oux": 8327,
      "holm": 8328,
      "▁passage": 8329,
      "▁expressed": 8330,
      "▁ol": 8331,
      "▁havia": 8332,
      "▁enjoy": 8333,
      "formance": 8334,
      "▁dimensions": 8335,
      "▁mouth": 8336,
      "▁gau": 8337,
      "iency": 8338,
      "radio": 8339,
      "limit": 8340,
      "water": 8341,
      "▁murder": 8342,
      "▁standing": 8343,
      "ppa": 8344,
      "ureau": 8345,
      "▁objet": 8346,
      "embers": 8347,
      "vr": 8348,
      "▁condu": 8349,
      "inus": 8350,
      "▁',": 8351,
      "▁afraid": 8352,
      "testing": 8353,
      "▁vast": 8354,
      "nih": 8355,
      "ylvan": 8356,
      "▁religion": 8357,
      "opher": 8358,
      "▁digital": 8359,
      "zioni": 8360,
      "convert": 8361,
      "▁receiving": 8362,
      "▁hero": 8363,
      "sam": 8364,
      "▁posterior": 8365,
      "owi": 8366,
      "▁flags": 8367,
      "▁bounds": 8368,
      "▁whereas": 8369,
      "infl": 8370,
      "▁demo": 8371,
      "▁gibt": 8372,
      "▁hospital": 8373,
      "▁volta": 8374,
      "▁fashion": 8375,
      "▁exceed": 8376,
      "elenium": 8377,
      "krie": 8378,
      "▁integration": 8379,
      "adu": 8380,
      "onde": 8381,
      "uint": 8382,
      "radius": 8383,
      "▁ram": 8384,
      "▁dy": 8385,
      "rev": 8386,
      "rior": 8387,
      "irat": 8388,
      "▁importante": 8389,
      "▁causa": 8390,
      "▁diplom": 8391,
      "▁exclus": 8392,
      "▁debugging": 8393,
      "original": 8394,
      "lyn": 8395,
      "suite": 8396,
      "chat": 8397,
      "▁estud": 8398,
      "uelle": 8399,
      "▁pert": 8400,
      "▁importance": 8401,
      "▁approaches": 8402,
      "▁dla": 8403,
      "prefix": 8404,
      "country": 8405,
      "itzer": 8406,
      "▁singular": 8407,
      "gov": 8408,
      "▁matrices": 8409,
      "olare": 8410,
      "nika": 8411,
      "power": 8412,
      "lla": 8413,
      "▁desire": 8414,
      "▁familia": 8415,
      "▁fan": 8416,
      "generated": 8417,
      "mov": 8418,
      "▁denote": 8419,
      "ouvern": 8420,
      "aman": 8421,
      "▁inser": 8422,
      "ijk": 8423,
      "otta": 8424,
      "eral": 8425,
      "▁poder": 8426,
      "iges": 8427,
      "▁weird": 8428,
      "iac": 8429,
      "▁quelques": 8430,
      "▁tel": 8431,
      "verter": 8432,
      "▁pdf": 8433,
      "▁keyword": 8434,
      "rece": 8435,
      "▁identical": 8436,
      "stylesheet": 8437,
      "▁ka": 8438,
      "cement": 8439,
      "▁chat": 8440,
      "▁fant": 8441,
      "▁forest": 8442,
      "cuss": 8443,
      "▁sehr": 8444,
      "pag": 8445,
      "otic": 8446,
      "azu": 8447,
      "▁plays": 8448,
      "izioni": 8449,
      "▁bomb": 8450,
      "▁merely": 8451,
      "▁holding": 8452,
      "▁wenn": 8453,
      "▁medic": 8454,
      "▁speaking": 8455,
      "ongodb": 8456,
      "inity": 8457,
      "luss": 8458,
      "▁operating": 8459,
      "▁accuracy": 8460,
      "▁bos": 8461,
      "▁evident": 8462,
      "events": 8463,
      "textrm": 8464,
      "oreign": 8465,
      "▁ii": 8466,
      "hren": 8467,
      "lower": 8468,
      "▁aj": 8469,
      "eri": 8470,
      "▁digit": 8471,
      "▁forme": 8472,
      "nonumber": 8473,
      "▁recommended": 8474,
      "▁reads": 8475,
      "histoire": 8476,
      "▁sang": 8477,
      "score": 8478,
      "fas": 8479,
      "▁cub": 8480,
      "▁grew": 8481,
      "▁centro": 8482,
      "▁bekannt": 8483,
      "hew": 8484,
      "▁majority": 8485,
      "enci": 8486,
      "▁complexity": 8487,
      "constraint": 8488,
      "▁iterate": 8489,
      "lett": 8490,
      "peror": 8491,
      "share": 8492,
      "▁inclu": 8493,
      "▁rapport": 8494,
      "eclipse": 8495,
      "▁industry": 8496,
      "headers": 8497,
      "chsel": 8498,
      "▁polic": 8499,
      "schied": 8500,
      "aligned": 8501,
      "▁frequently": 8502,
      "▁suoi": 8503,
      "▁essentially": 8504,
      "▁reports": 8505,
      "▁decimal": 8506,
      "rar": 8507,
      "▁simpler": 8508,
      "▁posit": 8509,
      "cdn": 8510,
      "ktur": 8511,
      "▁awk": 8512,
      "uur": 8513,
      "▁mant": 8514,
      "▁techniques": 8515,
      "impl": 8516,
      "▁dropped": 8517,
      "ental": 8518,
      "▁celui": 8519,
      "▁strategy": 8520,
      "nan": 8521,
      "▁gmin": 8522,
      "▁eerste": 8523,
      "nten": 8524,
      "resp": 8525,
      "▁stable": 8526,
      "nov": 8527,
      "rob": 8528,
      "▁marriage": 8529,
      "▁diagram": 8530,
      "gia": 8531,
      "▁composed": 8532,
      "▁missed": 8533,
      "▁homonymes": 8534,
      "▁encou": 8535,
      "porte": 8536,
      "▁rotation": 8537,
      "▁fir": 8538,
      "▁gun": 8539,
      "▁copied": 8540,
      "▁consistent": 8541,
      "▁drink": 8542,
      "▁matters": 8543,
      "▁rendered": 8544,
      "▁hypoth": 8545,
      "▁meer": 8546,
      "▁parsing": 8547,
      "series": 8548,
      "▁repo": 8549,
      "wor": 8550,
      "▁elabor": 8551,
      "▁liste": 8552,
      "▁relatively": 8553,
      "chant": 8554,
      "▁lift": 8555,
      "▁tec": 8556,
      "▁influen": 8557,
      "onds": 8558,
      "handler": 8559,
      "▁banda": 8560,
      "▁vertices": 8561,
      "▁zap": 8562,
      "▁cord": 8563,
      "alter": 8564,
      "zenia": 8565,
      "▁knowing": 8566,
      "fc": 8567,
      "ieux": 8568,
      "▁deutschen": 8569,
      "▁traditional": 8570,
      "decode": 8571,
      "vex": 8572,
      "▁sizeof": 8573,
      "▁parser": 8574,
      "▁buildings": 8575,
      "rile": 8576,
      "▁logged": 8577,
      "▁strongly": 8578,
      "▁revol": 8579,
      "xico": 8580,
      "cart": 8581,
      "emes": 8582,
      "schrift": 8583,
      "wad": 8584,
      "▁grandes": 8585,
      "ientes": 8586,
      "▁famous": 8587,
      "ologne": 8588,
      "bara": 8589,
      "▁cad": 8590,
      "elve": 8591,
      "brace": 8592,
      "stable": 8593,
      "lemma": 8594,
      "mediate": 8595,
      "▁vin": 8596,
      "▁monument": 8597,
      "▁cv": 8598,
      "▁winter": 8599,
      "▁transformation": 8600,
      "stronom": 8601,
      "▁frag": 8602,
      "▁intel": 8603,
      "raction": 8604,
      "▁considering": 8605,
      "▁mundo": 8606,
      "arters": 8607,
      "▁txt": 8608,
      "angers": 8609,
      "▁thy": 8610,
      "ibles": 8611,
      "▁requested": 8612,
      "▁factors": 8613,
      "▁produces": 8614,
      "ningen": 8615,
      "▁optimization": 8616,
      "chod": 8617,
      "nosti": 8618,
      "▁competition": 8619,
      "▁zona": 8620,
      "dc": 8621,
      "design": 8622,
      "▁espec": 8623,
      "equality": 8624,
      "▁developer": 8625,
      "▁plans": 8626,
      "▁vit": 8627,
      "izable": 8628,
      "burgh": 8629,
      "agem": 8630,
      "▁suitable": 8631,
      "picker": 8632,
      "andy": 8633,
      "▁quot": 8634,
      "▁tart": 8635,
      "▁dispatch": 8636,
      "▁observations": 8637,
      "▁occurr": 8638,
      "▁tiempo": 8639,
      "▁staff": 8640,
      "▁sections": 8641,
      "▁ssh": 8642,
      "▁erre": 8643,
      "▁divided": 8644,
      "▁durant": 8645,
      "▁jaar": 8646,
      "▁soldiers": 8647,
      "lapse": 8648,
      "rera": 8649,
      "▁calculation": 8650,
      "▁keine": 8651,
      "ertain": 8652,
      "▁cul": 8653,
      "▁cloth": 8654,
      "▁przed": 8655,
      "arian": 8656,
      "▁hang": 8657,
      "otlin": 8658,
      "▁translation": 8659,
      "▁modo": 8660,
      "▁statistics": 8661,
      "▁ships": 8662,
      "ieri": 8663,
      "▁parties": 8664,
      "pla": 8665,
      "rw": 8666,
      "▁iron": 8667,
      "▁attract": 8668,
      "▁cort": 8669,
      "▁bene": 8670,
      "▁powerful": 8671,
      "auch": 8672,
      "mande": 8673,
      "▁zna": 8674,
      "▁figures": 8675,
      "▁alias": 8676,
      "nex": 8677,
      "▁categories": 8678,
      "called": 8679,
      "▁girls": 8680,
      "pez": 8681,
      "▁joint": 8682,
      "iken": 8683,
      "ancia": 8684,
      "▁tijd": 8685,
      "▁algorithms": 8686,
      "▁printing": 8687,
      "nea": 8688,
      "▁executing": 8689,
      "▁lambda": 8690,
      "▁regional": 8691,
      "phys": 8692,
      "zm": 8693,
      "▁candidate": 8694,
      "zym": 8695,
      "▁spiel": 8696,
      "nehmen": 8697,
      "keiten": 8698,
      "intent": 8699,
      "prom": 8700,
      "▁nat": 8701,
      "▁imagine": 8702,
      "callback": 8703,
      "components": 8704,
      "without": 8705,
      "▁aquest": 8706,
      "▁responsible": 8707,
      "▁jego": 8708,
      "lj": 8709,
      "will": 8710,
      "lean": 8711,
      "eland": 8712,
      "mc": 8713,
      "▁ocup": 8714,
      "▁rub": 8715,
      "amos": 8716,
      "entre": 8717,
      "fail": 8718,
      "▁expos": 8719,
      "▁finds": 8720,
      "▁movie": 8721,
      "ometric": 8722,
      "eling": 8723,
      "numerable": 8724,
      "ourd": 8725,
      "▁bild": 8726,
      "blo": 8727,
      "▁lose": 8728,
      "ateurs": 8729,
      "oured": 8730,
      "▁poz": 8731,
      "posts": 8732,
      "pend": 8733,
      "certain": 8734,
      "webkit": 8735,
      "▁indicates": 8736,
      "▁park": 8737,
      "rique": 8738,
      "vod": 8739,
      "ftware": 8740,
      "django": 8741,
      "release": 8742,
      "▁politician": 8743,
      "▁roi": 8744,
      "aturen": 8745,
      "tagon": 8746,
      "obierno": 8747,
      "uther": 8748,
      "indi": 8749,
      "▁anos": 8750,
      "▁observe": 8751,
      "elly": 8752,
      "▁railway": 8753,
      "aton": 8754,
      "▁enum": 8755,
      "hus": 8756,
      "▁inhab": 8757,
      "oire": 8758,
      "▁anterior": 8759,
      "isons": 8760,
      "laps": 8761,
      "mont": 8762,
      "ubern": 8763,
      "▁coding": 8764,
      "theory": 8765,
      "athed": 8766,
      "omorphism": 8767,
      "details": 8768,
      "achsen": 8769,
      "integr": 8770,
      "aceae": 8771,
      "inue": 8772,
      "esome": 8773,
      "chain": 8774,
      "▁extremely": 8775,
      "multicol": 8776,
      "▁addresses": 8777,
      "hspace": 8778,
      "▁dessen": 8779,
      "▁consequ": 8780,
      "ualmente": 8781,
      "kir": 8782,
      "sex": 8783,
      "intern": 8784,
      "▁benefit": 8785,
      "umen": 8786,
      "▁becoming": 8787,
      "▁lig": 8788,
      "▁popula": 8789,
      "osc": 8790,
      "▁civ": 8791,
      "▁greatest": 8792,
      "▁proces": 8793,
      "hell": 8794,
      "▁nine": 8795,
      "ulpt": 8796,
      "jours": 8797,
      "▁activities": 8798,
      "itul": 8799,
      "isti": 8800,
      "jas": 8801,
      "▁heav": 8802,
      "▁branches": 8803,
      "borg": 8804,
      "▁vl": 8805,
      "▁slowly": 8806,
      "emi": 8807,
      "▁circumstances": 8808,
      "rupted": 8809,
      "▁relativ": 8810,
      "▁slo": 8811,
      "▁padre": 8812,
      "▁daily": 8813,
      "▁orth": 8814,
      "▁teil": 8815,
      "ordon": 8816,
      "▁sweet": 8817,
      "ommes": 8818,
      "▁efforts": 8819,
      "▁ohne": 8820,
      "▁approximately": 8821,
      "▁saving": 8822,
      "nbsp": 8823,
      "▁translate": 8824,
      "member": 8825,
      "▁laws": 8826,
      "tc": 8827,
      "elte": 8828,
      "▁ehem": 8829,
      "▁contrad": 8830,
      "quip": 8831,
      "▁chez": 8832,
      "▁permit": 8833,
      "ikel": 8834,
      "▁wir": 8835,
      "▁trial": 8836,
      "▁verschied": 8837,
      "▁male": 8838,
      "▁nyel": 8839,
      "akter": 8840,
      "▁denomin": 8841,
      "ceptor": 8842,
      "▁fino": 8843,
      "ryption": 8844,
      "desc": 8845,
      "apa": 8846,
      "▁kol": 8847,
      "▁dependent": 8848,
      "▁storm": 8849,
      "▁pipe": 8850,
      "▁attended": 8851,
      "▁vita": 8852,
      "uzione": 8853,
      "czas": 8854,
      "onda": 8855,
      "▁bold": 8856,
      "▁warm": 8857,
      "▁producer": 8858,
      "▁quien": 8859,
      "▁department": 8860,
      "▁erhielt": 8861,
      "▁ui": 8862,
      "ourt": 8863,
      "team": 8864,
      "▁zip": 8865,
      "▁growth": 8866,
      "▁jam": 8867,
      "bmatrix": 8868,
      "▁authority": 8869,
      "▁everyone": 8870,
      "▁attend": 8871,
      "▁timestamp": 8872,
      "▁tries": 8873,
      "▁ff": 8874,
      "▁developing": 8875,
      "olt": 8876,
      "ups": 8877,
      "▁momento": 8878,
      "▁celle": 8879,
      "▁locations": 8880,
      "elled": 8881,
      "selector": 8882,
      "repeat": 8883,
      "ctors": 8884,
      "otte": 8885,
      "▁achieved": 8886,
      "▁mainly": 8887,
      "▁cities": 8888,
      "single": 8889,
      "▁allowing": 8890,
      "ferred": 8891,
      "▁browsers": 8892,
      "▁escrit": 8893,
      "▁mountain": 8894,
      "▁networks": 8895,
      "kind": 8896,
      "liver": 8897,
      "▁closing": 8898,
      "▁skip": 8899,
      "▁duration": 8900,
      "▁scr": 8901,
      "▁outputs": 8902,
      "multicolumn": 8903,
      "▁belongs": 8904,
      "feature": 8905,
      "ucky": 8906,
      "▁juli": 8907,
      "factory": 8908,
      "▁utter": 8909,
      "▁obt": 8910,
      "ategories": 8911,
      "▁combine": 8912,
      "▁underlying": 8913,
      "arono": 8914,
      "stan": 8915,
      "▁optimal": 8916,
      "▁destroyed": 8917,
      "▁sole": 8918,
      "▁stores": 8919,
      "▁displays": 8920,
      "ishing": 8921,
      "▁instant": 8922,
      "▁habitantes": 8923,
      "▁ali": 8924,
      "▁ahead": 8925,
      "▁goals": 8926,
      "▁mart": 8927,
      "ropy": 8928,
      "agram": 8929,
      "hape": 8930,
      "▁connexes": 8931,
      "▁rise": 8932,
      "▁fos": 8933,
      "▁lev": 8934,
      "gabe": 8935,
      "▁broke": 8936,
      "products": 8937,
      "▁medi": 8938,
      "▁dispon": 8939,
      "▁kole": 8940,
      "▁rol": 8941,
      "bean": 8942,
      "▁sempre": 8943,
      "▁mondiale": 8944,
      "▁wrapper": 8945,
      "something": 8946,
      "uet": 8947,
      "werp": 8948,
      "round": 8949,
      "ichen": 8950,
      "▁aveva": 8951,
      "▁xs": 8952,
      "racht": 8953,
      "scar": 8954,
      "▁opera": 8955,
      "▁degrees": 8956,
      "▁citiz": 8957,
      "▁classical": 8958,
      "▁ersch": 8959,
      "▁treatment": 8960,
      "▁boost": 8961,
      "amount": 8962,
      "▁telling": 8963,
      "▁initi": 8964,
      "eval": 8965,
      "▁corre": 8966,
      "▁passes": 8967,
      "company": 8968,
      "aches": 8969,
      "▁siglo": 8970,
      "▁exchange": 8971,
      "cito": 8972,
      "▁conflict": 8973,
      "▁november": 8974,
      "eau": 8975,
      "▁poco": 8976,
      "ensa": 8977,
      "lasse": 8978,
      "datas": 8979,
      "univers": 8980,
      "eks": 8981,
      "▁chef": 8982,
      "uli": 8983,
      "▁'''": 8984,
      "napshot": 8985,
      "▁relac": 8986,
      "wt": 8987,
      "wend": 8988,
      "osing": 8989,
      "▁hacer": 8990,
      "autres": 8991,
      "▁fils": 8992,
      "ered": 8993,
      "▁therm": 8994,
      "such": 8995,
      "▁ihren": 8996,
      "▁encontr": 8997,
      "▁lots": 8998,
      "logo": 8999,
      "▁relatives": 9000,
      "▁newsp": 9001,
      "▁dual": 9002,
      "▁companies": 9003,
      "▁zam": 9004,
      "putation": 9005,
      "▁inequality": 9006,
      "▁trem": 9007,
      "hips": 9008,
      "anch": 9009,
      "▁copies": 9010,
      "dash": 9011,
      "spieler": 9012,
      "esty": 9013,
      "▁junto": 9014,
      "okal": 9015,
      "ctrine": 9016,
      "▁walls": 9017,
      "▁aute": 9018,
      "why": 9019,
      "plementation": 9020,
      "rout": 9021,
      "▁sad": 9022,
      "▁desktop": 9023,
      "ometimes": 9024,
      "▁northern": 9025,
      "anter": 9026,
      "wal": 9027,
      "online": 9028,
      "▁britann": 9029,
      "▁jar": 9030,
      "xxxx": 9031,
      "merge": 9032,
      "▁refers": 9033,
      "▁hin": 9034,
      "steller": 9035,
      "viation": 9036,
      "onio": 9037,
      "ighter": 9038,
      "▁encuentra": 9039,
      "theorem": 9040,
      "▁publi": 9041,
      "▁ros": 9042,
      "▁shr": 9043,
      "seau": 9044,
      "▁generating": 9045,
      "▁difficulty": 9046,
      "deutsch": 9047,
      "▁suggests": 9048,
      "bbi": 9049,
      "staw": 9050,
      "▁presidente": 9051,
      "▁stesso": 9052,
      "inx": 9053,
      "setup": 9054,
      "▁conform": 9055,
      "▁fro": 9056,
      "iciones": 9057,
      "▁evolution": 9058,
      "prote": 9059,
      "▁prints": 9060,
      "▁confusion": 9061,
      "▁dello": 9062,
      "▁manif": 9063,
      "mals": 9064,
      "▁sale": 9065,
      "▁dropdown": 9066,
      "▁mk": 9067,
      "docker": 9068,
      "▁horizontal": 9069,
      "proxy": 9070,
      "gency": 9071,
      "▁evaluate": 9072,
      "▁einges": 9073,
      "▁synth": 9074,
      "▁turning": 9075,
      "▁klub": 9076,
      "plorer": 9077,
      "▁sports": 9078,
      "▁sia": 9079,
      "▁dai": 9080,
      "▁europe": 9081,
      "icians": 9082,
      "▁dre": 9083,
      "▁workaround": 9084,
      "▁suit": 9085,
      "ambigu": 9086,
      "▁quantity": 9087,
      "▁segundo": 9088,
      "▁moral": 9089,
      "▁damit": 9090,
      "▁attempts": 9091,
      "▁donn": 9092,
      "jos": 9093,
      "▁ere": 9094,
      "▁homme": 9095,
      "simp": 9096,
      "rypted": 9097,
      "▁acts": 9098,
      "▁tournament": 9099,
      "▁sky": 9100,
      "▁millions": 9101,
      "agent": 9102,
      "▁ost": 9103,
      "▁gla": 9104,
      "▁lub": 9105,
      "ifik": 9106,
      "▁immer": 9107,
      "ensen": 9108,
      "anny": 9109,
      "inline": 9110,
      "▁gover": 9111,
      "auc": 9112,
      "▁repre": 9113,
      "▁historia": 9114,
      "▁plt": 9115,
      "imeter": 9116,
      "legen": 9117,
      "▁stell": 9118,
      "▁cri": 9119,
      "▁wyst": 9120,
      "▁figured": 9121,
      "lacht": 9122,
      "▁succeeded": 9123,
      "gry": 9124,
      "▁pret": 9125,
      "eh": 9126,
      "▁officiel": 9127,
      "wind": 9128,
      "▁scatter": 9129,
      "icious": 9130,
      "uper": 9131,
      "sterd": 9132,
      "between": 9133,
      "hire": 9134,
      "bably": 9135,
      "mot": 9136,
      "itecture": 9137,
      "▁coordinate": 9138,
      "▁morte": 9139,
      "▁weather": 9140,
      "▁hely": 9141,
      "▁privile": 9142,
      "atel": 9143,
      "▁recognized": 9144,
      "memory": 9145,
      "▁compilation": 9146,
      "bits": 9147,
      "▁wed": 9148,
      "▁southern": 9149,
      "▁hay": 9150,
      "lauf": 9151,
      "approx": 9152,
      "▁magazine": 9153,
      "▁clicking": 9154,
      "entr": 9155,
      "▁autre": 9156,
      "appy": 9157,
      "▁selon": 9158,
      "▁gek": 9159,
      "frastr": 9160,
      "▁facing": 9161,
      "atar": 9162,
      "▁keeps": 9163,
      "ilio": 9164,
      "▁vig": 9165,
      "▁paragraph": 9166,
      "▁interaction": 9167,
      "▁occas": 9168,
      "▁machines": 9169,
      "uries": 9170,
      "upp": 9171,
      "▁ice": 9172,
      "▁sail": 9173,
      "fico": 9174,
      "oga": 9175,
      "▁desar": 9176,
      "▁dv": 9177,
      "ohen": 9178,
      "erei": 9179,
      "▁daar": 9180,
      "ifiers": 9181,
      "▁thee": 9182,
      "▁byla": 9183,
      "andro": 9184,
      "▁totally": 9185,
      "iom": 9186,
      "▁aer": 9187,
      "nsylvan": 9188,
      "▁corps": 9189,
      "▁treated": 9190,
      "▁comune": 9191,
      "voice": 9192,
      "pgf": 9193,
      "▁anx": 9194,
      "▁ek": 9195,
      "▁dere": 9196,
      "▁permet": 9197,
      "ented": 9198,
      "▁bunch": 9199,
      "attach": 9200,
      "▁porte": 9201,
      "▁rap": 9202,
      "▁popul": 9203,
      "floor": 9204,
      "specific": 9205,
      "clean": 9206,
      "▁conqu": 9207,
      "fb": 9208,
      "▁introduce": 9209,
      "▁erfolg": 9210,
      "atol": 9211,
      "ientos": 9212,
      "eduler": 9213,
      "▁concentr": 9214,
      "▁cher": 9215,
      "▁upgrade": 9216,
      "▁pictures": 9217,
      "▁eran": 9218,
      "▁gram": 9219,
      "npm": 9220,
      "▁cd": 9221,
      "wahl": 9222,
      "train": 9223,
      "chem": 9224,
      "▁hast": 9225,
      "atta": 9226,
      "solute": 9227,
      "▁quote": 9228,
      "▁obst": 9229,
      "cciones": 9230,
      "ibly": 9231,
      "▁brand": 9232,
      "▁conversation": 9233,
      "▁toutes": 9234,
      "ienia": 9235,
      "irit": 9236,
      "eduled": 9237,
      "erem": 9238,
      "▁ski": 9239,
      "aly": 9240,
      "▁backend": 9241,
      "ulus": 9242,
      "▁featured": 9243,
      "▁personn": 9244,
      "▁schon": 9245,
      "trace": 9246,
      "▁animals": 9247,
      "▁snow": 9248,
      "uve": 9249,
      "uerto": 9250,
      "▁drew": 9251,
      "▁secondo": 9252,
      "▁accord": 9253,
      "erade": 9254,
      "▁despite": 9255,
      "▁lista": 9256,
      "nico": 9257,
      "vspace": 9258,
      "▁stands": 9259,
      "▁worse": 9260,
      "▁simult": 9261,
      "▁practical": 9262,
      "changed": 9263,
      "indo": 9264,
      "▁patterns": 9265,
      "ifica": 9266,
      "▁smart": 9267,
      "▁concerned": 9268,
      "rell": 9269,
      "▁conditional": 9270,
      "otted": 9271,
      "▁shoot": 9272,
      "aud": 9273,
      "▁ante": 9274,
      "ientras": 9275,
      "▁papers": 9276,
      "▁portug": 9277,
      "▁exercise": 9278,
      "commit": 9279,
      "▁rendering": 9280,
      "▁czas": 9281,
      "erg": 9282,
      "▁mul": 9283,
      "iero": 9284,
      "▁locale": 9285,
      "▁inaug": 9286,
      "dump": 9287,
      "▁symbols": 9288,
      "inta": 9289,
      "▁awarded": 9290,
      "▁sust": 9291,
      "zten": 9292,
      "rival": 9293,
      "imately": 9294,
      "igte": 9295,
      "▁terra": 9296,
      "▁hex": 9297,
      "done": 9298,
      "amps": 9299,
      "▁cet": 9300,
      "▁femme": 9301,
      "▁zaw": 9302,
      "spr": 9303,
      "▁horses": 9304,
      "▁snap": 9305,
      "ulle": 9306,
      "owym": 9307,
      "▁comer": 9308,
      "necess": 9309,
      "cook": 9310,
      "enger": 9311,
      "pandas": 9312,
      "yll": 9313,
      "▁terror": 9314,
      "▁crim": 9315,
      "▁zak": 9316,
      "issue": 9317,
      "panel": 9318,
      "svg": 9319,
      "▁reb": 9320,
      "switch": 9321,
      "clo": 9322,
      "atte": 9323,
      "▁anymore": 9324,
      "▁excellent": 9325,
      "▁opportunity": 9326,
      "eting": 9327,
      "▁incident": 9328,
      "tom": 9329,
      "bben": 9330,
      "router": 9331,
      "▁newly": 9332,
      "▁silence": 9333,
      "▁royal": 9334,
      "▁entfer": 9335,
      "▁hardly": 9336,
      "▁derni": 9337,
      "fish": 9338,
      "roit": 9339,
      "iley": 9340,
      "▁compreh": 9341,
      "enumerate": 9342,
      "ulas": 9343,
      "▁county": 9344,
      "▁mari": 9345,
      "▁mere": 9346,
      "▁musique": 9347,
      "also": 9348,
      "dates": 9349,
      "▁gol": 9350,
      "fony": 9351,
      "▁arrang": 9352,
      "▁osc": 9353,
      "▁secolo": 9354,
      "▁affected": 9355,
      "reb": 9356,
      "editor": 9357,
      "▁owned": 9358,
      "tl": 9359,
      "▁devient": 9360,
      "▁tegen": 9361,
      "▁caracter": 9362,
      "▁nouvelle": 9363,
      "oko": 9364,
      "ichtet": 9365,
      "▁evol": 9366,
      "▁militar": 9367,
      "▁puts": 9368,
      "endif": 9369,
      "regular": 9370,
      "ispiel": 9371,
      "▁arc": 9372,
      "▁cod": 9373,
      "▁varchar": 9374,
      "▁toujours": 9375,
      "atial": 9376,
      "▁hanno": 9377,
      "▁launched": 9378,
      "▁ton": 9379,
      "aused": 9380,
      "▁olymp": 9381,
      "▁august": 9382,
      "▁furn": 9383,
      "hora": 9384,
      "canvas": 9385,
      "▁grave": 9386,
      "▁composition": 9387,
      "acja": 9388,
      "ssh": 9389,
      "▁replacing": 9390,
      "laus": 9391,
      "eny": 9392,
      "▁marg": 9393,
      "cience": 9394,
      "▁instruction": 9395,
      "▁fundamental": 9396,
      "mund": 9397,
      "▁exceptions": 9398,
      "▁plate": 9399,
      "▁deren": 9400,
      "prep": 9401,
[...]
