{
  "version": "1.0",
  "truncation": null,
  "padding": null,
  "added_tokens": [
    {
      "id": 0,
      "content": "<unk>",
      "single_word": false,
      "lstrip": false,
      "rstrip": false,
      "normalized": false,
      "special": true
    },
    {
      "id": 1,
      "content": "<s>",
      "single_word": false,
      "lstrip": false,
      "rstrip": false,
      "normalized": false,
      "special": true
    },
    {
      "id": 2,
      "content": "</s>",
      "single_word": false,
      "lstrip": false,
      "rstrip": false,
      "normalized": false,
      "special": true
    }
  ],
  "normalizer": {
    "type": "Sequence",
    "normalizers": [
      {
        "type": "Prepend",
        "prepend": "▁"
      },
      {
        "type": "Replace",
        "pattern": {
          "String": " "
        },
        "content": "▁"
      }
    ]
  },
  "pre_tokenizer": null,
  "post_processor": {
    "type": "TemplateProcessing",
    "single": [
      {
        "SpecialToken": {
          "id": "<s>",
          "type_id": 0
        }
      },
      {
        "Sequence": {
          "id": "A",
          "type_id": 0
        }
      }
    ],
    "pair": [
      {
        "SpecialToken": {
          "id": "<s>",
          "type_id": 0
        }
      },
      {
        "Sequence": {
          "id": "A",
          "type_id": 0
        }
      },
      {
        "SpecialToken": {
          "id": "<s>",
          "type_id": 1
        }
      },
      {
        "Sequence": {
          "id": "B",
          "type_id": 1
        }
      }
    ],
    "special_tokens": {
      "<s>": {
        "id": "<s>",
        "ids": [
          1
        ],
        "tokens": [
          "<s>"
        ]
      }
    }
  },
  "decoder": {
    "type": "Sequence",
    "decoders": [
      {
        "type": "Replace",
        "pattern": {
          "String": "▁"
        },
        "content": " "
      },
      {
        "type": "ByteFallback"
      },
      {
        "type": "Fuse"
      },
      {
        "type": "Strip",
        "content": " ",
        "start": 1,
        "stop": 0
      }
    ]
  },
  "model": {
    "type": "BPE",
    "dropout": null,
    "unk_token": "<unk>",
    "continuing_subword_prefix": null,
    "end_of_word_suffix": null,
    "fuse_unk": true,
    "byte_fallback": true,
    "ignore_merges": false,
    "vocab": {
      "'": 0,
      "''": 1,
      "'''": 2,
      "',": 3,
      "','": 4,
      "'.": 5,
      "'.Q$": 6,
      "'Q\"": 7,
      "'Q$": 8,
      "'Q(": 9,
      "'Q)": 10,
      "'Q),": 11,
      "'Q).": 12,
      "'Q)Q)": 13,
      "'Q)Q)Q;": 14,
      "'Q)Q-Q>": 15,
      "'Q)Q:": 16,
      "'Q)Q;": 17,
      "'Q)Q[": 18,
      "'Q)Q`": 19,
      "'Q+": 20,
      "'Q-": 21,
      "'Q:": 22,
      "'Q:'": 23,
      "'Q;": 24,
      "'Q=Q>": 25,
      "'Q>": 26,
      "'Q\\": 27,
      "'Q]": 28,
      "'Q],": 29,
      "'Q].": 30,
      "'Q]Q)": 31,
      "'Q]Q)Q)": 32,
      "'Q]Q)Q;": 33,
      "'Q]Q;": 34,
      "'Q]Q['": 35,
      "'Q_": 36,
      "'Q`": 37,
      "'Q}": 38,
      "'Q},": 39,
      "'Q}Q[": 40,
      ",": 41,
      ",'": 42,
      ",,": 43,
      ",.": 44,
      ",...,": 45,
      ",Q\"": 46,
      ",Q$": 47,
      ",Q%": 48,
      ",Q(": 49,
      ",Q-": 50,
      ",Q-Q-": 51,
      ",Q[": 52,
      ",Q\\": 53,
      ",Q\\,": 54,
      ",Q]": 55,
      ".": 56,
      ".'": 57,
      ".,": 58,
      "..": 59,
      "...": 60,
      "...,": 61,
      "....": 62,
      ".....": 63,
      "........": 64,
      "................": 65,
      "...Q\"": 66,
      "...Q)": 67,
      "...Q]": 68,
      "..Q/": 69,
      "..Q/..Q/": 70,
      ".Q\"": 71,
      ".Q\",": 72,
      ".Q\"Q)": 73,
      ".Q\"Q)Q;": 74,
      ".Q$": 75,
      ".Q$Q$": 76,
      ".Q(": 77,
      ".Q)": 78,
      ".Q),": 79,
      ".Q).": 80,
      ".Q)Q:": 81,
      ".Q*": 82,
      ".Q*Q;": 83,
      ".Q-": 84,
      ".Q-Q-": 85,
      ".Q/": 86,
      ".Q:": 87,
      ".Q;": 88,
      ".Q<": 89,
      ".Q<Q/": 90,
      ".Q=": 91,
      ".Q@": 92,
      ".Q[": 93,
      ".Q\\": 94,
      ".Q]": 95,
      ".Q]Q(": 96,
      ".Q_": 97,
      ".Q_Q_": 98,
      ".Q`": 99,
      ".Q}": 100,
      ".Q~": 101,
      ".Q~Q\\": 102,
      "?": 103,
      "?'": 104,
      "?,": 105,
      "?.": 106,
      "??": 107,
      "???": 108,
      "?Q\"": 109,
      "?Q(": 110,
      "?Q)": 111,
      "?Q:": 112,
      "?Q>": 113,
      "?Q]Q(": 114,
      "?Q}": 115,
      "N0": 116,
      "N1": 117,
      "N2": 118,
      "N3": 119,
      "N4": 120,
      "N5": 121,
      "N6": 122,
      "N7": 123,
      "N8": 124,
      "N9": 125,
      "Q!": 126,
      "Q!'": 127,
      "Q!,": 128,
      "Q!.": 129,
      "Q!...": 130,
      "Q!Q!": 131,
      "Q!Q!Q!": 132,
      "Q!Q\"": 133,
      "Q!Q\"Q)Q;": 134,
      "Q!Q(": 135,
      "Q!Q(Q\"": 136,
      "Q!Q)": 137,
      "Q!Q-Q-": 138,
      "Q!Q/": 139,
      "Q!Q=": 140,
      "Q!Q[": 141,
      "Q!Q\\": 142,
      "Q!Q}": 143,
      "Q\"": 144,
      "Q\",": 145,
      "Q\",Q\"": 146,
      "Q\".": 147,
      "Q\".Q$": 148,
      "Q\"?": 149,
      "Q\"?Q>": 150,
      "Q\"Q\"": 151,
      "Q\"Q)": 152,
      "Q\"Q),": 153,
      "Q\"Q).": 154,
      "Q\"Q)Q)": 155,
      "Q\"Q)Q)Q;": 156,
      "Q\"Q)Q;": 157,
      "Q\"Q)Q]": 158,
      "Q\"Q)Q`": 159,
      "Q\"Q+": 160,
      "Q\"Q/": 161,
      "Q\"Q/Q>": 162,
      "Q\"Q:": 163,
      "Q\"Q:Q\"": 164,
      "Q\"Q:Q{Q\"": 165,
      "Q\"Q;": 166,
      "Q\"Q=Q>": 167,
      "Q\"Q>": 168,
      "Q\"Q>Q<": 169,
      "Q\"Q>Q<Q/": 170,
      "Q\"Q\\": 171,
      "Q\"Q]": 172,
      "Q\"Q],": 173,
      "Q\"Q].": 174,
      "Q\"Q]Q)": 175,
      "Q\"Q]Q;": 176,
      "Q\"Q`": 177,
      "Q\"Q}": 178,
      "Q\"Q},": 179,
      "Q#": 180,
      "Q#,": 181,
      "Q#Q#": 182,
      "Q#Q#Q#Q#": 183,
      "Q#Q#Q#Q#Q#Q#Q#Q#": 184,
      "Q#Q#Q#Q#Q#Q#Q#Q#Q#Q#Q#Q#Q#Q#Q#Q#": 185,
      "Q#Q{": 186,
      "Q$": 187,
      "Q$,": 188,
      "Q$.": 189,
      "Q$?": 190,
      "Q$Q$": 191,
      "Q$Q(": 192,
      "Q$Q)": 193,
      "Q$Q),": 194,
      "Q$Q).": 195,
      "Q$Q-": 196,
      "Q$Q:": 197,
      "Q$Q;": 198,
      "Q$Q\\": 199,
      "Q$Q_": 200,
      "Q$Q{": 201,
      "Q$Q}": 202,
      "Q$Q}Q;": 203,
      "Q$Q}Q}Q%": 204,
      "Q%": 205,
      "Q%'": 206,
      "Q%,": 207,
      "Q%.": 208,
      "Q%Q\"": 209,
      "Q%Q%": 210,
      "Q%Q%Q%Q%": 211,
      "Q%Q%Q%Q%Q%Q%Q%Q%": 212,
      "Q%Q)": 213,
      "Q%Q).": 214,
      "Q%Q;": 215,
      "Q%Q=": 216,
      "Q&": 217,
      "Q&Q#": 218,
      "Q&Q&": 219,
      "Q&Q=": 220,
      "Q&Q\\": 221,
      "Q(": 222,
      "Q('": 223,
      "Q(',": 224,
      "Q('.": 225,
      "Q('Q#": 226,
      "Q('Q/": 227,
      "Q('Q\\": 228,
      "Q(.": 229,
      "Q(...": 230,
      "Q(...Q)": 231,
      "Q(.Q*": 232,
      "Q(?": 233,
      "Q(Q!": 234,
      "Q(Q\"": 235,
      "Q(Q\",": 236,
      "Q(Q\".": 237,
      "Q(Q\"Q#": 238,
      "Q(Q\"Q%": 239,
      "Q(Q\"Q/": 240,
      "Q(Q\"Q<": 241,
      "Q(Q\"Q@": 242,
      "Q(Q\"Q\\": 243,
      "Q(Q$": 244,
      "Q(Q$Q(": 245,
      "Q(Q$Q_": 246,
      "Q(Q%": 247,
      "Q(Q&": 248,
      "Q(Q(": 249,
      "Q(Q(Q)": 250,
      "Q(Q)": 251,
      "Q(Q),": 252,
      "Q(Q).": 253,
      "Q(Q)Q\"": 254,
      "Q(Q)Q)": 255,
      "Q(Q)Q),": 256,
      "Q(Q)Q).": 257,
      "Q(Q)Q)Q)": 258,
      "Q(Q)Q)Q)Q;": 259,
      "Q(Q)Q)Q;": 260,
      "Q(Q)Q-Q>": 261,
      "Q(Q)Q:": 262,
      "Q(Q)Q;": 263,
      "Q(Q)Q;Q`": 264,
      "Q(Q)Q`": 265,
      "Q(Q)Q`,": 266,
      "Q(Q)Q`.": 267,
      "Q(Q)Q`Q]Q(": 268,
      "Q(Q)Q{": 269,
      "Q(Q)Q}": 270,
      "Q(Q*": 271,
      "Q(Q*Q)": 272,
      "Q(Q-": 273,
      "Q(Q/": 274,
      "Q(Q:": 275,
      "Q(Q@": 276,
      "Q(Q@Q\"": 277,
      "Q(Q[": 278,
      "Q(Q['": 279,
      "Q(Q\\": 280,
      "Q(Q_": 281,
      "Q(Q_Q_": 282,
      "Q(Q`": 283,
      "Q(Q{": 284,
      "Q(Q{Q\\": 285,
      "Q(Q|": 286,
      "Q)": 287,
      "Q)'": 288,
      "Q),": 289,
      "Q),Q(": 290,
      "Q),Q\\": 291,
      "Q).": 292,
      "Q)..": 293,
      "Q)?": 294,
      "Q)Q!": 295,
      "Q)Q\"": 296,
      "Q)Q\",": 297,
      "Q)Q\"Q)": 298,
      "Q)Q$": 299,
      "Q)Q$,": 300,
      "Q)Q$.": 301,
      "Q)Q$Q$": 302,
      "Q)Q$Q-": 303,
      "Q)Q&": 304,
      "Q)Q(": 305,
      "Q)Q)": 306,
      "Q)Q),": 307,
      "Q)Q).": 308,
      "Q)Q)Q$": 309,
      "Q)Q)Q)": 310,
      "Q)Q)Q)Q)": 311,
      "Q)Q)Q)Q;": 312,
      "Q)Q)Q:": 313,
      "Q)Q)Q;": 314,
      "Q)Q)Q\\": 315,
      "Q)Q)Q]": 316,
      "Q)Q)Q`": 317,
      "Q)Q)Q{": 318,
      "Q)Q*": 319,
      "Q)Q+": 320,
      "Q)Q+Q\\": 321,
      "Q)Q-": 322,
      "Q)Q-Q-": 323,
      "Q)Q-Q-Q(": 324,
      "Q)Q-Q>": 325,
      "Q)Q-Q\\": 326,
      "Q)Q/": 327,
      "Q)Q:": 328,
      "Q)Q;": 329,
      "Q)Q;Q`": 330,
      "Q)Q=": 331,
      "Q)Q=Q\\": 332,
      "Q)Q>": 333,
      "Q)Q[": 334,
      "Q)Q\\": 335,
      "Q)Q\\,": 336,
      "Q)Q\\Q)": 337,
      "Q)Q\\Q\\": 338,
      "Q)Q]": 339,
      "Q)Q]Q(": 340,
      "Q)Q]Q;": 341,
      "Q)Q^": 342,
      "Q)Q^Q{": 343,
      "Q)Q^Q{Q-": 344,
      "Q)Q^Q{Q\\": 345,
      "Q)Q_": 346,
      "Q)Q_Q{": 347,
      "Q)Q`": 348,
      "Q)Q`,": 349,
      "Q)Q`.": 350,
      "Q)Q{": 351,
      "Q)Q{Q\\": 352,
      "Q)Q|": 353,
      "Q)Q}": 354,
      "Q)Q},": 355,
      "Q)Q}.": 356,
      "Q)Q}Q$": 357,
      "Q)Q}Q(": 358,
      "Q)Q}Q)": 359,
      "Q)Q}Q\\": 360,
      "Q)Q}Q{": 361,
      "Q)Q}Q{Q\\": 362,
      "Q)Q}Q}": 363,
      "Q*": 364,
      "Q*,": 365,
      "Q*.": 366,
      "Q*Q\"": 367,
      "Q*Q$": 368,
      "Q*Q(": 369,
      "Q*Q)": 370,
      "Q*Q*": 371,
      "Q*Q*Q*": 372,
      "Q*Q*Q*Q*": 373,
      "Q*Q*Q*Q*Q*Q*Q*Q*": 374,
      "Q*Q*Q*Q*Q*Q*Q*Q*Q*Q*Q*Q*Q*Q*Q*Q*": 375,
      "Q*Q/": 376,
      "Q*Q\\": 377,
      "Q*Q`": 378,
      "Q*Q{": 379,
      "Q*Q}": 380,
      "Q+": 381,
      "Q+'": 382,
      "Q+Q\"": 383,
      "Q+Q$": 384,
      "Q+Q(": 385,
      "Q+Q)": 386,
      "Q+Q+": 387,
      "Q+Q+,": 388,
      "Q+Q+Q)": 389,
      "Q+Q+Q)Q{": 390,
      "Q+Q+Q;": 391,
      "Q+Q=": 392,
      "Q+Q\\": 393,
      "Q-": 394,
      "Q-,": 395,
      "Q-.": 396,
      "Q-Q$": 397,
      "Q-Q%": 398,
      "Q-Q(": 399,
      "Q-Q)": 400,
      "Q-Q+": 401,
      "Q-Q-": 402,
      "Q-Q-Q\"": 403,
      "Q-Q-Q+": 404,
      "Q-Q-Q-": 405,
      "Q-Q-Q-Q+": 406,
      "Q-Q-Q-Q-": 407,
      "Q-Q-Q-Q-Q+": 408,
      "Q-Q-Q-Q-Q-": 409,
      "Q-Q-Q-Q-Q-Q-": 410,
      "Q-Q-Q-Q-Q-Q-Q+": 411,
      "Q-Q-Q-Q-Q-Q-Q-": 412,
      "Q-Q-Q-Q-Q-Q-Q-Q-": 413,
      "Q-Q-Q-Q-Q-Q-Q-Q-Q-Q+": 414,
      "Q-Q-Q-Q-Q-Q-Q-Q-Q-Q-": 415,
      "Q-Q-Q-Q-Q-Q-Q-Q-Q-Q-Q-Q-": 416,
      "Q-Q-Q-Q-Q-Q-Q-Q-Q-Q-Q-Q-Q-Q-Q-Q-": 417,
      "Q-Q-Q>": 418,
      "Q-Q>": 419,
      "Q-Q>Q_": 420,
      "Q-Q>Q{": 421,
      "Q-Q\\": 422,
      "Q-Q}": 423,
      "Q/": 424,
      "Q/'": 425,
      "Q/,": 426,
      "Q/.": 427,
      "Q/?": 428,
      "Q/Q\"": 429,
      "Q/Q#": 430,
      "Q/Q$": 431,
      "Q/Q%": 432,
      "Q/Q(": 433,
      "Q/Q)": 434,
      "Q/Q),": 435,
      "Q/Q).": 436,
      "Q/Q*": 437,
      "Q/Q*Q*": 438,
      "Q/Q-": 439,
      "Q/Q/": 440,
      "Q/Q/Q/": 441,
      "Q/Q/Q/Q/": 442,
      "Q/Q/Q/Q/Q/Q/Q/Q/": 443,
      "Q/Q/Q/Q/Q/Q/Q/Q/Q/Q/Q/Q/Q/Q/Q/Q/": 444,
      "Q/Q:": 445,
      "Q/Q>": 446,
      "Q/Q@": 447,
      "Q/Q\\": 448,
      "Q/Q_": 449,
      "Q/Q`": 450,
      "Q/Q{": 451,
      "Q/Q~": 452,
      "Q:": 453,
      "Q:'": 454,
      "Q:Q\"": 455,
      "Q:Q#": 456,
      "Q:Q$": 457,
      "Q:Q%": 458,
      "Q:Q(": 459,
      "Q:Q)": 460,
      "Q:Q-": 461,
      "Q:Q-Q-": 462,
      "Q:Q/": 463,
      "Q:Q/Q/": 464,
      "Q:Q:": 465,
      "Q:Q=": 466,
      "Q:Q@": 467,
      "Q:Q@Q\"": 468,
      "Q:Q[": 469,
      "Q:Q\\": 470,
      "Q:Q\\Q\\": 471,
      "Q:Q]": 472,
      "Q:Q`": 473,
      "Q:Q{": 474,
      "Q:Q}": 475,
      "Q;": 476,
      "Q;Q\"": 477,
      "Q;Q\"Q>": 478,
      "Q;Q&": 479,
      "Q;Q;": 480,
      "Q;Q;Q;Q;": 481,
      "Q;Q<Q/": 482,
      "Q;Q\\": 483,
      "Q;Q`": 484,
      "Q;Q}": 485,
      "Q<": 486,
      "Q<'": 487,
      "Q<?": 488,
      "Q<N0xN0N0Q>": 489,
      "Q<N0xN0N1Q>": 490,
      "Q<N0xN0N2Q>": 491,
      "Q<N0xN0N3Q>": 492,
      "Q<N0xN0N4Q>": 493,
      "Q<N0xN0N5Q>": 494,
      "Q<N0xN0N6Q>": 495,
      "Q<N0xN0N7Q>": 496,
      "Q<N0xN0N8Q>": 497,
      "Q<N0xN0N9Q>": 498,
      "Q<N0xN0UaQ>": 499,
      "Q<N0xN0UbQ>": 500,
      "Q<N0xN0UcQ>": 501,
      "Q<N0xN0UdQ>": 502,
      "Q<N0xN0UeQ>": 503,
      "Q<N0xN0UfQ>": 504,
      "Q<N0xN1N0Q>": 505,
      "Q<N0xN1N1Q>": 506,
      "Q<N0xN1N2Q>": 507,
      "Q<N0xN1N3Q>": 508,
      "Q<N0xN1N4Q>": 509,
      "Q<N0xN1N5Q>": 510,
      "Q<N0xN1N6Q>": 511,
      "Q<N0xN1N7Q>": 512,
      "Q<N0xN1N8Q>": 513,
      "Q<N0xN1N9Q>": 514,
      "Q<N0xN1UaQ>": 515,
      "Q<N0xN1UbQ>": 516,
      "Q<N0xN1UcQ>": 517,
      "Q<N0xN1UdQ>": 518,
      "Q<N0xN1UeQ>": 519,
      "Q<N0xN1UfQ>": 520,
      "Q<N0xN2N0Q>": 521,
      "Q<N0xN2N1Q>": 522,
      "Q<N0xN2N2Q>": 523,
      "Q<N0xN2N3Q>": 524,
      "Q<N0xN2N4Q>": 525,
      "Q<N0xN2N5Q>": 526,
      "Q<N0xN2N6Q>": 527,
      "Q<N0xN2N7Q>": 528,
      "Q<N0xN2N8Q>": 529,
      "Q<N0xN2N9Q>": 530,
      "Q<N0xN2UaQ>": 531,
      "Q<N0xN2UbQ>": 532,
      "Q<N0xN2UcQ>": 533,
      "Q<N0xN2UdQ>": 534,
      "Q<N0xN2UeQ>": 535,
      "Q<N0xN2UfQ>": 536,
      "Q<N0xN3N0Q>": 537,
      "Q<N0xN3N1Q>": 538,
      "Q<N0xN3N2Q>": 539,
      "Q<N0xN3N3Q>": 540,
      "Q<N0xN3N4Q>": 541,
      "Q<N0xN3N5Q>": 542,
      "Q<N0xN3N6Q>": 543,
      "Q<N0xN3N7Q>": 544,
      "Q<N0xN3N8Q>": 545,
      "Q<N0xN3N9Q>": 546,
      "Q<N0xN3UaQ>": 547,
      "Q<N0xN3UbQ>": 548,
      "Q<N0xN3UcQ>": 549,
      "Q<N0xN3UdQ>": 550,
      "Q<N0xN3UeQ>": 551,
      "Q<N0xN3UfQ>": 552,
      "Q<N0xN4N0Q>": 553,
      "Q<N0xN4N1Q>": 554,
      "Q<N0xN4N2Q>": 555,
      "Q<N0xN4N3Q>": 556,
      "Q<N0xN4N4Q>": 557,
      "Q<N0xN4N5Q>": 558,
      "Q<N0xN4N6Q>": 559,
      "Q<N0xN4N7Q>": 560,
      "Q<N0xN4N8Q>": 561,
      "Q<N0xN4N9Q>": 562,
      "Q<N0xN4UaQ>": 563,
      "Q<N0xN4UbQ>": 564,
      "Q<N0xN4UcQ>": 565,
      "Q<N0xN4UdQ>": 566,
      "Q<N0xN4UeQ>": 567,
      "Q<N0xN4UfQ>": 568,
      "Q<N0xN5N0Q>": 569,
      "Q<N0xN5N1Q>": 570,
      "Q<N0xN5N2Q>": 571,
      "Q<N0xN5N3Q>": 572,
      "Q<N0xN5N4Q>": 573,
      "Q<N0xN5N5Q>": 574,
      "Q<N0xN5N6Q>": 575,
      "Q<N0xN5N7Q>": 576,
      "Q<N0xN5N8Q>": 577,
      "Q<N0xN5N9Q>": 578,
      "Q<N0xN5UaQ>": 579,
      "Q<N0xN5UbQ>": 580,
      "Q<N0xN5UcQ>": 581,
      "Q<N0xN5UdQ>": 582,
      "Q<N0xN5UeQ>": 583,
      "Q<N0xN5UfQ>": 584,
      "Q<N0xN6N0Q>": 585,
      "Q<N0xN6N1Q>": 586,
      "Q<N0xN6N2Q>": 587,
      "Q<N0xN6N3Q>": 588,
      "Q<N0xN6N4Q>": 589,
      "Q<N0xN6N5Q>": 590,
      "Q<N0xN6N6Q>": 591,
      "Q<N0xN6N7Q>": 592,
      "Q<N0xN6N8Q>": 593,
      "Q<N0xN6N9Q>": 594,
      "Q<N0xN6UaQ>": 595,
      "Q<N0xN6UbQ>": 596,
      "Q<N0xN6UcQ>": 597,
      "Q<N0xN6UdQ>": 598,
      "Q<N0xN6UeQ>": 599,
      "Q<N0xN6UfQ>": 600,
      "Q<N0xN7N0Q>": 601,
      "Q<N0xN7N1Q>": 602,
      "Q<N0xN7N2Q>": 603,
      "Q<N0xN7N3Q>": 604,
      "Q<N0xN7N4Q>": 605,
      "Q<N0xN7N5Q>": 606,
      "Q<N0xN7N6Q>": 607,
      "Q<N0xN7N7Q>": 608,
      "Q<N0xN7N8Q>": 609,
      "Q<N0xN7N9Q>": 610,
      "Q<N0xN7UaQ>": 611,
      "Q<N0xN7UbQ>": 612,
      "Q<N0xN7UcQ>": 613,
      "Q<N0xN7UdQ>": 614,
      "Q<N0xN7UeQ>": 615,
      "Q<N0xN7UfQ>": 616,
      "Q<N0xN8N0Q>": 617,
      "Q<N0xN8N1Q>": 618,
      "Q<N0xN8N2Q>": 619,
      "Q<N0xN8N3Q>": 620,
      "Q<N0xN8N4Q>": 621,
      "Q<N0xN8N5Q>": 622,
      "Q<N0xN8N6Q>": 623,
      "Q<N0xN8N7Q>": 624,
      "Q<N0xN8N8Q>": 625,
      "Q<N0xN8N9Q>": 626,
      "Q<N0xN8UaQ>": 627,
      "Q<N0xN8UbQ>": 628,
      "Q<N0xN8UcQ>": 629,
      "Q<N0xN8UdQ>": 630,
      "Q<N0xN8UeQ>": 631,
      "Q<N0xN8UfQ>": 632,
      "Q<N0xN9N0Q>": 633,
      "Q<N0xN9N1Q>": 634,
      "Q<N0xN9N2Q>": 635,
      "Q<N0xN9N3Q>": 636,
      "Q<N0xN9N4Q>": 637,
      "Q<N0xN9N5Q>": 638,
      "Q<N0xN9N6Q>": 639,
      "Q<N0xN9N7Q>": 640,
      "Q<N0xN9N8Q>": 641,
      "Q<N0xN9N9Q>": 642,
      "Q<N0xN9UaQ>": 643,
      "Q<N0xN9UbQ>": 644,
      "Q<N0xN9UcQ>": 645,
      "Q<N0xN9UdQ>": 646,
      "Q<N0xN9UeQ>": 647,
      "Q<N0xN9UfQ>": 648,
      "Q<N0xUaN0Q>": 649,
      "Q<N0xUaN1Q>": 650,
      "Q<N0xUaN2Q>": 651,
      "Q<N0xUaN3Q>": 652,
      "Q<N0xUaN4Q>": 653,
      "Q<N0xUaN5Q>": 654,
      "Q<N0xUaN6Q>": 655,
      "Q<N0xUaN7Q>": 656,
      "Q<N0xUaN8Q>": 657,
      "Q<N0xUaN9Q>": 658,
      "Q<N0xUaUaQ>": 659,
      "Q<N0xUaUbQ>": 660,
      "Q<N0xUaUcQ>": 661,
      "Q<N0xUaUdQ>": 662,
      "Q<N0xUaUeQ>": 663,
      "Q<N0xUaUfQ>": 664,
      "Q<N0xUbN0Q>": 665,
      "Q<N0xUbN1Q>": 666,
      "Q<N0xUbN2Q>": 667,
      "Q<N0xUbN3Q>": 668,
      "Q<N0xUbN4Q>": 669,
      "Q<N0xUbN5Q>": 670,
      "Q<N0xUbN6Q>": 671,
      "Q<N0xUbN7Q>": 672,
      "Q<N0xUbN8Q>": 673,
      "Q<N0xUbN9Q>": 674,
      "Q<N0xUbUaQ>": 675,
      "Q<N0xUbUbQ>": 676,
      "Q<N0xUbUcQ>": 677,
      "Q<N0xUbUdQ>": 678,
      "Q<N0xUbUeQ>": 679,
      "Q<N0xUbUfQ>": 680,
      "Q<N0xUcN0Q>": 681,
      "Q<N0xUcN1Q>": 682,
      "Q<N0xUcN2Q>": 683,
      "Q<N0xUcN3Q>": 684,
      "Q<N0xUcN4Q>": 685,
      "Q<N0xUcN5Q>": 686,
      "Q<N0xUcN6Q>": 687,
      "Q<N0xUcN7Q>": 688,
      "Q<N0xUcN8Q>": 689,
      "Q<N0xUcN9Q>": 690,
      "Q<N0xUcUaQ>": 691,
      "Q<N0xUcUbQ>": 692,
      "Q<N0xUcUcQ>": 693,
      "Q<N0xUcUdQ>": 694,
      "Q<N0xUcUeQ>": 695,
      "Q<N0xUcUfQ>": 696,
      "Q<N0xUdN0Q>": 697,
      "Q<N0xUdN1Q>": 698,
      "Q<N0xUdN2Q>": 699,
      "Q<N0xUdN3Q>": 700,
      "Q<N0xUdN4Q>": 701,
      "Q<N0xUdN5Q>": 702,
      "Q<N0xUdN6Q>": 703,
      "Q<N0xUdN7Q>": 704,
      "Q<N0xUdN8Q>": 705,
      "Q<N0xUdN9Q>": 706,
      "Q<N0xUdUaQ>": 707,
      "Q<N0xUdUbQ>": 708,
      "Q<N0xUdUcQ>": 709,
      "Q<N0xUdUdQ>": 710,
      "Q<N0xUdUeQ>": 711,
      "Q<N0xUdUfQ>": 712,
      "Q<N0xUeN0Q>": 713,
      "Q<N0xUeN1Q>": 714,
      "Q<N0xUeN2Q>": 715,
      "Q<N0xUeN3Q>": 716,
      "Q<N0xUeN4Q>": 717,
      "Q<N0xUeN5Q>": 718,
      "Q<N0xUeN6Q>": 719,
      "Q<N0xUeN7Q>": 720,
      "Q<N0xUeN8Q>": 721,
      "Q<N0xUeN9Q>": 722,
      "Q<N0xUeUaQ>": 723,
      "Q<N0xUeUbQ>": 724,
      "Q<N0xUeUcQ>": 725,
      "Q<N0xUeUdQ>": 726,
      "Q<N0xUeUeQ>": 727,
      "Q<N0xUeUfQ>": 728,
      "Q<N0xUfN0Q>": 729,
      "Q<N0xUfN1Q>": 730,
      "Q<N0xUfN2Q>": 731,
      "Q<N0xUfN3Q>": 732,
      "Q<N0xUfN4Q>": 733,
      "Q<N0xUfN5Q>": 734,
      "Q<N0xUfN6Q>": 735,
      "Q<N0xUfN7Q>": 736,
      "Q<N0xUfN8Q>": 737,
      "Q<N0xUfN9Q>": 738,
      "Q<N0xUfUaQ>": 739,
      "Q<N0xUfUbQ>": 740,
      "Q<N0xUfUcQ>": 741,
      "Q<N0xUfUdQ>": 742,
      "Q<N0xUfUeQ>": 743,
      "Q<N0xUfUfQ>": 744,
      "Q<Q!Q-Q-": 745,
      "Q<Q%Q=": 746,
      "Q<Q-": 747,
      "Q<Q/": 748,
      "Q<Q/sQ>": 749,
      "Q<Q<": 750,
      "Q<Q=": 751,
      "Q<Q>": 752,
      "Q<Q>Q(Q)Q;": 753,
      "Q<Q\\": 754,
      "Q<sQ>": 755,
      "Q<unkQ>": 756,
      "Q=": 757,
      "Q='": 758,
      "Q=.": 759,
      "Q=Q\"": 760,
      "Q=Q\".": 761,
      "Q=Q\"Q\"": 762,
      "Q=Q\"Q#": 763,
      "Q=Q\"Q$": 764,
      "Q=Q\"Q$Q{": 765,
      "Q=Q\"Q/": 766,
      "Q=Q\"Q<?": 767,
      "Q=Q\"Q@": 768,
      "Q=Q\"Q@Q+": 769,
      "Q=Q\"Q{": 770,
      "Q=Q$": 771,
      "Q=Q$Q(": 772,
      "Q=Q$Q{": 773,
      "Q=Q%": 774,
      "Q=Q&": 775,
      "Q=Q(": 776,
      "Q=Q-": 777,
      "Q=Q/": 778,
      "Q=Q=": 779,
      "Q=Q=Q\"": 780,
      "Q=Q=Q=": 781,
      "Q=Q=Q=Q=": 782,
      "Q=Q=Q=Q=Q=Q=Q=Q=": 783,
      "Q=Q=Q=Q=Q=Q=Q=Q=Q=Q=Q=Q=Q=Q=Q=Q=": 784,
      "Q=Q>": 785,
      "Q=Q[": 786,
      "Q=Q\\": 787,
      "Q=Q\\Q\"": 788,
      "Q=Q\\Q{": 789,
      "Q=Q`": 790,
      "Q=Q{": 791,
      "Q=Q{Q\\": 792,
      "Q=Q{Q{": 793,
      "Q>": 794,
      "Q>'": 795,
      "Q>'Q;": 796,
      "Q>,": 797,
      "Q>.": 798,
      "Q>Q\"": 799,
      "Q>Q\",": 800,
      "Q>Q\"Q;": 801,
      "Q>Q&": 802,
      "Q>Q(": 803,
      "Q>Q(Q)": 804,
      "Q>Q(Q)Q;": 805,
      "Q>Q)": 806,
      "Q>Q/": 807,
      "Q>Q:": 808,
      "Q>Q:Q:": 809,
      "Q>Q;": 810,
      "Q>Q<": 811,
      "Q>Q<Q/": 812,
      "Q>Q=": 813,
      "Q>Q>": 814,
      "Q>Q[": 815,
      "Q>Q\\": 816,
      "Q>Q\\Q<": 817,
      "Q>Q\\Q<Q^": 818,
      "Q>Q`": 819,
      "Q>Q{": 820,
      "Q@": 821,
      "Q@Q\"": 822,
      "Q@Q\",": 823,
      "Q@Q@": 824,
      "Q@Q{": 825,
      "Q[": 826,
      "Q['": 827,
      "Q[,": 828,
      "Q[Q\"": 829,
      "Q[Q$": 830,
      "Q[Q(": 831,
      "Q[Q-": 832,
      "Q[Q:": 833,
      "Q[Q@": 834,
      "Q[Q[": 835,
      "Q[Q\\": 836,
      "Q[Q]": 837,
      "Q[Q]Q)": 838,
      "Q[Q]Q{": 839,
      "Q[Q^": 840,
      "Q[Q_": 841,
      "Q[Q{": 842,
      "Q\\": 843,
      "Q\\'": 844,
      "Q\\,": 845,
      "Q\\,Q\\": 846,
      "Q\\.": 847,
      "Q\\Q\"": 848,
      "Q\\Q\",": 849,
      "Q\\Q\"Q:": 850,
      "Q\\Q%": 851,
      "Q\\Q)": 852,
      "Q\\Q).": 853,
      "Q\\Q/": 854,
      "Q\\Q;": 855,
      "Q\\Q<": 856,
      "Q\\Q<Q^": 857,
      "Q\\Q\\": 858,
      "Q\\Q]": 859,
      "Q\\Q_": 860,
      "Q\\Q{": 861,
      "Q\\Q{Q\\": 862,
      "Q\\Q|": 863,
      "Q\\Q|Q_Q{": 864,
      "Q\\Q}": 865,
      "Q\\Q}Q$": 866,
      "Q\\Q}Q$,": 867,
      "Q\\Q}Q$.": 868,
      "Q\\Q}Q\\": 869,
      "Q]": 870,
      "Q],": 871,
      "Q],Q[": 872,
      "Q].": 873,
      "Q].Q[": 874,
      "Q]Q\"": 875,
      "Q]Q$": 876,
      "Q]Q$,": 877,
      "Q]Q$.": 878,
      "Q]Q(": 879,
      "Q]Q(Q#": 880,
      "Q]Q(Q#Q)": 881,
      "Q]Q(Q/": 882,
      "Q]Q)": 883,
      "Q]Q),": 884,
      "Q]Q).": 885,
      "Q]Q)Q)": 886,
      "Q]Q)Q;": 887,
      "Q]Q*": 888,
      "Q]Q+": 889,
      "Q]Q-Q>": 890,
      "Q]Q/": 891,
      "Q]Q:": 892,
      "Q]Q;": 893,
      "Q]Q=": 894,
      "Q]Q=Q\"": 895,
      "Q]Q[": 896,
      "Q]Q['": 897,
      "Q]Q\\": 898,
      "Q]Q]": 899,
      "Q]Q],": 900,
      "Q]Q]Q)": 901,
      "Q]Q]Q;": 902,
      "Q]Q_": 903,
      "Q]Q`": 904,
      "Q]Q`.": 905,
      "Q]Q{": 906,
      "Q]Q{'": 907,
      "Q]Q{Q\\": 908,
      "Q]Q}": 909,
      "Q^": 910,
      "Q^Q(": 911,
      "Q^Q*": 912,
      "Q^Q+": 913,
      "Q^Q-": 914,
      "Q^Q\\": 915,
      "Q^Q^": 916,
      "Q^Q{": 917,
      "Q^Q{Q(": 918,
      "Q^Q{Q+": 919,
      "Q^Q{Q-": 920,
      "Q^Q{Q-Q\\": 921,
      "Q^Q{Q\\": 922,
      "Q_": 923,
      "Q_,": 924,
      "Q_.": 925,
      "Q_Q\"": 926,
      "Q_Q(": 927,
      "Q_Q)": 928,
      "Q_Q*": 929,
      "Q_Q+": 930,
      "Q_Q;": 931,
      "Q_Q\\": 932,
      "Q_Q_": 933,
      "Q_Q_.": 934,
      "Q_Q_Q(": 935,
      "Q_Q_Q_": 936,
      "Q_Q_Q_Q_": 937,
      "Q_Q_Q_Q_Q_Q_Q_Q_": 938,
      "Q_Q_Q_Q_Q_Q_Q_Q_Q_Q_Q_Q_Q_Q_Q_Q_": 939,
      "Q_Q{": 940,
      "Q_Q{Q(": 941,
      "Q_Q{Q-": 942,
      "Q_Q{Q\\": 943,
      "Q_Q{Q{Q\\": 944,
      "Q`": 945,
      "Q`'": 946,
      "Q`,": 947,
      "Q`.": 948,
      "Q`.Q`": 949,
      "Q`?": 950,
      "Q`Q)": 951,
      "Q`Q),": 952,
      "Q`Q).": 953,
      "Q`Q-": 954,
      "Q`Q:": 955,
      "Q`Q;": 956,
      "Q`Q]Q(": 957,
      "Q`Q`": 958,
      "Q`Q`Q`": 959,
      "Q`Q}": 960,
      "Q{": 961,
      "Q{'": 962,
      "Q{.": 963,
      "Q{Q\"": 964,
      "Q{Q#": 965,
      "Q{Q$": 966,
      "Q{Q$Q\\": 967,
      "Q{Q%": 968,
      "Q{Q(": 969,
      "Q{Q-": 970,
      "Q{Q:": 971,
      "Q{Q[": 972,
      "Q{Q\\": 973,
      "Q{Q`": 974,
      "Q{Q{": 975,
      "Q{Q{Q\\": 976,
      "Q{Q|": 977,
      "Q{Q}": 978,
      "Q|": 979,
      "Q|Q$": 980,
      "Q|Q\\": 981,
      "Q|Q^": 982,
      "Q|Q_Q{": 983,
      "Q|Q|": 984,
      "Q|Q}Q{": 985,
      "Q}": 986,
      "Q}'": 987,
      "Q},": 988,
      "Q},Q\\": 989,
      "Q},Q{": 990,
      "Q}.": 991,
      "Q}Q\"": 992,
      "Q}Q\",": 993,
      "Q}Q\"Q)": 994,
      "Q}Q$": 995,
      "Q}Q$,": 996,
      "Q}Q$.": 997,
      "Q}Q$Q$": 998,
      "Q}Q$Q-": 999,
      "Q}Q%": 1000,
      "Q}Q&": 1001,
      "Q}Q(": 1002,
      "Q}Q(Q\\": 1003,
      "Q}Q)": 1004,
      "Q}Q),": 1005,
      "Q}Q).": 1006,
      "Q}Q)Q$": 1007,
      "Q}Q)Q$,": 1008,
      "Q}Q)Q$.": 1009,
      "Q}Q)Q)": 1010,
      "Q}Q)Q;": 1011,
      "Q}Q)Q\\": 1012,
      "Q}Q)Q^": 1013,
      "Q}Q+": 1014,
      "Q}Q+Q\\": 1015,
      "Q}Q-": 1016,
      "Q}Q-Q\\": 1017,
      "Q}Q/": 1018,
      "Q}Q:": 1019,
      "Q}Q;": 1020,
      "Q}Q<Q/": 1021,
      "Q}Q=": 1022,
      "Q}Q=Q\\": 1023,
      "Q}Q>": 1024,
      "Q}Q[": 1025,
      "Q}Q\\": 1026,
      "Q}Q\\,": 1027,
      "Q}Q\\,Q\\": 1028,
      "Q}Q\\Q)": 1029,
      "Q}Q\\Q\\": 1030,
      "Q}Q]": 1031,
      "Q}Q]Q(": 1032,
      "Q}Q^": 1033,
      "Q}Q^Q\\": 1034,
      "Q}Q^Q{": 1035,
      "Q}Q^Q{Q(": 1036,
      "Q}Q^Q{Q-": 1037,
      "Q}Q^Q{Q\\": 1038,
      "Q}Q_": 1039,
      "Q}Q_Q\\": 1040,
      "Q}Q_Q{": 1041,
      "Q}Q_Q{Q\\": 1042,
      "Q}Q`": 1043,
      "Q}Q{": 1044,
      "Q}Q{Q(": 1045,
      "Q}Q{Q\\": 1046,
      "Q}Q{Q|": 1047,
      "Q}Q|": 1048,
      "Q}Q}": 1049,
      "Q}Q},": 1050,
      "Q}Q}.": 1051,
      "Q}Q}Q$": 1052,
      "Q}Q}Q$,": 1053,
      "Q}Q}Q$.": 1054,
      "Q}Q}Q%": 1055,
      "Q}Q}Q(": 1056,
      "Q}Q}Q(Q\\": 1057,
      "Q}Q}Q)": 1058,
      "Q}Q}Q=": 1059,
      "Q}Q}Q\\": 1060,
      "Q}Q}Q^": 1061,
      "Q}Q}Q^Q{": 1062,
      "Q}Q}Q_": 1063,
      "Q}Q}Q_Q{": 1064,
      "Q}Q}Q_Q{Q\\": 1065,
      "Q}Q}Q{": 1066,
      "Q}Q}Q{Q\\": 1067,
      "Q}Q}Q}": 1068,
      "Q}Q}Q}Q\\": 1069,
      "Q~": 1070,
      "Q~Q$": 1071,
      "Q~Q$Q\\": 1072,
      "Q~Q/": 1073,
      "Q~Q\\": 1074,
      "Q~Q~": 1075,
      "Q~Q~Q~Q~": 1076,
      "Q~Q~Q~Q~Q~Q~Q~Q~": 1077,
      "S": 1078,
      "S'": 1079,
      "S''": 1080,
      "S'''": 1081,
      "S'',": 1082,
      "S''Q)": 1083,
      "S''Q;": 1084,
      "S',": 1085,
      "S'.": 1086,
      "S'.Q/": 1087,
      "S'Q\"": 1088,
      "S'Q#": 1089,
      "S'Q$": 1090,
      "S'Q%": 1091,
      "S'Q)": 1092,
      "S'Q-": 1093,
      "S'Q/": 1094,
      "S'Q;": 1095,
      "S'Q<": 1096,
      "S'Q@": 1097,
      "S'Q\\": 1098,
      "S'Q_": 1099,
      "S'Q{": 1100,
      "S,": 1101,
      "S.": 1102,
      "S..": 1103,
      "S...": 1104,
      "S....": 1105,
      "S...Q)": 1106,
      "S..Q/": 1107,
      "S.Q/": 1108,
      "S.Q=": 1109,
      "S?": 1110,
      "S??": 1111,
      "S?Q>": 1112,
      "SQ!": 1113,
      "SQ!Q!": 1114,
      "SQ!Q=": 1115,
      "SQ!Q=Q=": 1116,
      "SQ\"": 1117,
      "SQ\"'": 1118,
      "SQ\",": 1119,
      "SQ\",Q\"": 1120,
      "SQ\".": 1121,
      "SQ\"...": 1122,
      "SQ\"Q\"": 1123,
      "SQ\"Q\",": 1124,
      "SQ\"Q\"Q\"": 1125,
      "SQ\"Q\"Q)": 1126,
      "SQ\"Q\"Q;": 1127,
      "SQ\"Q#": 1128,
      "SQ\"Q$": 1129,
      "SQ\"Q$Q{": 1130,
      "SQ\"Q%": 1131,
      "SQ\"Q(": 1132,
      "SQ\"Q)": 1133,
      "SQ\"Q)Q;": 1134,
      "SQ\"Q*": 1135,
      "SQ\"Q+": 1136,
      "SQ\"Q-": 1137,
      "SQ\"Q/": 1138,
      "SQ\"Q:": 1139,
      "SQ\"Q;": 1140,
      "SQ\"Q<": 1141,
      "SQ\"Q<Q/": 1142,
      "SQ\"Q@": 1143,
      "SQ\"Q[": 1144,
      "SQ\"Q\\": 1145,
      "SQ\"Q\\Q<": 1146,
      "SQ\"Q^": 1147,
      "SQ\"Q_": 1148,
      "SQ\"Q`": 1149,
      "SQ\"Q{": 1150,
      "SQ#": 1151,
      "SQ#Q!Q/": 1152,
      "SQ#Q#": 1153,
      "SQ#Q#Q#": 1154,
      "SQ#Q#Q#Q#": 1155,
      "SQ#Q#Q#Q#Q#": 1156,
      "SQ#Q(": 1157,
      "SQ#Q>": 1158,
      "SQ#Q[": 1159,
      "SQ#Q{": 1160,
      "SQ$": 1161,
      "SQ$,": 1162,
      "SQ$.": 1163,
      "SQ$Q$": 1164,
      "SQ$Q$Q\\": 1165,
      "SQ$Q(": 1166,
      "SQ$Q('": 1167,
      "SQ$Q('.": 1168,
      "SQ$Q('Q#": 1169,
      "SQ$Q(Q\"": 1170,
      "SQ$Q(Q\".": 1171,
      "SQ$Q(Q\"Q#": 1172,
      "SQ$Q(Q\\": 1173,
      "SQ$Q-": 1174,
      "SQ$Q[": 1175,
      "SQ$Q\\": 1176,
      "SQ$Q\\Q{": 1177,
      "SQ$Q_": 1178,
      "SQ$Q{": 1179,
      "SQ$Q{Q\\": 1180,
      "SQ$Q|": 1181,
      "SQ$Q|Q\\": 1182,
      "SQ%": 1183,
      "SQ%,": 1184,
      "SQ%.": 1185,
      "SQ%Q%": 1186,
      "SQ%Q)": 1187,
      "SQ%Q),": 1188,
      "SQ%Q).": 1189,
      "SQ%Q>": 1190,
      "SQ%Q>Q%": 1191,
      "SQ%Q{": 1192,
      "SQ%Q}": 1193,
      "SQ&": 1194,
      "SQ&Q&": 1195,
      "SQ&Q=": 1196,
      "SQ&Q=Q\\": 1197,
      "SQ&Q\\": 1198,
      "SQ(": 1199,
      "SQ('": 1200,
      "SQ(.": 1201,
      "SQ(?": 1202,
      "SQ(Q!": 1203,
      "SQ(Q\"": 1204,
      "SQ(Q$": 1205,
      "SQ(Q$Q\\": 1206,
      "SQ(Q(": 1207,
      "SQ(Q)": 1208,
      "SQ(Q)Q;": 1209,
      "SQ(Q*": 1210,
      "SQ(Q*Q*": 1211,
      "SQ(Q+": 1212,
      "SQ(Q-": 1213,
      "SQ(Q/": 1214,
      "SQ(Q:": 1215,
      "SQ(Q=": 1216,
      "SQ(Q@": 1217,
      "SQ(Q[": 1218,
      "SQ(Q\\": 1219,
      "SQ(Q\\Q<": 1220,
      "SQ(Q_": 1221,
      "SQ(Q`": 1222,
      "SQ(Q{": 1223,
      "SQ)": 1224,
      "SQ),": 1225,
      "SQ).": 1226,
      "SQ)Q;": 1227,
      "SQ)Q{": 1228,
      "SQ*": 1229,
      "SQ*.": 1230,
      "SQ*Q)": 1231,
      "SQ*Q*": 1232,
      "SQ*Q*Q*": 1233,
      "SQ*Q/": 1234,
      "SQ+": 1235,
      "SQ+Q+": 1236,
      "SQ+Q=": 1237,
      "SQ+Q\\": 1238,
      "SQ-": 1239,
      "SQ-Q(": 1240,
      "SQ-Q-": 1241,
      "SQ-Q-Q-": 1242,
      "SQ-Q-Q-Q-": 1243,
      "SQ-Q-Q>": 1244,
      "SQ-Q=": 1245,
      "SQ-Q>": 1246,
      "SQ-Q\\": 1247,
      "SQ/": 1248,
      "SQ/Q*": 1249,
      "SQ/Q*Q*": 1250,
      "SQ/Q/": 1251,
      "SQ/Q/Q/": 1252,
      "SQ/Q>": 1253,
      "SQ/Q\\": 1254,
      "SQ:": 1255,
      "SQ:Q(": 1256,
      "SQ:Q)": 1257,
      "SQ:Q-": 1258,
      "SQ:Q-Q)": 1259,
      "SQ:Q:": 1260,
      "SQ:Q=": 1261,
      "SQ;": 1262,
      "SQ;Q)": 1263,
      "SQ;Q;": 1264,
      "SQ<": 1265,
      "SQ<?": 1266,
      "SQ<Q!": 1267,
      "SQ<Q!Q-Q-": 1268,
      "SQ<Q%": 1269,
      "SQ<Q%Q=": 1270,
      "SQ<Q-": 1271,
      "SQ<Q/": 1272,
      "SQ<Q<": 1273,
      "SQ<Q=": 1274,
      "SQ<Q>": 1275,
      "SQ=": 1276,
      "SQ=Q\"": 1277,
      "SQ=Q=": 1278,
      "SQ=Q=Q=": 1279,
      "SQ=Q=Q>": 1280,
      "SQ=Q>": 1281,
      "SQ=Q\\": 1282,
      "SQ=Q~": 1283,
      "SQ>": 1284,
      "SQ>Q=": 1285,
      "SQ>Q>": 1286,
      "SQ>Q>Q>": 1287,
      "SQ@": 1288,
      "SQ@Q\"": 1289,
      "SQ[": 1290,
      "SQ['": 1291,
      "SQ[...Q]": 1292,
      "SQ[Q\"": 1293,
      "SQ[Q(": 1294,
      "SQ[Q-": 1295,
      "SQ[Q:": 1296,
      "SQ[Q[": 1297,
      "SQ[Q\\": 1298,
      "SQ[Q]": 1299,
      "SQ[Q],": 1300,
      "SQ[Q]Q;": 1301,
      "SQ[Q_": 1302,
      "SQ[Q`": 1303,
      "SQ[Q{": 1304,
      "SQ\\": 1305,
      "SQ\\,": 1306,
      "SQ\\Q\"": 1307,
      "SQ\\Q$": 1308,
      "SQ\\Q(": 1309,
      "SQ\\Q(Q\\": 1310,
      "SQ\\Q(Q{Q\\": 1311,
      "SQ\\Q)": 1312,
      "SQ\\Q;": 1313,
      "SQ\\Q<": 1314,
      "SQ\\Q[": 1315,
      "SQ\\Q[Q\\": 1316,
      "SQ\\Q\\": 1317,
      "SQ\\Q]": 1318,
      "SQ\\Q{": 1319,
      "SQ\\Q|": 1320,
      "SQ]": 1321,
      "SQ],": 1322,
      "SQ]Q;": 1323,
      "SQ]Q]": 1324,
      "SQ^": 1325,
      "SQ^Q{": 1326,
      "SQ_": 1327,
      "SQ_,": 1328,
      "SQ_Q)": 1329,
      "SQ_Q_": 1330,
      "SQ_Q{": 1331,
      "SQ`": 1332,
      "SQ`'": 1333,
      "SQ`.": 1334,
      "SQ`Q\"": 1335,
      "SQ`Q#": 1336,
      "SQ`Q$": 1337,
      "SQ`Q%": 1338,
      "SQ`Q&": 1339,
      "SQ`Q(": 1340,
      "SQ`Q-": 1341,
      "SQ`Q-Q-": 1342,
      "SQ`Q/": 1343,
      "SQ`Q:": 1344,
      "SQ`Q<": 1345,
      "SQ`Q@": 1346,
      "SQ`Q[": 1347,
      "SQ`Q\\": 1348,
      "SQ`Q_": 1349,
      "SQ`Q_Q_": 1350,
      "SQ`Q`": 1351,
      "SQ`Q`Q`": 1352,
      "SQ`Q{": 1353,
      "SQ`Q|": 1354,
      "SQ{": 1355,
      "SQ{'": 1356,
      "SQ{Q\"": 1357,
      "SQ{Q$": 1358,
      "SQ{Q%": 1359,
      "SQ{Q-": 1360,
      "SQ{Q:": 1361,
      "SQ{Q@": 1362,
      "SQ{Q\\": 1363,
      "SQ{Q{": 1364,
      "SQ{Q}": 1365,
      "SQ{Q},": 1366,
      "SQ{Q}Q;": 1367,
      "SQ|": 1368,
      "SQ|Q\\": 1369,
      "SQ|Q|": 1370,
      "SQ}": 1371,
      "SQ},": 1372,
      "SQ}Q)": 1373,
      "SQ}Q).": 1374,
      "SQ}Q)Q;": 1375,
      "SQ}Q;": 1376,
      "SQ}Q\\": 1377,
      "SQ}Q`": 1378,
      "SQ}Q{": 1379,
      "SQ}Q}": 1380,
      "SQ~": 1381,
      "SQ~Q[": 1382,
      "SS": 1383,
      "SSS": 1384,
      "SSSS": 1385,
      "SSSSS": 1386,
      "SSSSSS": 1387,
      "SSSSSSS": 1388,
      "SSSSSSSS": 1389,
      "SSSSSSSSS": 1390,
      "SSSSSSSSSS": 1391,
      "SSSSSSSSSSS": 1392,
      "SSSSSSSSSSSS": 1393,
      "SSSSSSSSSSSSS": 1394,
      "SSSSSSSSSSSSSS": 1395,
      "SSSSSSSSSSSSSSS": 1396,
      "SSSSSSSSSSSSSSSS": 1397,
      "SUa": 1398,
      "SUaUa": 1399,
      "SUaUb": 1400,
      "SUaUbUc": 1401,
      "SUaUc": 1402,
      "SUaUd": 1403,
      "SUaUdUd": 1404,
      "SUaUf": 1405,
      "SUaUg": 1406,
      "SUaUjUaUx": 1407,
      "SUaUl": 1408,
      "SUaUlUl": 1409,
      "SUaUm": 1410,
      "SUaUn": 1411,
      "SUaUnUd": 1412,
      "SUaUp": 1413,
      "SUaUpUi": 1414,
      "SUaUpUis": 1415,
      "SUaUr": 1416,
      "SUaUs": 1417,
      "SUaUsUc": 1418,
      "SUaUsUcUiUi": 1419,
      "SUaUsUp": 1420,
      "SUaUt": 1421,
      "SUaUtUp": 1422,
      "SUaUuUt": 1423,
      "SUaUv": 1424,
      "SUaUwUs": 1425,
      "SUab": 1426,
      "SUabb": 1427,
      "SUabd": 1428,
      "SUaber": 1429,
      "SUabgerufen": 1430,
      "SUabout": 1431,
      "SUabr": 1432,
      "SUabraham": 1433,
      "SUabs": 1434,
      "SUabstract": 1435,
      "SUac": 1436,
      "SUacadem": 1437,
      "SUacademia": 1438,
      "SUacademy": 1439,
      "SUacc": 1440,
      "SUaccept": 1441,
      "SUaccess": 1442,
      "SUaccording": 1443,
      "SUaccount": 1444,
      "SUach": 1445,
      "SUact": 1446,
      "SUaction": 1447,
      "SUactiv": 1448,
      "SUactive": 1449,
      "SUactiveUrecord": 1450,
      "SUactivity": 1451,
      "SUactually": 1452,
      "SUad": 1453,
      "SUada": 1454,
      "SUadam": 1455,
      "SUadams": 1456,
      "SUadd": 1457,
      "SUadded": 1458,
      "SUadding": 1459,
      "SUadditionally": 1460,
      "SUaddress": 1461,
      "SUadel": 1462,
      "SUadmin": 1463,
      "SUadministr": 1464,
      "SUadministration": 1465,
      "SUadmir": 1466,
      "SUadolf": 1467,
      "SUadri": 1468,
      "SUadv": 1469,
      "SUadvanced": 1470,
      "SUadvent": 1471,
      "SUaer": 1472,
      "SUaf": 1473,
      "SUaff": 1474,
      "SUaffairs": 1475,
      "SUafghan": 1476,
      "SUafr": 1477,
      "SUafrica": 1478,
      "SUafrican": 1479,
      "SUafter": 1480,
      "SUag": 1481,
      "SUagain": 1482,
      "SUage": 1483,
      "SUagency": 1484,
      "SUagent": 1485,
      "SUagr": 1486,
      "SUagricult": 1487,
      "SUagu": 1488,
      "SUah": 1489,
      "SUain": 1490,
      "SUair": 1491,
      "SUaires": 1492,
      "SUairl": 1493,
      "SUairlines": 1494,
      "SUairport": 1495,
      "SUajax": 1496,
      "SUak": 1497,
      "SUakadem": 1498,
      "SUakademie": 1499,
      "SUakt": 1500,
      "SUal": 1501,
      "SUalabama": 1502,
      "SUalan": 1503,
      "SUalb": 1504,
      "SUalban": 1505,
      "SUalbert": 1506,
      "SUalberto": 1507,
      "SUalbum": 1508,
      "SUalbums": 1509,
      "SUalc": 1510,
      "SUald": 1511,
      "SUale": 1512,
      "SUaleks": 1513,
      "SUalert": 1514,
      "SUaless": 1515,
      "SUalex": 1516,
      "SUalexand": 1517,
      "SUalexander": 1518,
      "SUalexandre": 1519,
      "SUalf": 1520,
      "SUalfonso": 1521,
      "SUalfred": 1522,
      "SUalg": 1523,
      "SUalgorithm": 1524,
      "SUali": 1525,
      "SUalice": 1526,
      "SUall": 1527,
      "SUallUmovie": 1528,
      "SUalle": 1529,
      "SUallen": 1530,
      "SUalliance": 1531,
      "SUallow": 1532,
      "SUalo": 1533,
      "SUals": 1534,
      "SUalso": 1535,
      "SUalt": 1536,
      "SUalter": 1537,
      "SUaltern": 1538,
      "SUalternatively": 1539,
      "SUalthough": 1540,
      "SUaltri": 1541,
      "SUalways": 1542,
      "SUam": 1543,
      "SUama": 1544,
      "SUamazon": 1545,
      "SUamb": 1546,
      "SUamer": 1547,
      "SUamerica": 1548,
      "SUamerican": 1549,
      "SUamericans": 1550,
      "SUamerika": 1551,
      "SUamong": 1552,
      "SUamsterdam": 1553,
      "SUamt": 1554,
      "SUamts": 1555,
      "SUamy": 1556,
      "SUan": 1557,
      "SUana": 1558,
      "SUanal": 1559,
      "SUanalysis": 1560,
      "SUand": 1561,
      "SUanders": 1562,
      "SUanderson": 1563,
      "SUandre": 1564,
      "SUandrea": 1565,
      "SUandreas": 1566,
      "SUandrew": 1567,
      "SUandroid": 1568,
      "SUandy": 1569,
      "SUanfang": 1570,
      "SUang": 1571,
      "SUangel": 1572,
      "SUangeles": 1573,
      "SUangular": 1574,
      "SUanim": 1575,
      "SUanimal": 1576,
      "SUanleitung": 1577,
      "SUann": 1578,
      "SUanna": 1579,
      "SUanne": 1580,
      "SUanother": 1581,
      "SUans": 1582,
      "SUanswer": 1583,
      "SUant": 1584,
      "SUanth": 1585,
      "SUanthony": 1586,
      "SUanti": 1587,
      "SUanto": 1588,
      "SUantoine": 1589,
      "SUanton": 1590,
      "SUantonio": 1591,
      "SUany": 1592,
      "SUanyone": 1593,
      "SUanyway": 1594,
      "SUap": 1595,
      "SUapache": 1596,
      "SUapi": 1597,
      "SUapol": 1598,
      "SUapost": 1599,
      "SUapp": 1600,
      "SUappar": 1601,
      "SUappend": 1602,
      "SUapple": 1603,
      "SUapplication": 1604,
      "SUappro": 1605,
      "SUapril": 1606,
      "SUaqu": 1607,
      "SUar": 1608,
      "SUara": 1609,
      "SUarab": 1610,
      "SUarag": 1611,
      "SUarbe": 1612,
      "SUarbeit": 1613,
      "SUarbeits": 1614,
      "SUarc": 1615,
      "SUarch": 1616,
      "SUarchite": 1617,
      "SUarchitecture": 1618,
      "SUarchiv": 1619,
      "SUarchivado": 1620,
      "SUarchive": 1621,
      "SUarchives": 1622,
      "SUarchivlink": 1623,
      "SUare": 1624,
      "SUarea": 1625,
      "SUarena": 1626,
      "SUarg": 1627,
      "SUargent": 1628,
      "SUargentina": 1629,
      "SUargument": 1630,
      "SUari": 1631,
      "SUarist": 1632,
      "SUarizona": 1633,
      "SUark": 1634,
      "SUarm": 1635,
      "SUarmen": 1636,
      "SUarmy": 1637,
      "SUarn": 1638,
      "SUarnold": 1639,
      "SUarr": 1640,
      "SUarray": 1641,
      "SUarrayUlist": 1642,
      "SUart": 1643,
      "SUarte": 1644,
      "SUarten": 1645,
      "SUarthur": 1646,
      "SUarticle": 1647,
      "SUarticles": 1648,
      "SUartikel": 1649,
      "SUarts": 1650,
      "SUas": 1651,
      "SUash": 1652,
      "SUasia": 1653,
      "SUasian": 1654,
      "SUask": 1655,
      "SUasp": 1656,
      "SUass": 1657,
      "SUassembly": 1658,
      "SUassert": 1659,
      "SUassoci": 1660,
      "SUassociation": 1661,
      "SUassume": 1662,
      "SUassuming": 1663,
      "SUast": 1664,
      "SUastronom": 1665,
      "SUasync": 1666,
      "SUat": 1667,
      "SUath": 1668,
      "SUathlet": 1669,
      "SUathletics": 1670,
      "SUatl": 1671,
      "SUatlanta": 1672,
      "SUatlantic": 1673,
      "SUatlas": 1674,
      "SUatt": 1675,
      "SUattribute": 1676,
      "SUau": 1677,
      "SUauch": 1678,
      "SUaud": 1679,
      "SUaudio": 1680,
      "SUaudiod": 1681,
      "SUaudiodateien": 1682,
      "SUauf": 1683,
      "SUauflage": 1684,
      "SUaug": 1685,
      "SUaugen": 1686,
      "SUaugust": 1687,
      "SUaur": 1688,
      "SUaus": 1689,
      "SUaust": 1690,
      "SUaustin": 1691,
      "SUaustral": 1692,
      "SUaustralia": 1693,
      "SUaustralian": 1694,
      "SUaustria": 1695,
      "SUaut": 1696,
      "SUauth": 1697,
      "SUauthentication": 1698,
      "SUauthor": 1699,
      "SUauto": 1700,
      "SUautom": 1701,
      "SUautor": 1702,
      "SUav": 1703,
      "SUavec": 1704,
      "SUaven": 1705,
      "SUavenue": 1706,
      "SUaw": 1707,
      "SUaward": 1708,
      "SUawards": 1709,
      "SUax": 1710,
      "SUay": 1711,
      "SUaz": 1712,
      "SUazure": 1713,
      "SUb": 1714,
      "SUbUb": 1715,
      "SUbUbUc": 1716,
      "SUbUc": 1717,
      "SUbUe": 1718,
      "SUbUeUgUiUn": 1719,
      "SUbUo": 1720,
      "SUbUr": 1721,
      "SUbUtUw": 1722,
      "SUbUy": 1723,
      "SUba": 1724,
      "SUbab": 1725,
      "SUbaby": 1726,
      "SUbac": 1727,
      "SUbach": 1728,
      "SUback": 1729,
      "SUbackground": 1730,
      "SUbad": 1731,
      "SUbaden": 1732,
      "SUbag": 1733,
      "SUbah": 1734,
      "SUbahn": 1735,
      "SUbahnhof": 1736,
      "SUbak": 1737,
      "SUbaker": 1738,
      "SUbal": 1739,
      "SUbald": 1740,
      "SUball": 1741,
      "SUbalt": 1742,
      "SUbaltimore": 1743,
      "SUban": 1744,
      "SUband": 1745,
      "SUbang": 1746,
      "SUbank": 1747,
      "SUbapt": 1748,
      "SUbar": 1749,
      "SUbarb": 1750,
      "SUbarbara": 1751,
      "SUbarcel": 1752,
      "SUbarcelona": 1753,
      "SUbaron": 1754,
      "SUbarry": 1755,
      "SUbart": 1756,
      "SUbas": 1757,
      "SUbase": 1758,
      "SUbaseball": 1759,
      "SUbased": 1760,
      "SUbash": 1761,
      "SUbasic": 1762,
      "SUbasically": 1763,
      "SUbasketball": 1764,
      "SUbass": 1765,
      "SUbast": 1766,
      "SUbat": 1767,
      "SUbath": 1768,
      "SUbatt": 1769,
      "SUbattalion": 1770,
      "SUbattle": 1771,
      "SUbau": 1772,
      "SUbaud": 1773,
      "SUbav": 1774,
      "SUbay": 1775,
      "SUbayer": 1776,
      "SUbayern": 1777,
      "SUbd": 1778,
      "SUbe": 1779,
      "SUbeach": 1780,
      "SUbear": 1781,
      "SUbeat": 1782,
      "SUbeau": 1783,
      "SUbeaut": 1784,
      "SUbeautiful": 1785,
      "SUbecause": 1786,
      "SUbeck": 1787,
      "SUbed": 1788,
      "SUbedeut": 1789,
      "SUbedeutung": 1790,
      "SUbef": 1791,
      "SUbefore": 1792,
      "SUbeg": 1793,
      "SUbegin": 1794,
      "SUbeginn": 1795,
      "SUbegr": 1796,
      "SUbegriff": 1797,
      "SUbegriffe": 1798,
      "SUbei": 1799,
      "SUbeing": 1800,
      "SUbeispiel": 1801,
      "SUbeit": 1802,
      "SUbek": 1803,
      "SUbel": 1804,
      "SUbelg": 1805,
      "SUbelgique": 1806,
      "SUbell": 1807,
      "SUbelle": 1808,
      "SUbelow": 1809,
      "SUben": 1810,
      "SUbened": 1811,
      "SUbeng": 1812,
      "SUbenjamin": 1813,
      "SUbent": 1814,
      "SUber": 1815,
      "SUbere": 1816,
      "SUbereich": 1817,
      "SUberg": 1818,
      "SUberl": 1819,
      "SUberlin": 1820,
      "SUberliner": 1821,
      "SUbern": 1822,
      "SUbernard": 1823,
      "SUbert": 1824,
      "SUberuf": 1825,
      "SUbes": 1826,
      "SUbesch": 1827,
      "SUbesides": 1828,
      "SUbest": 1829,
      "SUbet": 1830,
      "SUbeth": 1831,
      "SUbetrieb": 1832,
      "SUbetter": 1833,
      "SUbetty": 1834,
      "SUbetween": 1835,
      "SUbew": 1836,
      "SUbey": 1837,
      "SUbez": 1838,
      "SUbh": 1839,
      "SUbi": 1840,
      "SUbian": 1841,
      "SUbib": 1842,
      "SUbible": 1843,
      "SUbibli": 1844,
      "SUbibliografia": 1845,
      "SUbibliographie": 1846,
      "SUbien": 1847,
      "SUbig": 1848,
      "SUbij": 1849,
      "SUbil": 1850,
      "SUbild": 1851,
      "SUbilder": 1852,
      "SUbildern": 1853,
      "SUbill": 1854,
      "SUbillboard": 1855,
      "SUbilly": 1856,
      "SUbin": 1857,
      "SUbinary": 1858,
      "SUbind": 1859,
      "SUbinding": 1860,
      "SUbio": 1861,
      "SUbiografia": 1862,
      "SUbiographie": 1863,
      "SUbiography": 1864,
      "SUbir": 1865,
      "SUbird": 1866,
      "SUbis": 1867,
      "SUbischof": 1868,
      "SUbishop": 1869,
      "SUbit": 1870,
      "SUbitmap": 1871,
      "SUbitte": 1872,
      "SUbl": 1873,
      "SUbla": 1874,
      "SUblack": 1875,
      "SUblan": 1876,
      "SUble": 1877,
      "SUblo": 1878,
      "SUblock": 1879,
      "SUblood": 1880,
      "SUblue": 1881,
      "SUblues": 1882,
      "SUbo": 1883,
      "SUboard": 1884,
      "SUbob": 1885,
      "SUbobby": 1886,
      "SUbod": 1887,
      "SUbody": 1888,
      "SUbog": 1889,
      "SUboh": 1890,
      "SUbol": 1891,
      "SUboliv": 1892,
      "SUbolog": 1893,
      "SUbom": 1894,
      "SUbomb": 1895,
      "SUbon": 1896,
      "SUbond": 1897,
      "SUbonn": 1898,
      "SUbook": 1899,
      "SUbooks": 1900,
      "SUbool": 1901,
      "SUboolean": 1902,
      "SUboot": 1903,
      "SUbootstrap": 1904,
      "SUbor": 1905,
      "SUborder": 1906,
      "SUborg": 1907,
      "SUborn": 1908,
      "SUbos": 1909,
      "SUboston": 1910,
      "SUbot": 1911,
      "SUbotan": 1912,
      "SUboth": 1913,
      "SUbou": 1914,
      "SUbour": 1915,
      "SUbow": 1916,
      "SUbowl": 1917,
      "SUbox": 1918,
      "SUboy": 1919,
      "SUboys": 1920,
      "SUbr": 1921,
      "SUbra": 1922,
      "SUbrad": 1923,
      "SUbran": 1924,
      "SUbranch": 1925,
      "SUbrand": 1926,
      "SUbrandenburg": 1927,
      "SUbras": 1928,
      "SUbrasil": 1929,
      "SUbrasile": 1930,
      "SUbraun": 1931,
      "SUbrazil": 1932,
      "SUbre": 1933,
      "SUbreak": 1934,
      "SUbres": 1935,
      "SUbret": 1936,
      "SUbrian": 1937,
      "SUbridge": 1938,
      "SUbrig": 1939,
      "SUbrigade": 1940,
      "SUbright": 1941,
      "SUbrit": 1942,
      "SUbritain": 1943,
      "SUbritann": 1944,
      "SUbritannica": 1945,
      "SUbritish": 1946,
      "SUbro": 1947,
      "SUbroad": 1948,
      "SUbroadcast": 1949,
      "SUbroadway": 1950,
      "SUbron": 1951,
      "SUbrook": 1952,
      "SUbrothers": 1953,
      "SUbrow": 1954,
      "SUbrown": 1955,
      "SUbrowser": 1956,
      "SUbru": 1957,
      "SUbruce": 1958,
      "SUbrun": 1959,
      "SUbruno": 1960,
      "SUbry": 1961,
      "SUbu": 1962,
      "SUbuc": 1963,
      "SUbuch": 1964,
      "SUbuck": 1965,
      "SUbud": 1966,
      "SUbudapest": 1967,
      "SUbuddh": 1968,
      "SUbuen": 1969,
      "SUbuenos": 1970,
      "SUbuff": 1971,
      "SUbuffer": 1972,
      "SUbuffered": 1973,
      "SUbug": 1974,
      "SUbuild": 1975,
      "SUbuilding": 1976,
      "SUbul": 1977,
      "SUbulg": 1978,
      "SUbulgar": 1979,
      "SUbull": 1980,
      "SUbun": 1981,
      "SUbund": 1982,
      "SUbundes": 1983,
      "SUbundle": 1984,
      "SUbur": 1985,
      "SUbureau": 1986,
      "SUburg": 1987,
      "SUburn": 1988,
      "SUbus": 1989,
      "SUbush": 1990,
      "SUbusiness": 1991,
      "SUbut": 1992,
      "SUbutler": 1993,
      "SUbutton": 1994,
      "SUby": 1995,
      "SUbyte": 1996,
      "SUc": 1997,
      "SUcUa": 1998,
      "SUcUaUsUe": 1999,
      "SUcUbUs": 2000,
      "SUcUc": 2001,
      "SUcUd": 2002,
      "SUcUe": 2003,
      "SUcUf": 2004,
      "SUcUg": 2005,
      "SUcUgUfloat": 2006,
      "SUcUgUrect": 2007,
      "SUcUh": 2008,
      "SUcUhUaUp": 2009,
      "SUcUhUaUpUtUeUr": 2010,
      "SUcUhUaUr": 2011,
      "SUcUhUeUcUk": 2012,
      "SUcUi": 2013,
      "SUcUl": 2014,
      "SUcUlUi": 2015,
      "SUcUnUn": 2016,
      "SUcUo": 2017,
      "SUcUoUl": 2018,
      "SUcUoUm": 2019,
      "SUcUoUn": 2020,
      "SUcUoUuUnUt": 2021,
      "SUcUoUvUiUd": 2022,
      "SUcUp": 2023,
      "SUcUpUu": 2024,
      "SUcUr": 2025,
      "SUcUrUeUaUtUe": 2026,
      "SUcUs": 2027,
      "SUcUsUs": 2028,
      "SUcUsUv": 2029,
      "SUcUt": 2030,
      "SUcUuUrUl": 2031,
      "SUcUuUrUlUoUpUt": 2032,
      "SUcUv": 2033,
      "SUca": 2034,
      "SUcab": 2035,
      "SUcache": 2036,
      "SUcad": 2037,
      "SUcal": 2038,
      "SUcalcul": 2039,
      "SUcalendar": 2040,
      "SUcaliforn": 2041,
      "SUcalifornia": 2042,
      "SUcall": 2043,
      "SUcam": 2044,
      "SUcamb": 2045,
      "SUcambridge": 2046,
      "SUcamer": 2047,
      "SUcamera": 2048,
      "SUcamil": 2049,
      "SUcamp": 2050,
      "SUcampbell": 2051,
      "SUcampe": 2052,
      "SUcampeonato": 2053,
      "SUcampion": 2054,
      "SUcan": 2055,
      "SUcanad": 2056,
      "SUcanada": 2057,
      "SUcanadian": 2058,
      "SUcanal": 2059,
      "SUcand": 2060,
      "SUcannot": 2061,
      "SUcant": 2062,
      "SUcap": 2063,
      "SUcape": 2064,
      "SUcapit": 2065,
      "SUcapital": 2066,
      "SUcapt": 2067,
      "SUcaptain": 2068,
      "SUcar": 2069,
      "SUcard": 2070,
      "SUcare": 2071,
      "SUcareer": 2072,
      "SUcarl": 2073,
      "SUcarlo": 2074,
      "SUcarlos": 2075,
      "SUcarol": 2076,
      "SUcarolina": 2077,
      "SUcaroline": 2078,
      "SUcart": 2079,
      "SUcarter": 2080,
      "SUcas": 2081,
      "SUcasa": 2082,
      "SUcase": 2083,
      "SUcass": 2084,
      "SUcast": 2085,
      "SUcastle": 2086,
      "SUcastro": 2087,
      "SUcat": 2088,
      "SUcatal": 2089,
      "SUcatalog": 2090,
      "SUcatalogue": 2091,
      "SUcatalunya": 2092,
      "SUcategory": 2093,
      "SUcatherine": 2094,
      "SUcatholic": 2095,
      "SUcav": 2096,
      "SUcaval": 2097,
      "SUce": 2098,
      "SUcec": 2099,
      "SUcel": 2100,
      "SUcell": 2101,
      "SUcenso": 2102,
      "SUcensus": 2103,
      "SUcent": 2104,
      "SUcenter": 2105,
      "SUcentral": 2106,
      "SUcentre": 2107,
      "SUcentro": 2108,
      "SUcentury": 2109,
      "SUcependant": 2110,
      "SUcer": 2111,
      "SUcert": 2112,
      "SUces": 2113,
      "SUcet": 2114,
      "SUcette": 2115,
      "SUch": 2116,
      "SUcha": 2117,
      "SUchair": 2118,
      "SUchal": 2119,
      "SUchallenge": 2120,
      "SUcham": 2121,
      "SUchamber": 2122,
      "SUchamp": 2123,
      "SUchampion": 2124,
      "SUchampions": 2125,
      "SUchampionship": 2126,
      "SUchampionships": 2127,
      "SUchan": 2128,
      "SUchange": 2129,
      "SUchannel": 2130,
      "SUchap": 2131,
      "SUchapter": 2132,
      "SUchar": 2133,
      "SUcharacter": 2134,
      "SUcharles": 2135,
      "SUcharlie": 2136,
      "SUcharlot": 2137,
      "SUcharlotte": 2138,
      "SUchart": 2139,
      "SUche": 2140,
      "SUcheck": 2141,
      "SUcheers": 2142,
      "SUchem": 2143,
      "SUchen": 2144,
      "SUcher": 2145,
      "SUchi": 2146,
      "SUchicago": 2147,
      "SUchief": 2148,
      "SUchiesa": 2149,
      "SUchild": 2150,
      "SUchildren": 2151,
      "SUchile": 2152,
      "SUchina": 2153,
      "SUchine": 2154,
      "SUchinese": 2155,
      "SUcho": 2156,
      "SUchor": 2157,
      "SUchr": 2158,
      "SUchris": 2159,
      "SUchrist": 2160,
      "SUchristian": 2161,
      "SUchristians": 2162,
      "SUchristmas": 2163,
      "SUchristoph": 2164,
      "SUchristopher": 2165,
      "SUchrome": 2166,
      "SUchron": 2167,
      "SUchurch": 2168,
      "SUci": 2169,
      "SUcic": 2170,
      "SUcin": 2171,
      "SUcinema": 2172,
      "SUcir": 2173,
      "SUcirc": 2174,
      "SUcircle": 2175,
      "SUcit": 2176,
      "SUcity": 2177,
      "SUciudad": 2178,
      "SUcivil": 2179,
      "SUcl": 2180,
      "SUcla": 2181,
      "SUclar": 2182,
      "SUclara": 2183,
      "SUclark": 2184,
      "SUclass": 2185,
      "SUclassic": 2186,
      "SUclassification": 2187,
      "SUclaud": 2188,
      "SUclaude": 2189,
      "SUclay": 2190,
      "SUcle": 2191,
      "SUclear": 2192,
      "SUclement": 2193,
      "SUcleveland": 2194,
      "SUclick": 2195,
      "SUclient": 2196,
      "SUclo": 2197,
      "SUclose": 2198,
      "SUcloud": 2199,
      "SUclub": 2200,
      "SUco": 2201,
      "SUcoast": 2202,
      "SUcob": 2203,
      "SUcode": 2204,
      "SUcol": 2205,
      "SUcold": 2206,
      "SUcole": 2207,
      "SUcoll": 2208,
      "SUcollect": 2209,
      "SUcollection": 2210,
      "SUcolleg": 2211,
      "SUcollegamenti": 2212,
      "SUcollege": 2213,
      "SUcollins": 2214,
      "SUcolomb": 2215,
      "SUcolombia": 2216,
      "SUcolonel": 2217,
      "SUcolor": 2218,
      "SUcolorado": 2219,
      "SUcolors": 2220,
      "SUcolumb": 2221,
      "SUcolumbia": 2222,
      "SUcolumn": 2223,
      "SUcom": 2224,
      "SUcome": 2225,
      "SUcomics": 2226,
      "SUcomm": 2227,
      "SUcommand": 2228,
      "SUcommander": 2229,
      "SUcomment": 2230,
      "SUcommission": 2231,
      "SUcommittee": 2232,
      "SUcommon": 2233,
      "SUcommons": 2234,
      "SUcommonwealth": 2235,
      "SUcommun": 2236,
      "SUcommunic": 2237,
      "SUcommunity": 2238,
      "SUcomo": 2239,
      "SUcomp": 2240,
      "SUcompany": 2241,
      "SUcompar": 2242,
      "SUcompet": 2243,
      "SUcomple": 2244,
      "SUcomplete": 2245,
      "SUcomplex": 2246,
      "SUcomponent": 2247,
      "SUcompos": 2248,
      "SUcomput": 2249,
      "SUcomputer": 2250,
      "SUcomun": 2251,
      "SUcon": 2252,
      "SUconc": 2253,
      "SUcond": 2254,
      "SUconf": 2255,
      "SUconfeder": 2256,
      "SUconference": 2257,
      "SUconfig": 2258,
      "SUconfiguration": 2259,
      "SUcong": 2260,
      "SUcongo": 2261,
      "SUcongress": 2262,
      "SUconnect": 2263,
      "SUconnecticut": 2264,
      "SUconnection": 2265,
      "SUcons": 2266,
      "SUconse": 2267,
      "SUconseil": 2268,
      "SUconserv": 2269,
      "SUconsider": 2270,
      "SUconsole": 2271,
      "SUconst": 2272,
      "SUconstant": 2273,
      "SUconstantin": 2274,
      "SUconstitution": 2275,
      "SUconsultado": 2276,
      "SUcont": 2277,
      "SUcontact": 2278,
      "SUcontainer": 2279,
      "SUcontempor": 2280,
      "SUcontent": 2281,
      "SUcontext": 2282,
      "SUcontrol": 2283,
      "SUcontroller": 2284,
      "SUconvention": 2285,
      "SUconvert": 2286,
      "SUcook": 2287,
      "SUcooper": 2288,
      "SUcop": 2289,
      "SUcopa": 2290,
      "SUcoppa": 2291,
      "SUcopy": 2292,
      "SUcor": 2293,
      "SUcord": 2294,
      "SUcore": 2295,
      "SUcorn": 2296,
      "SUcorpor": 2297,
      "SUcorporation": 2298,
      "SUcorps": 2299,
      "SUcorrect": 2300,
      "SUcort": 2301,
      "SUcos": 2302,
      "SUcost": 2303,
      "SUcosta": 2304,
      "SUcot": 2305,
      "SUcou": 2306,
      "SUcould": 2307,
      "SUcoun": 2308,
      "SUcouncil": 2309,
      "SUcount": 2310,
      "SUcountry": 2311,
      "SUcounty": 2312,
      "SUcoupe": 2313,
      "SUcour": 2314,
      "SUcourt": 2315,
      "SUcov": 2316,
      "SUcover": 2317,
      "SUcow": 2318,
      "SUcr": 2319,
      "SUcra": 2320,
      "SUcraig": 2321,
      "SUcre": 2322,
      "SUcreate": 2323,
      "SUcreating": 2324,
      "SUcreative": 2325,
      "SUcred": 2326,
      "SUcreek": 2327,
      "SUcrime": 2328,
      "SUcris": 2329,
      "SUcrist": 2330,
      "SUcrit": 2331,
      "SUcro": 2332,
      "SUcross": 2333,
      "SUcrow": 2334,
      "SUcrown": 2335,
      "SUcru": 2336,
      "SUcruz": 2337,
      "SUcry": 2338,
      "SUcs": 2339,
      "SUcu": 2340,
      "SUcuando": 2341,
      "SUcub": 2342,
      "SUcuba": 2343,
      "SUcult": 2344,
      "SUcultura": 2345,
      "SUcultural": 2346,
      "SUculture": 2347,
      "SUcup": 2348,
      "SUcur": 2349,
      "SUcurrent": 2350,
      "SUcurrently": 2351,
      "SUcurt": 2352,
      "SUcustom": 2353,
      "SUcustomer": 2354,
      "SUcy": 2355,
      "SUcz": 2356,
      "SUczech": 2357,
      "SUd": 2358,
      "SUdUa": 2359,
      "SUdUaUt": 2360,
      "SUdUaUtUe": 2361,
      "SUdUb": 2362,
      "SUdUc": 2363,
      "SUdUdUr": 2364,
      "SUdUe": 2365,
      "SUdUeUbUuUg": 2366,
      "SUdUeUcUlUaUrUe": 2367,
      "SUdUeUfUaUuUlUt": 2368,
      "SUdUeUs": 2369,
      "SUdUeUsUc": 2370,
      "SUdUi": 2371,
      "SUdUiUs": 2372,
      "SUdUj": 2373,
      "SUdUlUl": 2374,
      "SUdUm": 2375,
      "SUdUnUa": 2376,
      "SUdUnUs": 2377,
      "SUdUo": 2378,
      "SUdUoUm": 2379,
      "SUdUr": 2380,
      "SUdUvUd": 2381,
      "SUda": 2382,
      "SUdaar": 2383,
      "SUdabei": 2384,
      "SUdaily": 2385,
      "SUdak": 2386,
      "SUdal": 2387,
      "SUdallas": 2388,
      "SUdam": 2389,
      "SUdan": 2390,
      "SUdance": 2391,
      "SUdaniel": 2392,
      "SUdans": 2393,
      "SUdar": 2394,
      "SUdark": 2395,
      "SUdas": 2396,
      "SUdat": 2397,
      "SUdata": 2398,
      "SUdatabase": 2399,
      "SUdate": 2400,
      "SUdateUtime": 2401,
      "SUdaten": 2402,
      "SUdatenbank": 2403,
      "SUdav": 2404,
      "SUdave": 2405,
      "SUdavid": 2406,
      "SUdavis": 2407,
      "SUdaw": 2408,
      "SUday": 2409,
      "SUdays": 2410,
      "SUdb": 2411,
      "SUde": 2412,
      "SUdead": 2413,
      "SUdean": 2414,
      "SUdeath": 2415,
      "SUdeb": 2416,
      "SUdebug": 2417,
      "SUdec": 2418,
      "SUdecember": 2419,
      "SUdeep": 2420,
      "SUdef": 2421,
      "SUdefault": 2422,
      "SUdefine": 2423,
      "SUdefinition": 2424,
      "SUdel": 2425,
      "SUdelete": 2426,
      "SUdem": 2427,
      "SUdemo": 2428,
      "SUdemocr": 2429,
      "SUdemocratic": 2430,
      "SUden": 2431,
      "SUdenkmal": 2432,
      "SUdennis": 2433,
      "SUdep": 2434,
      "SUdepart": 2435,
      "SUdepartment": 2436,
      "SUdepending": 2437,
      "SUdeport": 2438,
      "SUdepuis": 2439,
      "SUdeput": 2440,
      "SUder": 2441,
      "SUderby": 2442,
      "SUdes": 2443,
      "SUdescri": 2444,
      "SUdescription": 2445,
      "SUdesde": 2446,
      "SUdesign": 2447,
      "SUdesp": 2448,
      "SUdespite": 2449,
      "SUdest": 2450,
      "SUdet": 2451,
      "SUdetails": 2452,
      "SUdetroit": 2453,
      "SUdeutsch": 2454,
      "SUdeutsche": 2455,
      "SUdeutschen": 2456,
      "SUdeutschland": 2457,
      "SUdeux": 2458,
      "SUdev": 2459,
      "SUdevelop": 2460,
      "SUdevelopment": 2461,
      "SUdevice": 2462,
      "SUdez": 2463,
      "SUdeze": 2464,
      "SUdezember": 2465,
      "SUdi": 2466,
      "SUdia": 2467,
      "SUdialog": 2468,
      "SUdiam": 2469,
      "SUdic": 2470,
      "SUdick": 2471,
      "SUdictionary": 2472,
      "SUdid": 2473,
      "SUdie": 2474,
      "SUdiego": 2475,
      "SUdienst": 2476,
      "SUdies": 2477,
      "SUdiese": 2478,
      "SUdieser": 2479,
      "SUdiet": 2480,
      "SUdieu": 2481,
      "SUdig": 2482,
      "SUdigital": 2483,
      "SUdim": 2484,
      "SUdin": 2485,
      "SUdioc": 2486,
      "SUdios": 2487,
      "SUdiplom": 2488,
      "SUdir": 2489,
      "SUdire": 2490,
      "SUdirect": 2491,
      "SUdirector": 2492,
      "SUdirectory": 2493,
      "SUdis": 2494,
      "SUdisc": 2495,
      "SUdiscogs": 2496,
      "SUdisk": 2497,
      "SUdisney": 2498,
      "SUdisplay": 2499,
      "SUdist": 2500,
      "SUdistribution": 2501,
      "SUdistrict": 2502,
      "SUdit": 2503,
      "SUdiv": 2504,
      "SUdivision": 2505,
      "SUdj": 2506,
      "SUdjango": 2507,
      "SUdo": 2508,
      "SUdob": 2509,
      "SUdoc": 2510,
      "SUdocker": 2511,
      "SUdoctor": 2512,
      "SUdocument": 2513,
      "SUdoes": 2514,
      "SUdog": 2515,
      "SUdok": 2516,
      "SUdokument": 2517,
      "SUdol": 2518,
      "SUdom": 2519,
      "SUdomain": 2520,
      "SUdomin": 2521,
      "SUdon": 2522,
      "SUdonald": 2523,
      "SUdone": 2524,
      "SUdopo": 2525,
      "SUdor": 2526,
      "SUdorf": 2527,
      "SUdort": 2528,
      "SUdou": 2529,
      "SUdouble": 2530,
      "SUdoug": 2531,
      "SUdouglas": 2532,
      "SUdow": 2533,
      "SUdown": 2534,
      "SUdownload": 2535,
      "SUdr": 2536,
      "SUdra": 2537,
      "SUdrag": 2538,
      "SUdragon": 2539,
      "SUdraw": 2540,
      "SUdre": 2541,
      "SUdream": 2542,
      "SUdres": 2543,
      "SUdresden": 2544,
      "SUdrive": 2545,
      "SUdriver": 2546,
      "SUdro": 2547,
      "SUdrop": 2548,
      "SUdru": 2549,
      "SUdu": 2550,
      "SUdub": 2551,
      "SUdublin": 2552,
      "SUduc": 2553,
      "SUduch": 2554,
      "SUdue": 2555,
      "SUduke": 2556,
      "SUdum": 2557,
      "SUdun": 2558,
      "SUdup": 2559,
      "SUdur": 2560,
      "SUdurant": 2561,
      "SUdurante": 2562,
      "SUdurch": 2563,
      "SUduring": 2564,
      "SUdutch": 2565,
      "SUdy": 2566,
      "SUdynam": 2567,
      "SUdynamic": 2568,
      "SUe": 2569,
      "SUeUc": 2570,
      "SUeUd": 2571,
      "SUeUdUiUt": 2572,
      "SUeUf": 2573,
      "SUeUl": 2574,
      "SUeUlUsUe": 2575,
      "SUeUm": 2576,
      "SUeUn": 2577,
      "SUeUnUd": 2578,
      "SUeUp": 2579,
      "SUeUr": 2580,
      "SUeUrUr": 2581,
      "SUeUrUrUoUr": 2582,
      "SUeUs": 2583,
      "SUeUsUp": 2584,
      "SUeUu": 2585,
      "SUeUx": 2586,
      "SUeUxUiUsUtUs": 2587,
      "SUeach": 2588,
      "SUear": 2589,
      "SUearl": 2590,
      "SUearly": 2591,
      "SUearth": 2592,
      "SUeast": 2593,
      "SUeastern": 2594,
      "SUeb": 2595,
      "SUeclipse": 2596,
      "SUeconom": 2597,
      "SUed": 2598,
      "SUedd": 2599,
      "SUedge": 2600,
      "SUedinburgh": 2601,
      "SUedit": 2602,
      "SUedition": 2603,
      "SUeditor": 2604,
      "SUedmund": 2605,
      "SUedu": 2606,
      "SUeducation": 2607,
      "SUedward": 2608,
      "SUedwards": 2609,
      "SUeen": 2610,
      "SUeffect": 2611,
      "SUefter": 2612,
      "SUeg": 2613,
      "SUegy": 2614,
      "SUegypt": 2615,
      "SUehe": 2616,
      "SUehr": 2617,
      "SUehren": 2618,
      "SUein": 2619,
      "SUeine": 2620,
      "SUeing": 2621,
      "SUeins": 2622,
      "SUeinsatz": 2623,
      "SUeinwo": 2624,
      "SUeinwohner": 2625,
      "SUeinz": 2626,
      "SUeinzel": 2627,
      "SUeinzeln": 2628,
      "SUeinzelnach": 2629,
      "SUeinzelnachweise": 2630,
      "SUeisen": 2631,
      "SUeither": 2632,
      "SUej": 2633,
      "SUek": 2634,
      "SUel": 2635,
      "SUela": 2636,
      "SUele": 2637,
      "SUelect": 2638,
      "SUelectric": 2639,
      "SUelectron": 2640,
      "SUelement": 2641,
      "SUeli": 2642,
      "SUelis": 2643,
      "SUelisabeth": 2644,
      "SUeliz": 2645,
      "SUelizabeth": 2646,
      "SUell": 2647,
      "SUelle": 2648,
      "SUellen": 2649,
      "SUelli": 2650,
      "SUels": 2651,
      "SUelse": 2652,
      "SUem": 2653,
      "SUemail": 2654,
      "SUemb": 2655,
      "SUemer": 2656,
      "SUemil": 2657,
      "SUemma": 2658,
      "SUemp": 2659,
      "SUemperor": 2660,
      "SUempire": 2661,
      "SUemployee": 2662,
      "SUen": 2663,
      "SUenc": 2664,
      "SUencyc": 2665,
      "SUencyclop": 2666,
      "SUencyclopedia": 2667,
      "SUend": 2668,
      "SUende": 2669,
      "SUener": 2670,
      "SUenergy": 2671,
      "SUeng": 2672,
      "SUengel": 2673,
      "SUengine": 2674,
      "SUengineering": 2675,
      "SUengland": 2676,
      "SUenglish": 2677,
      "SUenlaces": 2678,
      "SUens": 2679,
      "SUent": 2680,
      "SUenter": 2681,
      "SUentertain": 2682,
      "SUentertainment": 2683,
      "SUentity": 2684,
      "SUentre": 2685,
      "SUentry": 2686,
      "SUentwicklung": 2687,
      "SUenvironment": 2688,
      "SUep": 2689,
      "SUepis": 2690,
      "SUeq": 2691,
      "SUequ": 2692,
      "SUer": 2693,
      "SUera": 2694,
      "SUerd": 2695,
      "SUergeb": 2696,
      "SUeric": 2697,
      "SUerik": 2698,
      "SUern": 2699,
      "SUernest": 2700,
      "SUernst": 2701,
      "SUerr": 2702,
      "SUerror": 2703,
      "SUerst": 2704,
      "SUerz": 2705,
      "SUes": 2706,
      "SUesc": 2707,
      "SUesp": 2708,
      "SUess": 2709,
      "SUest": 2710,
      "SUesta": 2711,
      "SUestad": 2712,
      "SUestado": 2713,
      "SUestados": 2714,
      "SUeste": 2715,
      "SUet": 2716,
      "SUeth": 2717,
      "SUeu": 2718,
      "SUeug": 2719,
      "SUeugen": 2720,
      "SUeur": 2721,
      "SUeuro": 2722,
      "SUeurop": 2723,
      "SUeuropa": 2724,
      "SUeurope": 2725,
      "SUeuropean": 2726,
      "SUev": 2727,
      "SUeva": 2728,
      "SUevangel": 2729,
      "SUevans": 2730,
      "SUeven": 2731,
      "SUevent": 2732,
      "SUeventUargs": 2733,
      "SUevents": 2734,
      "SUever": 2735,
      "SUevery": 2736,
      "SUeverything": 2737,
      "SUex": 2738,
      "SUexample": 2739,
      "SUexcel": 2740,
      "SUexception": 2741,
      "SUexchange": 2742,
      "SUexec": 2743,
      "SUexecutive": 2744,
      "SUexit": 2745,
      "SUexp": 2746,
      "SUexper": 2747,
      "SUexplorer": 2748,
      "SUexpress": 2749,
      "SUexpression": 2750,
      "SUext": 2751,
      "SUextern": 2752,
      "SUexterna": 2753,
      "SUexternal": 2754,
      "SUexterne": 2755,
      "SUez": 2756,
      "SUf": 2757,
      "SUfUa": 2758,
      "SUfUaUlUsUe": 2759,
      "SUfUb": 2760,
      "SUfUc": 2761,
      "SUfUf": 2762,
      "SUfUi": 2763,
      "SUfUiUfUa": 2764,
      "SUfUiUlUe": 2765,
      "SUfUk": 2766,
      "SUfUm": 2767,
      "SUfUo": 2768,
      "SUfUoUr": 2769,
      "SUfUr": 2770,
      "SUfUrUoUm": 2771,
      "SUfa": 2772,
      "SUfab": 2773,
      "SUfac": 2774,
      "SUface": 2775,
      "SUfacebook": 2776,
      "SUfach": 2777,
      "SUfact": 2778,
      "SUfactory": 2779,
      "SUfahr": 2780,
      "SUfail": 2781,
      "SUfailed": 2782,
      "SUfair": 2783,
      "SUfal": 2784,
      "SUfall": 2785,
      "SUfalse": 2786,
      "SUfam": 2787,
      "SUfame": 2788,
      "SUfamil": 2789,
      "SUfamilie": 2790,
      "SUfamilien": 2791,
      "SUfamily": 2792,
      "SUfant": 2793,
      "SUfar": 2794,
      "SUfarm": 2795,
      "SUfast": 2796,
      "SUfather": 2797,
      "SUfe": 2798,
      "SUfeb": 2799,
      "SUfebru": 2800,
      "SUfebruar": 2801,
      "SUfebruary": 2802,
      "SUfed": 2803,
      "SUfeder": 2804,
      "SUfederal": 2805,
      "SUfederation": 2806,
      "SUfel": 2807,
      "SUfeld": 2808,
      "SUfelix": 2809,
      "SUfellow": 2810,
      "SUfem": 2811,
      "SUfen": 2812,
      "SUfer": 2813,
      "SUferd": 2814,
      "SUferdinand": 2815,
      "SUfern": 2816,
      "SUfernando": 2817,
      "SUfernseh": 2818,
      "SUferr": 2819,
      "SUfest": 2820,
      "SUfestival": 2821,
      "SUfeuer": 2822,
      "SUfich": 2823,
      "SUfiche": 2824,
      "SUfichier": 2825,
      "SUfield": 2826,
      "SUfif": 2827,
      "SUfig": 2828,
      "SUfight": 2829,
      "SUfigure": 2830,
      "SUfil": 2831,
      "SUfile": 2832,
      "SUfiles": 2833,
      "SUfilip": 2834,
      "SUfilm": 2835,
      "SUfilms": 2836,
      "SUfilter": 2837,
      "SUfin": 2838,
      "SUfinal": 2839,
      "SUfinale": 2840,
      "SUfinally": 2841,
      "SUfind": 2842,
      "SUfine": 2843,
      "SUfinland": 2844,
      "SUfinn": 2845,
      "SUfir": 2846,
      "SUfire": 2847,
      "SUfirebase": 2848,
      "SUfirefox": 2849,
      "SUfirst": 2850,
      "SUfischer": 2851,
      "SUfish": 2852,
      "SUfitz": 2853,
      "SUfive": 2854,
      "SUfix": 2855,
      "SUfl": 2856,
      "SUflag": 2857,
      "SUfland": 2858,
      "SUflash": 2859,
      "SUfle": 2860,
      "SUflo": 2861,
      "SUfloat": 2862,
      "SUflor": 2863,
      "SUflora": 2864,
      "SUflorence": 2865,
      "SUflorida": 2866,
      "SUflow": 2867,
      "SUflug": 2868,
      "SUfly": 2869,
      "SUfo": 2870,
      "SUfoi": 2871,
      "SUfol": 2872,
      "SUfolge": 2873,
      "SUfollow": 2874,
      "SUfollowing": 2875,
      "SUfon": 2876,
      "SUfont": 2877,
      "SUfoo": 2878,
      "SUfood": 2879,
      "SUfoot": 2880,
      "SUfootball": 2881,
      "SUfor": 2882,
      "SUforce": 2883,
      "SUforces": 2884,
      "SUford": 2885,
      "SUfore": 2886,
      "SUforeign": 2887,
      "SUforest": 2888,
      "SUform": 2889,
      "SUformat": 2890,
      "SUformula": 2891,
      "SUforsch": 2892,
      "SUfort": 2893,
      "SUforum": 2894,
      "SUfot": 2895,
      "SUfou": 2896,
      "SUfound": 2897,
      "SUfoundation": 2898,
      "SUfour": 2899,
      "SUfourier": 2900,
      "SUfox": 2901,
      "SUfr": 2902,
      "SUfra": 2903,
      "SUfragment": 2904,
      "SUframe": 2905,
      "SUframework": 2906,
      "SUfran": 2907,
      "SUfranc": 2908,
      "SUfrance": 2909,
      "SUfrances": 2910,
      "SUfrancesco": 2911,
      "SUfrancia": 2912,
      "SUfrancis": 2913,
      "SUfrancisco": 2914,
      "SUfranco": 2915,
      "SUfrank": 2916,
      "SUfrankfurt": 2917,
      "SUfranklin": 2918,
      "SUfrankreich": 2919,
      "SUfranz": 2920,
      "SUfrau": 2921,
      "SUfrauen": 2922,
      "SUfre": 2923,
      "SUfred": 2924,
      "SUfreder": 2925,
      "SUfrederick": 2926,
      "SUfree": 2927,
      "SUfrei": 2928,
      "SUfrench": 2929,
      "SUfreund": 2930,
      "SUfri": 2931,
      "SUfrid": 2932,
      "SUfriday": 2933,
      "SUfried": 2934,
      "SUfriedrich": 2935,
      "SUfriend": 2936,
      "SUfritz": 2937,
      "SUfro": 2938,
      "SUfrom": 2939,
      "SUfront": 2940,
      "SUfu": 2941,
      "SUfue": 2942,
      "SUful": 2943,
      "SUfull": 2944,
      "SUfun": 2945,
      "SUfunction": 2946,
      "SUfund": 2947,
      "SUfur": 2948,
      "SUfurther": 2949,
      "SUfurthermore": 2950,
      "SUfut": 2951,
      "SUfuture": 2952,
      "SUg": 2953,
      "SUgUb": 2954,
      "SUgUc": 2955,
      "SUgUeUt": 2956,
      "SUgUl": 2957,
      "SUgUnUd": 2958,
      "SUgUnUu": 2959,
      "SUgUo": 2960,
      "SUgUp": 2961,
      "SUgUpUu": 2962,
      "SUgUr": 2963,
      "SUgUrUoUuUp": 2964,
      "SUgUt": 2965,
      "SUgUuUi": 2966,
      "SUga": 2967,
      "SUgab": 2968,
      "SUgabriel": 2969,
      "SUgal": 2970,
      "SUgalerie": 2971,
      "SUgall": 2972,
      "SUgallery": 2973,
      "SUgam": 2974,
      "SUgame": 2975,
      "SUgames": 2976,
      "SUgan": 2977,
      "SUgand": 2978,
      "SUgang": 2979,
      "SUgar": 2980,
      "SUgarc": 2981,
      "SUgard": 2982,
      "SUgarden": 2983,
      "SUgary": 2984,
      "SUgas": 2985,
      "SUgast": 2986,
      "SUgate": 2987,
      "SUgaussian": 2988,
      "SUgay": 2989,
      "SUgaz": 2990,
      "SUgazette": 2991,
      "SUge": 2992,
      "SUgeb": 2993,
      "SUgebiet": 2994,
      "SUged": 2995,
      "SUgef": 2996,
      "SUgeg": 2997,
      "SUgegen": 2998,
      "SUgel": 2999,
      "SUgem": 3000,
      "SUgeme": 3001,
      "SUgemeinde": 3002,
      "SUgemeinden": 3003,
      "SUgemeins": 3004,
      "SUgemeinsame": 3005,
      "SUgen": 3006,
      "SUgene": 3007,
      "SUgener": 3008,
      "SUgeneral": 3009,
      "SUgeneration": 3010,
      "SUgenomsnitt": 3011,
      "SUgenomsnittlig": 3012,
      "SUgent": 3013,
      "SUgeoff": 3014,
      "SUgeographic": 3015,
      "SUgeography": 3016,
      "SUgeorg": 3017,
      "SUgeorge": 3018,
      "SUgeorges": 3019,
      "SUgeorgia": 3020,
      "SUger": 3021,
      "SUgerm": 3022,
      "SUgerman": 3023,
      "SUgermania": 3024,
      "SUgermany": 3025,
      "SUges": 3026,
      "SUgesch": 3027,
      "SUgeschichte": 3028,
      "SUgesellschaft": 3029,
      "SUgest": 3030,
      "SUget": 3031,
      "SUgetting": 3032,
      "SUgew": 3033,
      "SUgh": 3034,
      "SUghost": 3035,
      "SUgi": 3036,
      "SUgia": 3037,
      "SUgian": 3038,
      "SUgib": 3039,
      "SUgil": 3040,
      "SUgilbert": 3041,
      "SUgill": 3042,
      "SUgiorg": 3043,
      "SUgiov": 3044,
      "SUgiovanni": 3045,
      "SUgir": 3046,
      "SUgirl": 3047,
      "SUgirls": 3048,
      "SUgit": 3049,
      "SUgitUhub": 3050,
      "SUgiul": 3051,
      "SUgiuseppe": 3052,
      "SUgive": 3053,
      "SUgiven": 3054,
      "SUgl": 3055,
      "SUgla": 3056,
      "SUglad": 3057,
      "SUglas": 3058,
      "SUglasgow": 3059,
      "SUglen": 3060,
      "SUgli": 3061,
      "SUglo": 3062,
      "SUglobal": 3063,
      "SUgmbUh": 3064,
      "SUgo": 3065,
      "SUgod": 3066,
      "SUgol": 3067,
      "SUgold": 3068,
      "SUgolden": 3069,
      "SUgon": 3070,
      "SUgonz": 3071,
      "SUgood": 3072,
      "SUgoogle": 3073,
      "SUgor": 3074,
      "SUgordon": 3075,
      "SUgot": 3076,
      "SUgoth": 3077,
      "SUgott": 3078,
      "SUgovern": 3079,
      "SUgovernment": 3080,
      "SUgovernor": 3081,
      "SUgr": 3082,
      "SUgra": 3083,
      "SUgrab": 3084,
      "SUgrace": 3085,
      "SUgrad": 3086,
      "SUgraf": 3087,
      "SUgraham": 3088,
      "SUgram": 3089,
      "SUgran": 3090,
      "SUgrand": 3091,
      "SUgrande": 3092,
      "SUgrant": 3093,
      "SUgraph": 3094,
      "SUgraphics": 3095,
      "SUgray": 3096,
      "SUgre": 3097,
      "SUgreat": 3098,
      "SUgree": 3099,
      "SUgreece": 3100,
      "SUgreek": 3101,
      "SUgreen": 3102,
      "SUgreg": 3103,
      "SUgregory": 3104,
      "SUgren": 3105,
      "SUgrey": 3106,
      "SUgrid": 3107,
      "SUgriff": 3108,
      "SUgro": 3109,
      "SUgros": 3110,
      "SUgroup": 3111,
      "SUgru": 3112,
      "SUgrund": 3113,
      "SUgruppe": 3114,
      "SUgu": 3115,
      "SUguard": 3116,
      "SUguardian": 3117,
      "SUguer": 3118,
      "SUguerra": 3119,
      "SUguerre": 3120,
      "SUguide": 3121,
      "SUguillaume": 3122,
      "SUguinea": 3123,
      "SUgul": 3124,
      "SUgun": 3125,
      "SUgust": 3126,
      "SUgustav": 3127,
      "SUgut": 3128,
      "SUguy": 3129,
      "SUgy": 3130,
      "SUh": 3131,
      "SUhUd": 3132,
      "SUhUe": 3133,
      "SUhUmUs": 3134,
      "SUhUo": 3135,
      "SUhUt": 3136,
      "SUhUtUmUl": 3137,
      "SUhUtUtUp": 3138,
      "SUha": 3139,
      "SUhab": 3140,
      "SUhad": 3141,
      "SUhal": 3142,
      "SUhalf": 3143,
      "SUhall": 3144,
      "SUhalle": 3145,
      "SUham": 3146,
      "SUhamb": 3147,
      "SUhamburg": 3148,
      "SUhamilton": 3149,
      "SUhamiltonian": 3150,
      "SUhamm": 3151,
      "SUhan": 3152,
      "SUhand": 3153,
      "SUhandle": 3154,
      "SUhann": 3155,
      "SUhannover": 3156,
      "SUhans": 3157,
      "SUhappy": 3158,
      "SUhar": 3159,
      "SUhard": 3160,
      "SUharm": 3161,
      "SUharold": 3162,
      "SUharr": 3163,
      "SUharris": 3164,
      "SUharrison": 3165,
      "SUharry": 3166,
      "SUhart": 3167,
      "SUharvard": 3168,
      "SUhas": 3169,
      "SUhash": 3170,
      "SUhashUmap": 3171,
      "SUhass": 3172,
      "SUhat": 3173,
      "SUhaupt": 3174,
      "SUhaus": 3175,
      "SUhaut": 3176,
      "SUhav": 3177,
      "SUhave": 3178,
      "SUhaving": 3179,
      "SUhaw": 3180,
      "SUhawai": 3181,
      "SUhay": 3182,
      "SUhaz": 3183,
      "SUhe": 3184,
      "SUhead": 3185,
      "SUheader": 3186,
      "SUhealth": 3187,
      "SUheart": 3188,
      "SUheaven": 3189,
      "SUheb": 3190,
      "SUhed": 3191,
      "SUheidel": 3192,
      "SUheight": 3193,
      "SUheil": 3194,
      "SUheimat": 3195,
      "SUhein": 3196,
      "SUheinrich": 3197,
      "SUhel": 3198,
      "SUhelen": 3199,
      "SUhell": 3200,
      "SUhello": 3201,
      "SUhelp": 3202,
      "SUhels": 3203,
      "SUhem": 3204,
      "SUhen": 3205,
      "SUhence": 3206,
      "SUhend": 3207,
      "SUhenri": 3208,
      "SUhenry": 3209,
      "SUher": 3210,
      "SUherbert": 3211,
      "SUhere": 3212,
      "SUheritage": 3213,
      "SUherm": 3214,
      "SUhermann": 3215,
      "SUhern": 3216,
      "SUhero": 3217,
      "SUherr": 3218,
      "SUherz": 3219,
      "SUherzog": 3220,
      "SUhessen": 3221,
      "SUhet": 3222,
      "SUhey": 3223,
      "SUhi": 3224,
      "SUhibernate": 3225,
      "SUhier": 3226,
      "SUhigh": 3227,
      "SUhighway": 3228,
      "SUhij": 3229,
      "SUhil": 3230,
      "SUhill": 3231,
      "SUhills": 3232,
      "SUhim": 3233,
      "SUhin": 3234,
      "SUhinter": 3235,
      "SUhinweis": 3236,
      "SUhir": 3237,
      "SUhis": 3238,
      "SUhist": 3239,
      "SUhistoire": 3240,
      "SUhistor": 3241,
      "SUhistoria": 3242,
      "SUhistoric": 3243,
      "SUhistorical": 3244,
      "SUhistory": 3245,
      "SUhit": 3246,
      "SUhitler": 3247,
      "SUhmm": 3248,
      "SUho": 3249,
      "SUhob": 3250,
      "SUhoch": 3251,
      "SUhockey": 3252,
      "SUhof": 3253,
      "SUhoff": 3254,
      "SUhog": 3255,
      "SUhol": 3256,
      "SUhold": 3257,
      "SUholland": 3258,
      "SUhollywood": 3259,
      "SUholy": 3260,
      "SUholz": 3261,
      "SUhom": 3262,
      "SUhome": 3263,
      "SUhon": 3264,
      "SUhong": 3265,
      "SUhonor": 3266,
      "SUhook": 3267,
      "SUhop": 3268,
      "SUhope": 3269,
      "SUhor": 3270,
      "SUhorn": 3271,
      "SUhospital": 3272,
      "SUhost": 3273,
      "SUhot": 3274,
      "SUhotel": 3275,
      "SUhou": 3276,
      "SUhouse": 3277,
      "SUhouston": 3278,
      "SUhow": 3279,
      "SUhoward": 3280,
      "SUhowever": 3281,
      "SUhr": 3282,
      "SUhtml": 3283,
      "SUhttp": 3284,
      "SUhu": 3285,
      "SUhub": 3286,
      "SUhud": 3287,
      "SUhudson": 3288,
      "SUhugh": 3289,
      "SUhugo": 3290,
      "SUhum": 3291,
      "SUhuman": 3292,
      "SUhun": 3293,
      "SUhung": 3294,
      "SUhunter": 3295,
      "SUhur": 3296,
      "SUhus": 3297,
      "SUhy": 3298,
      "SUhyp": 3299,
      "SUhyper": 3300,
      "SUi": 3301,
      "SUiUb": 3302,
      "SUiUbUm": 3303,
      "SUiUc": 3304,
      "SUiUd": 3305,
      "SUiUdUe": 3306,
      "SUiUds": 3307,
      "SUiUe": 3308,
      "SUiUenumerable": 3309,
      "SUiUf": 3310,
      "SUiUi": 3311,
      "SUiUiUi": 3312,
      "SUiUiUs": 3313,
      "SUiUl": 3314,
      "SUiUm": 3315,
      "SUiUmUdb": 3316,
      "SUiUn": 3317,
      "SUiUnUfUo": 3318,
      "SUiUnUnUeUr": 3319,
      "SUiUnUsUeUrUt": 3320,
      "SUiUnUt": 3321,
      "SUiUnUtUo": 3322,
      "SUiUo": 3323,
      "SUiUoUexception": 3324,
      "SUiUp": 3325,
      "SUiUr": 3326,
      "SUiUs": 3327,
      "SUiUsUbUn": 3328,
      "SUiUsUo": 3329,
      "SUiUsUsUn": 3330,
      "SUiUt": 3331,
      "SUiUu": 3332,
      "SUiUv": 3333,
      "SUiUx": 3334,
      "SUian": 3335,
      "SUib": 3336,
      "SUice": 3337,
      "SUich": 3338,
      "SUicon": 3339,
      "SUid": 3340,
      "SUide": 3341,
      "SUident": 3342,
      "SUidentifier": 3343,
      "SUidentity": 3344,
      "SUier": 3345,
      "SUif": 3346,
      "SUig": 3347,
      "SUign": 3348,
      "SUil": 3349,
      "SUill": 3350,
      "SUillinois": 3351,
      "SUillustr": 3352,
      "SUils": 3353,
      "SUim": 3354,
      "SUimage": 3355,
      "SUimp": 3356,
      "SUimper": 3357,
      "SUimperial": 3358,
      "SUimport": 3359,
      "SUin": 3360,
      "SUinc": 3361,
      "SUind": 3362,
      "SUindeed": 3363,
      "SUindep": 3364,
      "SUindepend": 3365,
      "SUindependent": 3366,
      "SUindex": 3367,
      "SUindia": 3368,
      "SUindian": 3369,
      "SUindiana": 3370,
      "SUindians": 3371,
      "SUindones": 3372,
      "SUindust": 3373,
      "SUinf": 3374,
      "SUinfantry": 3375,
      "SUinfo": 3376,
      "SUinform": 3377,
      "SUinformation": 3378,
      "SUing": 3379,
      "SUinga": 3380,
      "SUingl": 3381,
      "SUinit": 3382,
      "SUinitial": 3383,
      "SUinitialize": 3384,
      "SUinn": 3385,
      "SUinner": 3386,
      "SUinput": 3387,
      "SUins": 3388,
      "SUinsel": 3389,
      "SUinsert": 3390,
      "SUinside": 3391,
      "SUinst": 3392,
      "SUinstall": 3393,
      "SUinstead": 3394,
      "SUinstit": 3395,
      "SUinstitut": 3396,
      "SUinstitute": 3397,
      "SUinstitution": 3398,
      "SUinstituto": 3399,
      "SUint": 3400,
      "SUinteger": 3401,
      "SUintegr": 3402,
      "SUintel": 3403,
      "SUintent": 3404,
      "SUinter": 3405,
      "SUinterest": 3406,
      "SUinterface": 3407,
      "SUintern": 3408,
      "SUinternacional": 3409,
      "SUinternational": 3410,
      "SUinternet": 3411,
      "SUintroduction": 3412,
      "SUinv": 3413,
      "SUinvalid": 3414,
      "SUinvestig": 3415,
      "SUio": 3416,
      "SUiowa": 3417,
      "SUir": 3418,
      "SUira": 3419,
      "SUiran": 3420,
      "SUireland": 3421,
      "SUirish": 3422,
      "SUiron": 3423,
      "SUis": 3424,
      "SUisa": 3425,
      "SUisaac": 3426,
      "SUisabel": 3427,
      "SUislam": 3428,
      "SUisland": 3429,
      "SUislands": 3430,
      "SUisn": 3431,
      "SUisra": 3432,
      "SUisrael": 3433,
      "SUiss": 3434,
      "SUissue": 3435,
      "SUist": 3436,
      "SUit": 3437,
      "SUital": 3438,
      "SUitalia": 3439,
      "SUitalian": 3440,
      "SUitaliana": 3441,
      "SUitalien": 3442,
      "SUitaly": 3443,
      "SUitem": 3444,
      "SUitems": 3445,
      "SUiter": 3446,
      "SUits": 3447,
      "SUivan": 3448,
      "SUiz": 3449,
      "SUj": 3450,
      "SUjUoUiUn": 3451,
      "SUjUquery": 3452,
      "SUjUs": 3453,
      "SUjUsUoUn": 3454,
      "SUjUvUm": 3455,
      "SUja": 3456,
      "SUjac": 3457,
      "SUjack": 3458,
      "SUjackson": 3459,
      "SUjacob": 3460,
      "SUjacques": 3461,
      "SUjag": 3462,
      "SUjah": 3463,
      "SUjahr": 3464,
      "SUjahre": 3465,
      "SUjahren": 3466,
      "SUjahres": 3467,
      "SUjahrh": 3468,
      "SUjahrhundert": 3469,
      "SUjahrhunderts": 3470,
      "SUjak": 3471,
      "SUjakob": 3472,
      "SUjam": 3473,
      "SUjames": 3474,
      "SUjan": 3475,
      "SUjane": 3476,
      "SUjaneiro": 3477,
      "SUjanu": 3478,
      "SUjanuar": 3479,
      "SUjanuary": 3480,
      "SUjap": 3481,
      "SUjapan": 3482,
      "SUjapanese": 3483,
      "SUjapon": 3484,
      "SUjar": 3485,
      "SUjas": 3486,
      "SUjason": 3487,
      "SUjava": 3488,
      "SUjavaUscript": 3489,
      "SUjavascript": 3490,
      "SUjay": 3491,
      "SUjazz": 3492,
      "SUje": 3493,
      "SUjean": 3494,
      "SUjed": 3495,
      "SUjeff": 3496,
      "SUjefferson": 3497,
      "SUjegyzetek": 3498,
      "SUjen": 3499,
      "SUjenkins": 3500,
      "SUjenn": 3501,
      "SUjer": 3502,
      "SUjerry": 3503,
      "SUjersey": 3504,
      "SUjerusalem": 3505,
      "SUjes": 3506,
      "SUjess": 3507,
      "SUjesus": 3508,
      "SUjet": 3509,
      "SUjeux": 3510,
      "SUjew": 3511,
      "SUjewish": 3512,
      "SUjews": 3513,
      "SUji": 3514,
      "SUjim": 3515,
      "SUjimmy": 3516,
      "SUjin": 3517,
      "SUjo": 3518,
      "SUjoan": 3519,
      "SUjob": 3520,
      "SUjoe": 3521,
      "SUjoh": 3522,
      "SUjohan": 3523,
      "SUjohann": 3524,
      "SUjohannes": 3525,
      "SUjohn": 3526,
      "SUjohnny": 3527,
      "SUjohnson": 3528,
      "SUjon": 3529,
      "SUjonathan": 3530,
      "SUjones": 3531,
      "SUjord": 3532,
      "SUjordan": 3533,
      "SUjorge": 3534,
      "SUjos": 3535,
      "SUjose": 3536,
      "SUjosef": 3537,
      "SUjoseph": 3538,
      "SUjosh": 3539,
      "SUjournal": 3540,
      "SUjoy": 3541,
      "SUjr": 3542,
      "SUjson": 3543,
      "SUju": 3544,
      "SUjuan": 3545,
      "SUjud": 3546,
      "SUjudge": 3547,
      "SUjug": 3548,
      "SUjugend": 3549,
      "SUjul": 3550,
      "SUjules": 3551,
      "SUjuli": 3552,
      "SUjulia": 3553,
      "SUjulian": 3554,
      "SUjulius": 3555,
      "SUjuly": 3556,
      "SUjun": 3557,
      "SUjune": 3558,
      "SUjung": 3559,
      "SUjuni": 3560,
      "SUjunior": 3561,
      "SUjup": 3562,
      "SUjur": 3563,
      "SUjust": 3564,
      "SUjustice": 3565,
      "SUjustin": 3566,
      "SUk": 3567,
      "SUkUeUy": 3568,
      "SUka": 3569,
      "SUkab": 3570,
      "SUkais": 3571,
      "SUkaiser": 3572,
      "SUkal": 3573,
      "SUkam": 3574,
      "SUkan": 3575,
      "SUkansas": 3576,
      "SUkant": 3577,
      "SUkap": 3578,
      "SUkar": 3579,
      "SUkarl": 3580,
      "SUkarriere": 3581,
      "SUkas": 3582,
      "SUkat": 3583,
      "SUkate": 3584,
      "SUkath": 3585,
      "SUkauf": 3586,
      "SUkay": 3587,
      "SUkaz": 3588,
      "SUke": 3589,
      "SUkeep": 3590,
      "SUkeith": 3591,
      "SUkel": 3592,
      "SUkelly": 3593,
      "SUken": 3594,
      "SUkenn": 3595,
      "SUkennedy": 3596,
      "SUkenneth": 3597,
      "SUkent": 3598,
      "SUkentucky": 3599,
      "SUker": 3600,
      "SUkevin": 3601,
      "SUkey": 3602,
      "SUkh": 3603,
      "SUkhan": 3604,
      "SUki": 3605,
      "SUkid": 3606,
      "SUkil": 3607,
      "SUkill": 3608,
      "SUkilometer": 3609,
      "SUkim": 3610,
      "SUkin": 3611,
      "SUkind": 3612,
      "SUkinder": 3613,
      "SUking": 3614,
      "SUkingdom": 3615,
      "SUkings": 3616,
      "SUkir": 3617,
      "SUkirch": 3618,
      "SUkirche": 3619,
      "SUkirchen": 3620,
      "SUkirk": 3621,
      "SUkit": 3622,
      "SUkl": 3623,
      "SUklaus": 3624,
      "SUkle": 3625,
      "SUklein": 3626,
      "SUkloster": 3627,
      "SUkn": 3628,
      "SUknight": 3629,
      "SUkno": 3630,
      "SUknow": 3631,
      "SUko": 3632,
      "SUkob": 3633,
      "SUkoch": 3634,
      "SUkoh": 3635,
      "SUkol": 3636,
      "SUkom": 3637,
      "SUkomm": 3638,
      "SUkommun": 3639,
      "SUkompon": 3640,
      "SUkon": 3641,
      "SUkong": 3642,
      "SUkonst": 3643,
      "SUkont": 3644,
      "SUkontrola": 3645,
      "SUkop": 3646,
      "SUkor": 3647,
      "SUkore": 3648,
      "SUkorea": 3649,
      "SUkorean": 3650,
      "SUkos": 3651,
      "SUkost": 3652,
      "SUkot": 3653,
      "SUkr": 3654,
      "SUkra": 3655,
      "SUkraft": 3656,
      "SUkrak": 3657,
      "SUkre": 3658,
      "SUkreis": 3659,
      "SUkreuz": 3660,
      "SUkrie": 3661,
      "SUkrieg": 3662,
      "SUkriegs": 3663,
      "SUkrist": 3664,
      "SUkrit": 3665,
      "SUkru": 3666,
      "SUku": 3667,
      "SUkub": 3668,
      "SUkult": 3669,
      "SUkultur": 3670,
      "SUkun": 3671,
      "SUkunst": 3672,
      "SUkur": 3673,
      "SUkurt": 3674,
      "SUkurz": 3675,
      "SUky": 3676,
      "SUl": 3677,
      "SUlUa": 3678,
      "SUlUcUcUn": 3679,
      "SUlUe": 3680,
      "SUlUeUd": 3681,
      "SUlUeUfUt": 3682,
      "SUlUi": 3683,
      "SUlUiUkUe": 3684,
      "SUlUiUm": 3685,
      "SUlUiUmUiUt": 3686,
      "SUlUiUn": 3687,
      "SUlUiUnUq": 3688,
      "SUlUl": 3689,
      "SUlUo": 3690,
      "SUlUoUg": 3691,
      "SUlUp": 3692,
      "SUla": 3693,
      "SUlaUteUx": 3694,
      "SUlab": 3695,
      "SUlabel": 3696,
      "SUlabor": 3697,
      "SUlabour": 3698,
      "SUlac": 3699,
      "SUlad": 3700,
      "SUlady": 3701,
      "SUlag": 3702,
      "SUlage": 3703,
      "SUlak": 3704,
      "SUlake": 3705,
      "SUlam": 3706,
      "SUlamb": 3707,
      "SUlan": 3708,
      "SUlanc": 3709,
      "SUland": 3710,
      "SUlandes": 3711,
      "SUlandkreis": 3712,
      "SUlane": 3713,
      "SUlang": 3714,
      "SUlanguage": 3715,
      "SUlap": 3716,
      "SUlar": 3717,
      "SUlaravel": 3718,
      "SUlarry": 3719,
      "SUlars": 3720,
      "SUlas": 3721,
      "SUlast": 3722,
      "SUlat": 3723,
      "SUlate": 3724,
      "SUlater": 3725,
      "SUlatin": 3726,
      "SUlau": 3727,
      "SUlauf": 3728,
      "SUlaur": 3729,
      "SUlaura": 3730,
      "SUlaurent": 3731,
      "SUlav": 3732,
      "SUlaw": 3733,
      "SUlawrence": 3734,
      "SUlayout": 3735,
      "SUlaz": 3736,
      "SUle": 3737,
      "SUleague": 3738,
      "SUlear": 3739,
      "SUlearning": 3740,
      "SUleb": 3741,
      "SUleben": 3742,
      "SUlebens": 3743,
      "SUled": 3744,
      "SUlee": 3745,
      "SUleft": 3746,
      "SUleg": 3747,
      "SUlegisl": 3748,
      "SUlehr": 3749,
      "SUleip": 3750,
      "SUleipzig": 3751,
      "SUleist": 3752,
      "SUlem": 3753,
      "SUlemma": 3754,
      "SUlen": 3755,
      "SUleo": 3756,
      "SUleon": 3757,
      "SUleonard": 3758,
      "SUleop": 3759,
      "SUleopold": 3760,
      "SUles": 3761,
      "SUless": 3762,
      "SUlet": 3763,
      "SUlev": 3764,
      "SUlevel": 3765,
      "SUlew": 3766,
      "SUlewis": 3767,
      "SUlex": 3768,
      "SUlexikon": 3769,
      "SUley": 3770,
      "SUli": 3771,
      "SUlib": 3772,
      "SUliber": 3773,
      "SUliberal": 3774,
      "SUlibert": 3775,
      "SUlibrary": 3776,
      "SUlic": 3777,
      "SUlicencia": 3778,
      "SUlicense": 3779,
      "SUlie": 3780,
      "SUlied": 3781,
      "SUliens": 3782,
      "SUlieutenant": 3783,
      "SUlife": 3784,
      "SUlig": 3785,
      "SUliga": 3786,
      "SUlight": 3787,
      "SUligue": 3788,
      "SUlike": 3789,
      "SUlil": 3790,
      "SUlim": 3791,
      "SUlima": 3792,
      "SUlimited": 3793,
      "SUlin": 3794,
      "SUlincoln": 3795,
      "SUlind": 3796,
      "SUline": 3797,
      "SUlinear": 3798,
      "SUlink": 3799,
      "SUlinked": 3800,
      "SUlinki": 3801,
      "SUlinux": 3802,
      "SUlion": 3803,
      "SUlip": 3804,
      "SUlis": 3805,
      "SUlisa": 3806,
      "SUlist": 3807,
      "SUlistUview": 3808,
      "SUlista": 3809,
      "SUliste": 3810,
      "SUlit": 3811,
      "SUliter": 3812,
      "SUliteratur": 3813,
      "SUlith": 3814,
      "SUlittle": 3815,
      "SUliv": 3816,
      "SUlive": 3817,
      "SUliver": 3818,
      "SUliverpool": 3819,
      "SUliving": 3820,
      "SUlloyd": 3821,
      "SUlo": 3822,
      "SUload": 3823,
      "SUlob": 3824,
      "SUloc": 3825,
      "SUlocal": 3826,
      "SUlocation": 3827,
      "SUlock": 3828,
      "SUlog": 3829,
      "SUlogger": 3830,
      "SUlogin": 3831,
      "SUlok": 3832,
      "SUlomb": 3833,
      "SUlond": 3834,
      "SUlondon": 3835,
      "SUlondres": 3836,
      "SUlong": 3837,
      "SUlook": 3838,
      "SUlooking": 3839,
      "SUlooks": 3840,
      "SUloop": 3841,
      "SUlor": 3842,
      "SUlord": 3843,
      "SUloren": 3844,
      "SUlorenzo": 3845,
      "SUlors": 3846,
      "SUlos": 3847,
      "SUlost": 3848,
      "SUlot": 3849,
      "SUlou": 3850,
      "SUlouis": 3851,
      "SUlouise": 3852,
      "SUlouisiana": 3853,
      "SUlov": 3854,
      "SUlove": 3855,
      "SUlow": 3856,
      "SUlower": 3857,
      "SUltd": 3858,
      "SUlu": 3859,
      "SUlub": 3860,
      "SUluc": 3861,
      "SUlucas": 3862,
      "SUluci": 3863,
      "SUlucy": 3864,
      "SUlud": 3865,
      "SUludwig": 3866,
      "SUluft": 3867,
      "SUluigi": 3868,
      "SUluis": 3869,
      "SUluke": 3870,
      "SUlund": 3871,
      "SUluther": 3872,
      "SUlux": 3873,
      "SUluxemb": 3874,
      "SUly": 3875,
      "SUlyn": 3876,
      "SUlyon": 3877,
      "SUm": 3878,
      "SUmUa": 3879,
      "SUmUaUc": 3880,
      "SUmUaUr": 3881,
      "SUmUaUx": 3882,
      "SUmUb": 3883,
      "SUmUc": 3884,
      "SUmUd": 3885,
      "SUmUe": 3886,
      "SUmUl": 3887,
      "SUmUm": 3888,
      "SUmUo": 3889,
      "SUmUp": 3890,
      "SUmUr": 3891,
      "SUmUs": 3892,
      "SUmUtUv": 3893,
      "SUmUvUc": 3894,
      "SUmUy": 3895,
      "SUma": 3896,
      "SUmac": 3897,
      "SUmach": 3898,
      "SUmachine": 3899,
      "SUmack": 3900,
      "SUmad": 3901,
      "SUmadame": 3902,
      "SUmade": 3903,
      "SUmadonna": 3904,
      "SUmadrid": 3905,
      "SUmag": 3906,
      "SUmagazine": 3907,
      "SUmagic": 3908,
      "SUmagn": 3909,
      "SUmagyar": 3910,
      "SUmah": 3911,
      "SUmai": 3912,
      "SUmail": 3913,
      "SUmain": 3914,
      "SUmainUactivity": 3915,
      "SUmaine": 3916,
      "SUmais": 3917,
      "SUmaj": 3918,
      "SUmajesty": 3919,
      "SUmajor": 3920,
      "SUmak": 3921,
      "SUmake": 3922,
      "SUmal": 3923,
      "SUmalays": 3924,
      "SUmale": 3925,
      "SUmaler": 3926,
      "SUmall": 3927,
      "SUmam": 3928,
      "SUman": 3929,
      "SUmanagement": 3930,
      "SUmanager": 3931,
      "SUmanchester": 3932,
      "SUmand": 3933,
      "SUmang": 3934,
      "SUmanh": 3935,
      "SUmann": 3936,
      "SUmannschaft": 3937,
      "SUmans": 3938,
      "SUmant": 3939,
      "SUmanuel": 3940,
      "SUmany": 3941,
      "SUmap": 3942,
      "SUmaps": 3943,
      "SUmar": 3944,
      "SUmarc": 3945,
      "SUmarcel": 3946,
      "SUmarch": 3947,
      "SUmarco": 3948,
      "SUmarcus": 3949,
      "SUmare": 3950,
      "SUmarg": 3951,
      "SUmargaret": 3952,
      "SUmari": 3953,
      "SUmaria": 3954,
      "SUmarian": 3955,
      "SUmarie": 3956,
      "SUmarina": 3957,
      "SUmarine": 3958,
      "SUmario": 3959,
      "SUmark": 3960,
      "SUmarket": 3961,
      "SUmars": 3962,
      "SUmarse": 3963,
      "SUmarsh": 3964,
      "SUmarshall": 3965,
      "SUmart": 3966,
      "SUmartin": 3967,
      "SUmarvel": 3968,
      "SUmarx": 3969,
      "SUmary": 3970,
      "SUmaryland": 3971,
      "SUmas": 3972,
      "SUmason": 3973,
      "SUmass": 3974,
      "SUmassachusetts": 3975,
      "SUmaster": 3976,
      "SUmasters": 3977,
      "SUmat": 3978,
      "SUmatch": 3979,
      "SUmate": 3980,
      "SUmaterial": 3981,
      "SUmath": 3982,
      "SUmathemat": 3983,
      "SUmatrix": 3984,
      "SUmatt": 3985,
      "SUmatth": 3986,
      "SUmatthew": 3987,
      "SUmau": 3988,
      "SUmaur": 3989,
      "SUmaurice": 3990,
      "SUmaven": 3991,
      "SUmax": 3992,
      "SUmaxim": 3993,
      "SUmay": 3994,
      "SUmaybe": 3995,
      "SUmayor": 3996,
      "SUmaz": 3997,
      "SUmc": 3998,
      "SUmcUc": 3999,
      "SUmcUg": 4000,
      "SUmcUk": 4001,
      "SUme": 4002,
      "SUmean": 4003,
      "SUmeanwhile": 4004,
      "SUmechan": 4005,
      "SUmed": 4006,
      "SUmedal": 4007,
      "SUmedi": 4008,
      "SUmedia": 4009,
      "SUmediabestanden": 4010,
      "SUmedic": 4011,
      "SUmedical": 4012,
      "SUmedicine": 4013,
      "SUmedien": 4014,
      "SUmediter": 4015,
      "SUmeg": 4016,
      "SUmeister": 4017,
      "SUmel": 4018,
      "SUmelbourne": 4019,
      "SUmem": 4020,
      "SUmember": 4021,
      "SUmemorial": 4022,
      "SUmemory": 4023,
      "SUmen": 4024,
      "SUmens": 4025,
      "SUmenschen": 4026,
      "SUmenu": 4027,
      "SUmer": 4028,
      "SUmercur": 4029,
      "SUmes": 4030,
      "SUmess": 4031,
      "SUmessage": 4032,
      "SUmet": 4033,
      "SUmeta": 4034,
      "SUmetal": 4035,
      "SUmeteor": 4036,
      "SUmeter": 4037,
      "SUmethod": 4038,
      "SUmetro": 4039,
      "SUmetropol": 4040,
      "SUmetropolitan": 4041,
      "SUmex": 4042,
      "SUmexican": 4043,
      "SUmexico": 4044,
      "SUmey": 4045,
      "SUmeyer": 4046,
      "SUmi": 4047,
      "SUmiami": 4048,
      "SUmic": 4049,
      "SUmich": 4050,
      "SUmichael": 4051,
      "SUmichel": 4052,
      "SUmichigan": 4053,
      "SUmicro": 4054,
      "SUmicrosoft": 4055,
      "SUmid": 4056,
      "SUmiddle": 4057,
      "SUmie": 4058,
      "SUmig": 4059,
      "SUmiguel": 4060,
      "SUmih": 4061,
      "SUmik": 4062,
      "SUmike": 4063,
      "SUmil": 4064,
      "SUmilan": 4065,
      "SUmilano": 4066,
      "SUmilit": 4067,
      "SUmilitary": 4068,
      "SUmill": 4069,
      "SUmiller": 4070,
      "SUmillionen": 4071,
      "SUmin": 4072,
      "SUmind": 4073,
      "SUmine": 4074,
      "SUminister": 4075,
      "SUministry": 4076,
      "SUminn": 4077,
      "SUminnesota": 4078,
      "SUminor": 4079,
      "SUmir": 4080,
      "SUmira": 4081,
      "SUmis": 4082,
      "SUmiss": 4083,
      "SUmission": 4084,
      "SUmississ": 4085,
      "SUmississippi": 4086,
      "SUmissouri": 4087,
      "SUmit": 4088,
      "SUmitch": 4089,
      "SUmitchell": 4090,
      "SUmitg": 4091,
      "SUmitglied": 4092,
      "SUmitglieder": 4093,
      "SUmitt": 4094,
      "SUmitte": 4095,
      "SUmittel": 4096,
      "SUmix": 4097,
      "SUmo": 4098,
      "SUmobile": 4099,
      "SUmock": 4100,
      "SUmod": 4101,
      "SUmode": 4102,
      "SUmodel": 4103,
      "SUmodern": 4104,
      "SUmodule": 4105,
      "SUmoh": 4106,
      "SUmol": 4107,
      "SUmold": 4108,
      "SUmon": 4109,
      "SUmond": 4110,
      "SUmonday": 4111,
      "SUmonde": 4112,
      "SUmong": 4113,
      "SUmongo": 4114,
      "SUmongoUdUb": 4115,
      "SUmonsieur": 4116,
      "SUmont": 4117,
      "SUmonte": 4118,
      "SUmonth": 4119,
      "SUmontr": 4120,
      "SUmontreal": 4121,
      "SUmonument": 4122,
      "SUmoon": 4123,
      "SUmoore": 4124,
      "SUmor": 4125,
      "SUmore": 4126,
      "SUmoreover": 4127,
      "SUmorgan": 4128,
      "SUmorris": 4129,
      "SUmort": 4130,
      "SUmos": 4131,
      "SUmoscow": 4132,
      "SUmosk": 4133,
      "SUmost": 4134,
      "SUmot": 4135,
      "SUmother": 4136,
      "SUmotor": 4137,
      "SUmou": 4138,
      "SUmount": 4139,
      "SUmountain": 4140,
      "SUmountains": 4141,
      "SUmouse": 4142,
      "SUmov": 4143,
      "SUmove": 4144,
      "SUmovie": 4145,
      "SUmoz": 4146,
      "SUmr": 4147,
      "SUmrs": 4148,
      "SUmsg": 4149,
      "SUmu": 4150,
      "SUmuch": 4151,
      "SUmuham": 4152,
      "SUmuhammad": 4153,
      "SUmul": 4154,
      "SUmult": 4155,
      "SUmulti": 4156,
      "SUmultiple": 4157,
      "SUmun": 4158,
      "SUmundial": 4159,
      "SUmundo": 4160,
      "SUmunicip": 4161,
      "SUmunicipal": 4162,
      "SUmur": 4163,
      "SUmurray": 4164,
      "SUmus": 4165,
      "SUmuse": 4166,
      "SUmuseo": 4167,
      "SUmuseum": 4168,
      "SUmusic": 4169,
      "SUmusical": 4170,
      "SUmusik": 4171,
      "SUmuslim": 4172,
      "SUmust": 4173,
      "SUmut": 4174,
      "SUmutter": 4175,
      "SUmy": 4176,
      "SUmyUclass": 4177,
      "SUmyUsUqUl": 4178,
      "SUmys": 4179,
      "SUmyst": 4180,
      "SUn": 4181,
      "SUnUa": 4182,
      "SUnUaUmUe": 4183,
      "SUnUaUs": 4184,
      "SUnUaUsUa": 4185,
      "SUnUaUt": 4186,
      "SUnUbUa": 4187,
      "SUnUc": 4188,
      "SUnUcUaUa": 4189,
      "SUnUe": 4190,
      "SUnUeUw": 4191,
      "SUnUfUl": 4192,
      "SUnUgUc": 4193,
      "SUnUk": 4194,
      "SUnUo": 4195,
      "SUnUoUt": 4196,
      "SUnUr": 4197,
      "SUnUs": 4198,
      "SUnUsUlog": 4199,
      "SUnUsUstring": 4200,
      "SUnUuUlUl": 4201,
      "SUnUuUm": 4202,
      "SUnUy": 4203,
      "SUna": 4204,
      "SUnaUn": 4205,
      "SUnach": 4206,
      "SUnachdem": 4207,
      "SUnacional": 4208,
      "SUnad": 4209,
      "SUnag": 4210,
      "SUnaj": 4211,
      "SUnak": 4212,
      "SUnam": 4213,
      "SUname": 4214,
      "SUnamen": 4215,
      "SUnames": 4216,
      "SUnan": 4217,
      "SUnancy": 4218,
      "SUnap": 4219,
      "SUnapole": 4220,
      "SUnapoleon": 4221,
      "SUnapoli": 4222,
      "SUnar": 4223,
      "SUnarod": 4224,
      "SUnas": 4225,
      "SUnash": 4226,
      "SUnat": 4227,
      "SUnatal": 4228,
      "SUnathan": 4229,
      "SUnation": 4230,
      "SUnational": 4231,
      "SUnations": 4232,
      "SUnative": 4233,
      "SUnatur": 4234,
      "SUnatural": 4235,
      "SUnature": 4236,
      "SUnau": 4237,
      "SUnav": 4238,
      "SUnaval": 4239,
      "SUnavar": 4240,
      "SUnavigation": 4241,
      "SUnavy": 4242,
      "SUnaz": 4243,
      "SUnazionale": 4244,
      "SUne": 4245,
      "SUnear": 4246,
      "SUneb": 4247,
      "SUneben": 4248,
      "SUned": 4249,
      "SUneder": 4250,
      "SUnederland": 4251,
      "SUnederlandse": 4252,
      "SUneed": 4253,
      "SUneg": 4254,
      "SUneil": 4255,
      "SUnel": 4256,
      "SUnell": 4257,
      "SUnella": 4258,
      "SUnelson": 4259,
      "SUnem": 4260,
      "SUnep": 4261,
      "SUnet": 4262,
      "SUnether": 4263,
      "SUnetherlands": 4264,
      "SUnetwork": 4265,
      "SUneu": 4266,
      "SUneue": 4267,
      "SUnev": 4268,
      "SUnever": 4269,
      "SUnevertheless": 4270,
      "SUnew": 4271,
      "SUnews": 4272,
      "SUnewton": 4273,
      "SUnext": 4274,
      "SUng": 4275,
      "SUni": 4276,
      "SUnic": 4277,
      "SUnice": 4278,
      "SUnich": 4279,
      "SUnicholas": 4280,
      "SUnick": 4281,
      "SUnicol": 4282,
      "SUnicola": 4283,
      "SUnicolas": 4284,
      "SUnie": 4285,
      "SUnied": 4286,
      "SUnieder": 4287,
      "SUniem": 4288,
      "SUniger": 4289,
      "SUnight": 4290,
      "SUnik": 4291,
      "SUnikol": 4292,
      "SUnil": 4293,
      "SUnin": 4294,
      "SUno": 4295,
      "SUnob": 4296,
      "SUnobel": 4297,
      "SUnode": 4298,
      "SUnom": 4299,
      "SUnon": 4300,
      "SUnone": 4301,
      "SUnor": 4302,
      "SUnord": 4303,
      "SUnorden": 4304,
      "SUnorm": 4305,
      "SUnormal": 4306,
      "SUnorman": 4307,
      "SUnormdatei": 4308,
      "SUnormdaten": 4309,
      "SUnorte": 4310,
      "SUnorth": 4311,
      "SUnorthern": 4312,
      "SUnorway": 4313,
      "SUnorweg": 4314,
      "SUnorwegian": 4315,
      "SUnot": 4316,
      "SUnotable": 4317,
      "SUnote": 4318,
      "SUnotes": 4319,
      "SUnothing": 4320,
      "SUnotice": 4321,
      "SUnotices": 4322,
      "SUnotification": 4323,
      "SUnotre": 4324,
      "SUnouvelle": 4325,
      "SUnov": 4326,
      "SUnova": 4327,
      "SUnovember": 4328,
      "SUnow": 4329,
      "SUnr": 4330,
      "SUnu": 4331,
      "SUnue": 4332,
      "SUnueva": 4333,
      "SUnull": 4334,
      "SUnum": 4335,
      "SUnumber": 4336,
      "SUnur": 4337,
      "SUny": 4338,
      "SUo": 4339,
      "SUoUcUlUc": 4340,
      "SUoUf": 4341,
      "SUoUk": 4342,
      "SUoUn": 4343,
      "SUoUp": 4344,
      "SUoUr": 4345,
      "SUoUrUdUeUr": 4346,
      "SUoUs": 4347,
      "SUoUuUt": 4348,
      "SUoak": 4349,
      "SUob": 4350,
      "SUober": 4351,
      "SUobject": 4352,
      "SUobserv": 4353,
      "SUobservable": 4354,
      "SUobviously": 4355,
      "SUocc": 4356,
      "SUocean": 4357,
      "SUoct": 4358,
      "SUoctober": 4359,
      "SUod": 4360,
      "SUodkazy": 4361,
      "SUof": 4362,
      "SUoff": 4363,
      "SUoffic": 4364,
      "SUoffice": 4365,
      "SUofficer": 4366,
      "SUofficial": 4367,
      "SUoffiz": 4368,
      "SUoficina": 4369,
      "SUog": 4370,
      "SUoh": 4371,
      "SUohio": 4372,
      "SUok": 4373,
      "SUokay": 4374,
      "SUoklahoma": 4375,
      "SUoktober": 4376,
      "SUol": 4377,
      "SUold": 4378,
      "SUole": 4379,
      "SUolimp": 4380,
      "SUoliv": 4381,
      "SUoliver": 4382,
      "SUolymp": 4383,
      "SUolympedia": 4384,
      "SUolympic": 4385,
      "SUolympics": 4386,
      "SUom": 4387,
      "SUon": 4388,
      "SUonce": 4389,
      "SUone": 4390,
      "SUonline": 4391,
      "SUonly": 4392,
      "SUont": 4393,
      "SUontario": 4394,
      "SUook": 4395,
      "SUop": 4396,
      "SUopen": 4397,
      "SUopenUgUl": 4398,
      "SUoper": 4399,
      "SUopera": 4400,
      "SUoperation": 4401,
      "SUopt": 4402,
      "SUoption": 4403,
      "SUoptional": 4404,
      "SUoptions": 4405,
      "SUor": 4406,
      "SUoracle": 4407,
      "SUorange": 4408,
      "SUorchestra": 4409,
      "SUord": 4410,
      "SUorder": 4411,
      "SUoregon": 4412,
      "SUorgan": 4413,
      "SUorganisation": 4414,
      "SUori": 4415,
      "SUorient": 4416,
      "SUoriental": 4417,
      "SUorig": 4418,
      "SUorigin": 4419,
      "SUoriginal": 4420,
      "SUoriginals": 4421,
      "SUorleans": 4422,
      "SUort": 4423,
      "SUorth": 4424,
      "SUorts": 4425,
      "SUortste": 4426,
      "SUos": 4427,
      "SUoscar": 4428,
      "SUost": 4429,
      "SUosten": 4430,
      "SUot": 4431,
      "SUother": 4432,
      "SUotherwise": 4433,
      "SUott": 4434,
      "SUotto": 4435,
      "SUour": 4436,
      "SUout": 4437,
      "SUoutput": 4438,
      "SUover": 4439,
      "SUoverflow": 4440,
      "SUox": 4441,
      "SUoxford": 4442,
      "SUp": 4443,
      "SUpUa": 4444,
      "SUpUaUtUh": 4445,
      "SUpUc": 4446,
      "SUpUdUf": 4447,
      "SUpUdUo": 4448,
      "SUpUhUp": 4449,
      "SUpUk": 4450,
      "SUpUl": 4451,
      "SUpUm": 4452,
      "SUpUmUiUd": 4453,
      "SUpUo": 4454,
      "SUpUoUsUt": 4455,
      "SUpUr": 4456,
      "SUpUrUiUmUaUrUy": 4457,
      "SUpUrUo": 4458,
      "SUpUs": 4459,
      "SUpa": 4460,
      "SUpablo": 4461,
      "SUpac": 4462,
      "SUpacific": 4463,
      "SUpack": 4464,
      "SUpackage": 4465,
      "SUpad": 4466,
      "SUpage": 4467,
      "SUpak": 4468,
      "SUpakistan": 4469,
      "SUpal": 4470,
      "SUpala": 4471,
      "SUpalace": 4472,
      "SUpale": 4473,
      "SUpalest": 4474,
      "SUpalmar": 4475,
      "SUpam": 4476,
      "SUpan": 4477,
      "SUpaolo": 4478,
      "SUpap": 4479,
      "SUpapa": 4480,
      "SUpar": 4481,
      "SUpara": 4482,
      "SUparad": 4483,
      "SUparam": 4484,
      "SUparameter": 4485,
      "SUparent": 4486,
      "SUparis": 4487,
      "SUpark": 4488,
      "SUparker": 4489,
      "SUparlament": 4490,
      "SUparliament": 4491,
      "SUparse": 4492,
      "SUpart": 4493,
      "SUparte": 4494,
      "SUpartei": 4495,
      "SUparti": 4496,
      "SUpartido": 4497,
      "SUparty": 4498,
      "SUpas": 4499,
      "SUpascal": 4500,
      "SUpass": 4501,
      "SUpassword": 4502,
      "SUpast": 4503,
      "SUpat": 4504,
      "SUpath": 4505,
      "SUpatri": 4506,
      "SUpatrick": 4507,
      "SUpattern": 4508,
      "SUpaul": 4509,
      "SUpaulo": 4510,
      "SUpav": 4511,
      "SUpay": 4512,
      "SUpays": 4513,
      "SUpaz": 4514,
      "SUpe": 4515,
      "SUpeace": 4516,
      "SUpear": 4517,
      "SUped": 4518,
      "SUpedro": 4519,
      "SUpeg": 4520,
      "SUpel": 4521,
      "SUpen": 4522,
      "SUpennsylvan": 4523,
      "SUpennsylvania": 4524,
      "SUpent": 4525,
      "SUpeople": 4526,
      "SUper": 4527,
      "SUpere": 4528,
      "SUperform": 4529,
      "SUperformance": 4530,
      "SUperhaps": 4531,
      "SUperiod": 4532,
      "SUperl": 4533,
      "SUperm": 4534,
      "SUpero": 4535,
      "SUperry": 4536,
      "SUpers": 4537,
      "SUperson": 4538,
      "SUpersonal": 4539,
      "SUpersonen": 4540,
      "SUperu": 4541,
      "SUpet": 4542,
      "SUpeter": 4543,
      "SUpeters": 4544,
      "SUpetersburg": 4545,
      "SUpf": 4546,
      "SUpfarr": 4547,
      "SUpfl": 4548,
      "SUph": 4549,
      "SUphil": 4550,
      "SUphiladel": 4551,
      "SUphiladelphia": 4552,
      "SUphili": 4553,
      "SUphilip": 4554,
      "SUphilipp": 4555,
      "SUphilippe": 4556,
      "SUphilippines": 4557,
      "SUphill": 4558,
      "SUphilosoph": 4559,
      "SUpho": 4560,
      "SUphoenix": 4561,
      "SUphone": 4562,
      "SUphot": 4563,
      "SUphys": 4564,
      "SUphysics": 4565,
      "SUpi": 4566,
      "SUpia": 4567,
      "SUpic": 4568,
      "SUpick": 4569,
      "SUpicture": 4570,
      "SUpictures": 4571,
      "SUpie": 4572,
      "SUpier": 4573,
      "SUpierre": 4574,
      "SUpiet": 4575,
      "SUpietro": 4576,
      "SUpil": 4577,
      "SUpin": 4578,
      "SUpir": 4579,
      "SUpit": 4580,
      "SUpitt": 4581,
      "SUpitts": 4582,
      "SUpl": 4583,
      "SUpla": 4584,
      "SUplace": 4585,
      "SUplaces": 4586,
      "SUplan": 4587,
      "SUplanet": 4588,
      "SUplant": 4589,
      "SUplat": 4590,
      "SUplatform": 4591,
      "SUplatz": 4592,
      "SUplay": 4593,
      "SUplayer": 4594,
      "SUple": 4595,
      "SUplease": 4596,
      "SUplot": 4597,
      "SUplus": 4598,
      "SUpo": 4599,
      "SUpod": 4600,
      "SUpoint": 4601,
      "SUpok": 4602,
      "SUpol": 4603,
      "SUpoland": 4604,
      "SUpolen": 4605,
      "SUpolice": 4606,
      "SUpolicy": 4607,
      "SUpolish": 4608,
      "SUpolit": 4609,
      "SUpolitical": 4610,
      "SUpolitik": 4611,
      "SUpolitiker": 4612,
      "SUpologne": 4613,
      "SUpolsce": 4614,
      "SUpolski": 4615,
      "SUpoly": 4616,
      "SUpom": 4617,
      "SUpon": 4618,
      "SUpont": 4619,
      "SUpool": 4620,
      "SUpop": 4621,
      "SUpope": 4622,
      "SUpopular": 4623,
      "SUpopulation": 4624,
      "SUpor": 4625,
      "SUport": 4626,
      "SUportal": 4627,
      "SUporto": 4628,
      "SUportug": 4629,
      "SUportugal": 4630,
      "SUportuguese": 4631,
      "SUpos": 4632,
      "SUposition": 4633,
      "SUposs": 4634,
      "SUpossible": 4635,
      "SUpost": 4636,
      "SUpot": 4637,
      "SUpour": 4638,
      "SUpow": 4639,
      "SUpower": 4640,
      "SUpoz": 4641,
      "SUpr": 4642,
      "SUpra": 4643,
      "SUpract": 4644,
      "SUprag": 4645,
      "SUpraha": 4646,
      "SUpre": 4647,
      "SUpred": 4648,
      "SUpref": 4649,
      "SUpreis": 4650,
      "SUprem": 4651,
      "SUpremier": 4652,
      "SUpremio": 4653,
      "SUpres": 4654,
      "SUpresident": 4655,
      "SUpresidente": 4656,
      "SUpress": 4657,
      "SUpri": 4658,
      "SUprice": 4659,
      "SUprim": 4660,
      "SUprima": 4661,
      "SUprimary": 4662,
      "SUprime": 4663,
      "SUprimera": 4664,
      "SUprin": 4665,
      "SUprince": 4666,
      "SUprincess": 4667,
      "SUprinci": 4668,
      "SUprint": 4669,
      "SUprior": 4670,
      "SUpriv": 4671,
      "SUprivate": 4672,
      "SUprix": 4673,
      "SUprize": 4674,
      "SUpro": 4675,
      "SUprobably": 4676,
      "SUproblem": 4677,
      "SUprocess": 4678,
      "SUprodu": 4679,
      "SUproduct": 4680,
      "SUproduction": 4681,
      "SUprof": 4682,
      "SUprofessional": 4683,
      "SUprofessor": 4684,
      "SUprofil": 4685,
      "SUprofile": 4686,
      "SUprogram": 4687,
      "SUprogress": 4688,
      "SUproject": 4689,
      "SUprojekt": 4690,
      "SUprom": 4691,
      "SUpromise": 4692,
      "SUproof": 4693,
      "SUprop": 4694,
      "SUproperties": 4695,
      "SUproperty": 4696,
      "SUproposition": 4697,
      "SUprote": 4698,
      "SUprotest": 4699,
      "SUprov": 4700,
      "SUprovin": 4701,
      "SUprovince": 4702,
      "SUprovinz": 4703,
      "SUprozent": 4704,
      "SUprz": 4705,
      "SUprzyp": 4706,
      "SUprzypisy": 4707,
      "SUps": 4708,
      "SUpse": 4709,
      "SUpseud": 4710,
      "SUpsych": 4711,
      "SUpu": 4712,
      "SUpub": 4713,
      "SUpublic": 4714,
      "SUpublications": 4715,
      "SUpublish": 4716,
      "SUpublishing": 4717,
      "SUpuerto": 4718,
      "SUpul": 4719,
      "SUpunk": 4720,
      "SUpur": 4721,
      "SUput": 4722,
      "SUpy": 4723,
      "SUpython": 4724,
      "SUq": 4725,
      "SUqt": 4726,
      "SUqu": 4727,
      "SUqual": 4728,
      "SUquando": 4729,
      "SUquant": 4730,
      "SUquart": 4731,
      "SUque": 4732,
      "SUquebec": 4733,
      "SUqueen": 4734,
      "SUqueens": 4735,
      "SUqueensland": 4736,
      "SUquellen": 4737,
      "SUquery": 4738,
      "SUquestion": 4739,
      "SUquick": 4740,
      "SUquint": 4741,
      "SUr": 4742,
      "SUrUa": 4743,
      "SUrUaUm": 4744,
      "SUrUc": 4745,
      "SUrUe": 4746,
      "SUrUeUsUt": 4747,
      "SUrUeUt": 4748,
      "SUrUo": 4749,
      "SUrUuUn": 4750,
      "SUra": 4751,
      "SUrab": 4752,
      "SUrace": 4753,
      "SUrach": 4754,
      "SUracing": 4755,
      "SUrad": 4756,
      "SUradio": 4757,
      "SUraf": 4758,
      "SUrafael": 4759,
      "SUrah": 4760,
      "SUrahmen": 4761,
      "SUrail": 4762,
      "SUrails": 4763,
      "SUrailway": 4764,
      "SUrain": 4765,
      "SUraj": 4766,
      "SUrak": 4767,
      "SUralph": 4768,
      "SUram": 4769,
      "SUran": 4770,
      "SUrand": 4771,
      "SUrandom": 4772,
      "SUrang": 4773,
      "SUrange": 4774,
      "SUrank": 4775,
      "SUrap": 4776,
      "SUras": 4777,
      "SUrat": 4778,
      "SUraum": 4779,
      "SUrav": 4780,
      "SUraw": 4781,
      "SUray": 4782,
      "SUraymond": 4783,
      "SUraz": 4784,
      "SUre": 4785,
      "SUreact": 4786,
      "SUread": 4787,
      "SUreading": 4788,
      "SUreal": 4789,
      "SUreb": 4790,
      "SUrec": 4791,
      "SUrece": 4792,
      "SUrecht": 4793,
      "SUrechts": 4794,
      "SUrecord": 4795,
      "SUrecords": 4796,
      "SUrect": 4797,
      "SUred": 4798,
      "SUref": 4799,
      "SUrefer": 4800,
      "SUreference": 4801,
      "SUreferences": 4802,
      "SUreferencias": 4803,
      "SUreform": 4804,
      "SUreg": 4805,
      "SUregarding": 4806,
      "SUregex": 4807,
      "SUregie": 4808,
      "SUregierung": 4809,
      "SUregiment": 4810,
      "SUregin": 4811,
      "SUregion": 4812,
      "SUregional": 4813,
      "SUregister": 4814,
      "SUreich": 4815,
      "SUreichs": 4816,
      "SUrein": 4817,
      "SUreino": 4818,
      "SUrel": 4819,
      "SUrelease": 4820,
      "SUrelig": 4821,
      "SUreligion": 4822,
      "SUrem": 4823,
      "SUremember": 4824,
      "SUremove": 4825,
      "SUren": 4826,
      "SUrena": 4827,
      "SUrenaissance": 4828,
      "SUrender": 4829,
      "SUrep": 4830,
      "SUreplace": 4831,
      "SUreport": 4832,
      "SUrepresent": 4833,
      "SUrepresentatives": 4834,
      "SUrepub": 4835,
      "SUrepublic": 4836,
      "SUrepublican": 4837,
      "SUrepublik": 4838,
      "SUrequest": 4839,
      "SUres": 4840,
      "SUresearch": 4841,
      "SUreserve": 4842,
      "SUresol": 4843,
      "SUresource": 4844,
      "SUresources": 4845,
      "SUresponse": 4846,
      "SUress": 4847,
      "SUressource": 4848,
      "SUressources": 4849,
      "SUrest": 4850,
      "SUresult": 4851,
      "SUresults": 4852,
      "SUret": 4853,
      "SUretrie": 4854,
      "SUretrieved": 4855,
      "SUreturn": 4856,
      "SUreturns": 4857,
      "SUrev": 4858,
      "SUreview": 4859,
      "SUrevol": 4860,
      "SUrevolution": 4861,
      "SUrewrite": 4862,
      "SUrewriteUcond": 4863,
      "SUrewriteUrule": 4864,
      "SUrey": 4865,
      "SUreyn": 4866,
      "SUrh": 4867,
      "SUrhein": 4868,
      "SUri": 4869,
      "SUrib": 4870,
      "SUric": 4871,
      "SUrica": 4872,
      "SUrich": 4873,
      "SUrichard": 4874,
      "SUrichmond": 4875,
      "SUrichtung": 4876,
      "SUrick": 4877,
      "SUrico": 4878,
      "SUriemann": 4879,
      "SUright": 4880,
      "SUrights": 4881,
      "SUring": 4882,
      "SUrio": 4883,
      "SUris": 4884,
      "SUritter": 4885,
      "SUriv": 4886,
      "SUriver": 4887,
      "SUro": 4888,
      "SUroad": 4889,
      "SUrob": 4890,
      "SUrobert": 4891,
      "SUroberto": 4892,
      "SUroberts": 4893,
      "SUrobin": 4894,
      "SUrobinson": 4895,
      "SUroc": 4896,
      "SUrock": 4897,
      "SUrod": 4898,
      "SUrog": 4899,
      "SUroger": 4900,
      "SUrol": 4901,
      "SUroland": 4902,
      "SUroll": 4903,
      "SUrolle": 4904,
      "SUrom": 4905,
      "SUroma": 4906,
      "SUroman": 4907,
      "SUrome": 4908,
      "SUron": 4909,
      "SUroom": 4910,
      "SUroot": 4911,
      "SUros": 4912,
      "SUrosa": 4913,
      "SUrose": 4914,
      "SUrosen": 4915,
      "SUross": 4916,
      "SUrost": 4917,
      "SUrot": 4918,
      "SUroth": 4919,
      "SUrotten": 4920,
      "SUrou": 4921,
      "SUround": 4922,
      "SUrout": 4923,
      "SUroute": 4924,
      "SUrow": 4925,
      "SUroy": 4926,
      "SUroyal": 4927,
      "SUru": 4928,
      "SUrub": 4929,
      "SUruby": 4930,
      "SUrud": 4931,
      "SUrudolf": 4932,
      "SUrugby": 4933,
      "SUrule": 4934,
      "SUrum": 4935,
      "SUrun": 4936,
      "SUrund": 4937,
      "SUrunning": 4938,
      "SUruntime": 4939,
      "SUrus": 4940,
      "SUruss": 4941,
      "SUrussell": 4942,
      "SUrussia": 4943,
      "SUrussian": 4944,
      "SUruth": 4945,
      "SUry": 4946,
      "SUryan": 4947,
      "SUs": 4948,
      "SUsUa": 4949,
      "SUsUc": 4950,
      "SUsUd": 4951,
      "SUsUdUk": 4952,
      "SUsUe": 4953,
      "SUsUeUlUeUcUt": 4954,
      "SUsUeUr": 4955,
      "SUsUeUt": 4956,
      "SUsUf": 4957,
      "SUsUh": 4958,
      "SUsUi": 4959,
      "SUsUk": 4960,
      "SUsUl": 4961,
      "SUsUm": 4962,
      "SUsUn": 4963,
      "SUsUo": 4964,
      "SUsUp": 4965,
      "SUsUqUl": 4966,
      "SUsUqUlite": 4967,
      "SUsUr": 4968,
      "SUsUs": 4969,
      "SUsUsUh": 4970,
      "SUsUsUl": 4971,
      "SUsUt": 4972,
      "SUsUtUr": 4973,
      "SUsUu": 4974,
      "SUsUuUb": 4975,
      "SUsUuUm": 4976,
      "SUsUv": 4977,
      "SUsUw": 4978,
      "SUsUy": 4979,
      "SUsa": 4980,
      "SUsab": 4981,
      "SUsac": 4982,
      "SUsach": 4983,
      "SUsachsen": 4984,
      "SUsad": 4985,
      "SUsaf": 4986,
      "SUsafari": 4987,
      "SUsah": 4988,
      "SUsain": 4989,
      "SUsaint": 4990,
      "SUsainte": 4991,
      "SUsaison": 4992,
      "SUsak": 4993,
      "SUsal": 4994,
      "SUsales": 4995,
      "SUsalt": 4996,
      "SUsalv": 4997,
      "SUsalvador": 4998,
      "SUsam": 4999,
      "SUsame": 5000,
      "SUsammlung": 5001,
      "SUsample": 5002,
      "SUsamuel": 5003,
      "SUsan": 5004,
      "SUsand": 5005,
      "SUsang": 5006,
      "SUsank": 5007,
      "SUsans": 5008,
      "SUsant": 5009,
      "SUsanta": 5010,
      "SUsanti": 5011,
      "SUsantiago": 5012,
      "SUsanto": 5013,
      "SUsantos": 5014,
      "SUsar": 5015,
      "SUsarah": 5016,
      "SUsat": 5017,
      "SUsaturday": 5018,
      "SUsau": 5019,
      "SUsav": 5020,
      "SUsave": 5021,
      "SUsax": 5022,
      "SUsay": 5023,
      "SUsc": 5024,
      "SUscala": 5025,
      "SUscanner": 5026,
      "SUsch": 5027,
      "SUschaus": 5028,
      "SUschauspieler": 5029,
      "SUsche": 5030,
      "SUschiff": 5031,
      "SUschl": 5032,
      "SUschles": 5033,
      "SUschloss": 5034,
      "SUschmidt": 5035,
      "SUschne": 5036,
      "SUschool": 5037,
      "SUschrift": 5038,
      "SUschriftsteller": 5039,
      "SUschul": 5040,
      "SUschule": 5041,
      "SUschutz": 5042,
      "SUschw": 5043,
      "SUschwar": 5044,
      "SUschwe": 5045,
      "SUschweiz": 5046,
      "SUschweizer": 5047,
      "SUsci": 5048,
      "SUscience": 5049,
      "SUsciences": 5050,
      "SUscient": 5051,
      "SUscot": 5052,
      "SUscotland": 5053,
      "SUscott": 5054,
      "SUscottish": 5055,
      "SUscreen": 5056,
      "SUscript": 5057,
      "SUscroll": 5058,
      "SUse": 5059,
      "SUsea": 5060,
      "SUsearch": 5061,
      "SUseason": 5062,
      "SUseattle": 5063,
      "SUseb": 5064,
      "SUsebast": 5065,
      "SUsebastian": 5066,
      "SUsec": 5067,
      "SUsecond": 5068,
      "SUsecret": 5069,
      "SUsecretary": 5070,
      "SUsection": 5071,
      "SUsecurity": 5072,
      "SUsed": 5073,
      "SUsee": 5074,
      "SUseems": 5075,
      "SUseg": 5076,
      "SUsegunda": 5077,
      "SUsein": 5078,
      "SUseine": 5079,
      "SUseit": 5080,
      "SUseite": 5081,
      "SUseiten": 5082,
      "SUsel": 5083,
      "SUselbst": 5084,
      "SUsele": 5085,
      "SUselect": 5086,
      "SUselected": 5087,
      "SUselection": 5088,
      "SUself": 5089,
      "SUselon": 5090,
      "SUsem": 5091,
      "SUsen": 5092,
      "SUsenate": 5093,
      "SUsenator": 5094,
      "SUsend": 5095,
      "SUsenior": 5096,
      "SUsent": 5097,
      "SUsep": 5098,
      "SUsept": 5099,
      "SUseptember": 5100,
      "SUseq": 5101,
      "SUser": 5102,
      "SUserge": 5103,
      "SUserial": 5104,
      "SUserie": 5105,
      "SUseries": 5106,
      "SUserv": 5107,
      "SUserver": 5108,
      "SUservice": 5109,
      "SUservices": 5110,
      "SUses": 5111,
      "SUsession": 5112,
      "SUset": 5113,
      "SUsetting": 5114,
      "SUsettings": 5115,
      "SUseven": 5116,
      "SUsever": 5117,
      "SUseveral": 5118,
      "SUsex": 5119,
      "SUsh": 5120,
      "SUshah": 5121,
      "SUshakespe": 5122,
      "SUshakespeare": 5123,
      "SUshang": 5124,
      "SUshare": 5125,
      "SUshared": 5126,
      "SUshaw": 5127,
      "SUshe": 5128,
      "SUsher": 5129,
      "SUshin": 5130,
      "SUsho": 5131,
      "SUshort": 5132,
      "SUshould": 5133,
      "SUshow": 5134,
      "SUsi": 5135,
      "SUsib": 5136,
      "SUsic": 5137,
      "SUsid": 5138,
      "SUside": 5139,
      "SUsie": 5140,
      "SUsied": 5141,
      "SUsieg": 5142,
      "SUsiehe": 5143,
      "SUsierra": 5144,
      "SUsig": 5145,
      "SUsign": 5146,
      "SUsil": 5147,
      "SUsilva": 5148,
      "SUsilver": 5149,
      "SUsim": 5150,
      "SUsimilar": 5151,
      "SUsimilarly": 5152,
      "SUsimon": 5153,
      "SUsimple": 5154,
      "SUsin": 5155,
      "SUsince": 5156,
      "SUsing": 5157,
      "SUsingap": 5158,
      "SUsingapore": 5159,
      "SUsingh": 5160,
      "SUsingle": 5161,
      "SUsingles": 5162,
      "SUsint": 5163,
      "SUsir": 5164,
      "SUsister": 5165,
      "SUsit": 5166,
      "SUsite": 5167,
      "SUsitu": 5168,
      "SUsitz": 5169,
      "SUsix": 5170,
      "SUsize": 5171,
      "SUsk": 5172,
      "SUski": 5173,
      "SUsky": 5174,
      "SUsl": 5175,
      "SUslo": 5176,
      "SUslov": 5177,
      "SUsloven": 5178,
      "SUsm": 5179,
      "SUsmall": 5180,
      "SUsmith": 5181,
      "SUsn": 5182,
      "SUsnow": 5183,
      "SUso": 5184,
      "SUsob": 5185,
      "SUsoc": 5186,
      "SUsoccer": 5187,
      "SUsoci": 5188,
      "SUsocial": 5189,
      "SUsociety": 5190,
      "SUsocket": 5191,
      "SUsof": 5192,
      "SUsoftware": 5193,
      "SUsohn": 5194,
      "SUsol": 5195,
      "SUsold": 5196,
      "SUsolo": 5197,
      "SUsolution": 5198,
      "SUsom": 5199,
      "SUsome": 5200,
      "SUsomething": 5201,
      "SUsometimes": 5202,
      "SUsommer": 5203,
      "SUson": 5204,
      "SUsong": 5205,
      "SUsongs": 5206,
      "SUsony": 5207,
      "SUsoph": 5208,
      "SUsor": 5209,
      "SUsorry": 5210,
      "SUsort": 5211,
      "SUsou": 5212,
      "SUsoul": 5213,
      "SUsound": 5214,
      "SUsource": 5215,
      "SUsouth": 5216,
      "SUsouthern": 5217,
      "SUsov": 5218,
      "SUsoviet": 5219,
      "SUsozial": 5220,
      "SUsp": 5221,
      "SUspace": 5222,
      "SUspain": 5223,
      "SUspan": 5224,
      "SUspanish": 5225,
      "SUspark": 5226,
      "SUspart": 5227,
      "SUspe": 5228,
      "SUspec": 5229,
      "SUspecial": 5230,
      "SUspecies": 5231,
      "SUspecific": 5232,
      "SUspecifically": 5233,
      "SUspect": 5234,
      "SUspeed": 5235,
      "SUspider": 5236,
      "SUspiel": 5237,
      "SUspieler": 5238,
      "SUspirit": 5239,
      "SUsplit": 5240,
      "SUspo": 5241,
      "SUsport": 5242,
      "SUsports": 5243,
      "SUspr": 5244,
      "SUsprache": 5245,
      "SUspring": 5246,
      "SUspringer": 5247,
      "SUsql": 5248,
      "SUsquad": 5249,
      "SUsquadron": 5250,
      "SUsquare": 5251,
      "SUsr": 5252,
      "SUsri": 5253,
      "SUst": 5254,
      "SUsta": 5255,
      "SUstaat": 5256,
      "SUstaaten": 5257,
      "SUstaats": 5258,
      "SUstack": 5259,
      "SUstad": 5260,
      "SUstadium": 5261,
      "SUstadt": 5262,
      "SUstaff": 5263,
      "SUstage": 5264,
      "SUstan": 5265,
      "SUstand": 5266,
      "SUstandard": 5267,
      "SUstanis": 5268,
      "SUstanley": 5269,
      "SUstar": 5270,
      "SUstars": 5271,
      "SUstart": 5272,
      "SUstarting": 5273,
      "SUstat": 5274,
      "SUstate": 5275,
      "SUstates": 5276,
      "SUstati": 5277,
      "SUstation": 5278,
      "SUstatist": 5279,
      "SUstatistics": 5280,
      "SUstato": 5281,
      "SUstatus": 5282,
      "SUste": 5283,
      "SUstef": 5284,
      "SUstefan": 5285,
      "SUstein": 5286,
      "SUstep": 5287,
      "SUsteph": 5288,
      "SUstephen": 5289,
      "SUster": 5290,
      "SUstern": 5291,
      "SUsteve": 5292,
      "SUsteven": 5293,
      "SUstevens": 5294,
      "SUstewart": 5295,
      "SUstill": 5296,
      "SUstim": 5297,
      "SUsto": 5298,
      "SUstock": 5299,
      "SUstockholm": 5300,
      "SUstone": 5301,
      "SUstop": 5302,
      "SUstorage": 5303,
      "SUstore": 5304,
      "SUstoria": 5305,
      "SUstorm": 5306,
      "SUstory": 5307,
      "SUstr": 5308,
      "SUstra": 5309,
      "SUstre": 5310,
      "SUstream": 5311,
      "SUstreet": 5312,
      "SUstring": 5313,
      "SUstringUbuilder": 5314,
      "SUstruct": 5315,
      "SUstu": 5316,
      "SUstuart": 5317,
      "SUstud": 5318,
      "SUstudent": 5319,
      "SUstudien": 5320,
      "SUstudies": 5321,
      "SUstudio": 5322,
      "SUstudios": 5323,
      "SUstudy": 5324,
      "SUstutt": 5325,
      "SUstuttgart": 5326,
      "SUstyle": 5327,
      "SUsu": 5328,
      "SUsub": 5329,
      "SUsuccess": 5330,
      "SUsuch": 5331,
      "SUsud": 5332,
      "SUsue": 5333,
      "SUsug": 5334,
      "SUsuisse": 5335,
      "SUsul": 5336,
      "SUsultan": 5337,
      "SUsum": 5338,
      "SUsummer": 5339,
      "SUsun": 5340,
      "SUsund": 5341,
      "SUsunday": 5342,
      "SUsup": 5343,
      "SUsuper": 5344,
      "SUsupp": 5345,
      "SUsupport": 5346,
      "SUsuppose": 5347,
      "SUsupreme": 5348,
      "SUsur": 5349,
      "SUsure": 5350,
      "SUsurvey": 5351,
      "SUsus": 5352,
      "SUsusan": 5353,
      "SUsv": 5354,
      "SUsvens": 5355,
      "SUsver": 5356,
      "SUsverige": 5357,
      "SUsw": 5358,
      "SUsweden": 5359,
      "SUswedish": 5360,
      "SUswift": 5361,
      "SUswiss": 5362,
      "SUswitch": 5363,
      "SUswitzerland": 5364,
      "SUsy": 5365,
      "SUsyd": 5366,
      "SUsydney": 5367,
      "SUsyl": 5368,
      "SUsym": 5369,
      "SUsymbol": 5370,
      "SUsyn": 5371,
      "SUsyntax": 5372,
      "SUsyst": 5373,
      "SUsystem": 5374,
      "SUsystems": 5375,
      "SUsz": 5376,
      "SUt": 5377,
      "SUtUaUbUlUe": 5378,
      "SUtUcUp": 5379,
      "SUtUe": 5380,
      "SUtUh": 5381,
      "SUtUhUe": 5382,
      "SUtUhUeUn": 5383,
      "SUtUlUs": 5384,
      "SUtUo": 5385,
      "SUtUoUdUo": 5386,
      "SUtUr": 5387,
      "SUtUrUuUe": 5388,
      "SUtUv": 5389,
      "SUta": 5390,
      "SUtab": 5391,
      "SUtable": 5392,
      "SUtag": 5393,
      "SUtage": 5394,
      "SUtags": 5395,
      "SUtai": 5396,
      "SUtaiwan": 5397,
      "SUtak": 5398,
      "SUtake": 5399,
      "SUtal": 5400,
      "SUtam": 5401,
      "SUtamb": 5402,
      "SUtan": 5403,
      "SUtang": 5404,
      "SUtar": 5405,
      "SUtarget": 5406,
      "SUtas": 5407,
      "SUtask": 5408,
      "SUtat": 5409,
      "SUtax": 5410,
      "SUtaylor": 5411,
      "SUte": 5412,
      "SUteam": 5413,
      "SUteams": 5414,
      "SUteatro": 5415,
      "SUtechn": 5416,
      "SUtechnology": 5417,
      "SUted": 5418,
      "SUteil": 5419,
      "SUtel": 5420,
      "SUtele": 5421,
      "SUtelevision": 5422,
      "SUtell": 5423,
      "SUtem": 5424,
      "SUtemp": 5425,
      "SUtemplate": 5426,
      "SUtemple": 5427,
      "SUten": 5428,
      "SUtennessee": 5429,
      "SUtennis": 5430,
      "SUter": 5431,
      "SUterm": 5432,
      "SUterminal": 5433,
      "SUterr": 5434,
      "SUterra": 5435,
      "SUterrit": 5436,
      "SUterry": 5437,
      "SUtest": 5438,
      "SUtestament": 5439,
      "SUtex": 5440,
      "SUtexas": 5441,
      "SUtext": 5442,
      "SUtextUview": 5443,
      "SUth": 5444,
      "SUthank": 5445,
      "SUthanks": 5446,
      "SUthat": 5447,
      "SUthe": 5448,
      "SUtheater": 5449,
      "SUtheatre": 5450,
      "SUtheir": 5451,
      "SUthen": 5452,
      "SUtheorem": 5453,
      "SUtheory": 5454,
      "SUther": 5455,
      "SUthere": 5456,
      "SUtherefore": 5457,
      "SUthese": 5458,
      "SUthey": 5459,
      "SUthings": 5460,
      "SUthink": 5461,
      "SUthird": 5462,
      "SUthis": 5463,
      "SUthom": 5464,
      "SUthomas": 5465,
      "SUthompson": 5466,
      "SUthor": 5467,
      "SUthose": 5468,
      "SUthough": 5469,
      "SUthread": 5470,
      "SUthree": 5471,
      "SUthrough": 5472,
      "SUthus": 5473,
      "SUti": 5474,
      "SUtib": 5475,
      "SUtier": 5476,
      "SUtig": 5477,
      "SUtill": 5478,
      "SUtim": 5479,
      "SUtime": 5480,
      "SUtimer": 5481,
      "SUtimes": 5482,
      "SUtir": 5483,
      "SUtit": 5484,
      "SUtitel": 5485,
      "SUtitle": 5486,
      "SUto": 5487,
      "SUtoast": 5488,
      "SUtob": 5489,
      "SUtochter": 5490,
      "SUtod": 5491,
      "SUtoday": 5492,
      "SUtok": 5493,
      "SUtoken": 5494,
      "SUtokyo": 5495,
      "SUtol": 5496,
      "SUtom": 5497,
      "SUtomatoes": 5498,
      "SUtommy": 5499,
      "SUton": 5500,
      "SUtony": 5501,
      "SUtool": 5502,
      "SUtools": 5503,
      "SUtop": 5504,
      "SUtor": 5505,
      "SUtoronto": 5506,
      "SUtorre": 5507,
      "SUtot": 5508,
      "SUtotal": 5509,
      "SUtouch": 5510,
      "SUtoul": 5511,
      "SUtour": 5512,
      "SUtourn": 5513,
      "SUtournament": 5514,
      "SUtout": 5515,
      "SUtow": 5516,
      "SUtower": 5517,
      "SUtown": 5518,
      "SUtownship": 5519,
      "SUtoy": 5520,
      "SUtr": 5521,
      "SUtra": 5522,
      "SUtrace": 5523,
      "SUtraceback": 5524,
      "SUtrack": 5525,
      "SUtrad": 5526,
      "SUtrade": 5527,
      "SUtrain": 5528,
      "SUtraining": 5529,
      "SUtrans": 5530,
      "SUtransfer": 5531,
      "SUtransfermarkt": 5532,
      "SUtransport": 5533,
      "SUtras": 5534,
      "SUtre": 5535,
      "SUtree": 5536,
      "SUtri": 5537,
      "SUtrib": 5538,
      "SUtried": 5539,
      "SUtro": 5540,
      "SUtrop": 5541,
      "SUtru": 5542,
      "SUtrue": 5543,
      "SUtrump": 5544,
      "SUtrust": 5545,
      "SUtry": 5546,
      "SUtrying": 5547,
      "SUts": 5548,
      "SUtsch": 5549,
      "SUtu": 5550,
      "SUtul": 5551,
      "SUtun": 5552,
      "SUtur": 5553,
      "SUturk": 5554,
      "SUturkey": 5555,
      "SUturkish": 5556,
      "SUturn": 5557,
      "SUturner": 5558,
      "SUtw": 5559,
      "SUtwe": 5560,
      "SUtwitter": 5561,
      "SUtwo": 5562,
      "SUty": 5563,
      "SUtyp": 5564,
      "SUtype": 5565,
      "SUtypeUerror": 5566,
      "SUtypes": 5567,
      "SUu": 5568,
      "SUuUe": 5569,
      "SUuUeUfUa": 5570,
      "SUuUi": 5571,
      "SUuUiUtableUview": 5572,
      "SUuUiUview": 5573,
      "SUuUk": 5574,
      "SUuUn": 5575,
      "SUuUnUiUoUn": 5576,
      "SUuUp": 5577,
      "SUuUpUdUaUtUe": 5578,
      "SUuUrUi": 5579,
      "SUuUrUl": 5580,
      "SUuUrUls": 5581,
      "SUuUs": 5582,
      "SUuUsUa": 5583,
      "SUuUsUb": 5584,
      "SUuUsUs": 5585,
      "SUuUtUc": 5586,
      "SUuUtUf": 5587,
      "SUubuntu": 5588,
      "SUuk": 5589,
      "SUukrain": 5590,
      "SUukraine": 5591,
      "SUul": 5592,
      "SUulrich": 5593,
      "SUult": 5594,
      "SUum": 5595,
      "SUun": 5596,
      "SUuna": 5597,
      "SUunable": 5598,
      "SUuncle": 5599,
      "SUund": 5600,
      "SUunder": 5601,
      "SUune": 5602,
      "SUunfortunately": 5603,
      "SUung": 5604,
      "SUunicode": 5605,
      "SUunidos": 5606,
      "SUunion": 5607,
      "SUunit": 5608,
      "SUunited": 5609,
      "SUuniti": 5610,
      "SUunits": 5611,
      "SUunity": 5612,
      "SUunivers": 5613,
      "SUuniversal": 5614,
      "SUuniversidad": 5615,
      "SUuniversity": 5616,
      "SUunix": 5617,
      "SUunless": 5618,
      "SUunter": 5619,
      "SUunternehmen": 5620,
      "SUunterscheidung": 5621,
      "SUuntil": 5622,
      "SUup": 5623,
      "SUupdate": 5624,
      "SUupdated": 5625,
      "SUupon": 5626,
      "SUupper": 5627,
      "SUur": 5628,
      "SUurban": 5629,
      "SUuri": 5630,
      "SUurs": 5631,
      "SUuruguay": 5632,
      "SUus": 5633,
      "SUuse": 5634,
      "SUuser": 5635,
      "SUusers": 5636,
      "SUusing": 5637,
      "SUusually": 5638,
      "SUut": 5639,
      "SUutil": 5640,
      "SUv": 5641,
      "SUvUaUl": 5642,
      "SUvUaUlUuUeUs": 5643,
      "SUvUaUrUcUhUaUr": 5644,
      "SUvUb": 5645,
      "SUvUbUa": 5646,
      "SUvUi": 5647,
      "SUvUiUaUf": 5648,
      "SUvUiUi": 5649,
      "SUvUiUiUi": 5650,
      "SUvUm": 5651,
      "SUvUs": 5652,
      "SUva": 5653,
      "SUval": 5654,
      "SUvalent": 5655,
      "SUvalid": 5656,
      "SUvall": 5657,
      "SUvalle": 5658,
      "SUvalley": 5659,
      "SUvalue": 5660,
      "SUvan": 5661,
      "SUvar": 5662,
      "SUvari": 5663,
      "SUvariable": 5664,
      "SUvas": 5665,
      "SUvater": 5666,
      "SUve": 5667,
      "SUvec": 5668,
      "SUvector": 5669,
      "SUveg": 5670,
      "SUvel": 5671,
      "SUven": 5672,
      "SUvenez": 5673,
      "SUvenezuela": 5674,
      "SUvent": 5675,
      "SUver": 5676,
      "SUverb": 5677,
      "SUverd": 5678,
      "SUvere": 5679,
      "SUverein": 5680,
      "SUverkehr": 5681,
      "SUverl": 5682,
      "SUverlag": 5683,
      "SUverm": 5684,
      "SUvern": 5685,
      "SUvers": 5686,
      "SUversion": 5687,
      "SUvert": 5688,
      "SUvertrag": 5689,
      "SUverwalt": 5690,
      "SUvery": 5691,
      "SUvi": 5692,
      "SUvia": 5693,
      "SUvic": 5694,
      "SUvice": 5695,
      "SUvict": 5696,
      "SUvictor": 5697,
      "SUvictoria": 5698,
      "SUvid": 5699,
      "SUvideo": 5700,
      "SUvideos": 5701,
      "SUvie": 5702,
      "SUvien": 5703,
      "SUvienna": 5704,
      "SUvier": 5705,
      "SUvietnam": 5706,
      "SUview": 5707,
      "SUvik": 5708,
      "SUvil": 5709,
      "SUvill": 5710,
      "SUvilla": 5711,
      "SUvillage": 5712,
      "SUville": 5713,
      "SUvin": 5714,
      "SUvincent": 5715,
      "SUvir": 5716,
      "SUvirgin": 5717,
      "SUvirginia": 5718,
      "SUvirtual": 5719,
      "SUvis": 5720,
      "SUvisual": 5721,
      "SUvit": 5722,
      "SUvitt": 5723,
      "SUviv": 5724,
      "SUvlad": 5725,
      "SUvladimir": 5726,
      "SUvo": 5727,
      "SUvoci": 5728,
      "SUvog": 5729,
      "SUvoid": 5730,
      "SUvoir": 5731,
      "SUvol": 5732,
      "SUvolk": 5733,
      "SUvolks": 5734,
      "SUvoll": 5735,
      "SUvolume": 5736,
      "SUvon": 5737,
      "SUvoor": 5738,
      "SUvor": 5739,
      "SUvors": 5740,
      "SUvue": 5741,
      "SUw": 5742,
      "SUwUcUf": 5743,
      "SUwUh": 5744,
      "SUwUhUeUn": 5745,
      "SUwUhUeUrUe": 5746,
      "SUwUiUtUh": 5747,
      "SUwUm": 5748,
      "SUwUpUf": 5749,
      "SUwa": 5750,
      "SUwagner": 5751,
      "SUwahl": 5752,
      "SUwait": 5753,
      "SUwal": 5754,
      "SUwald": 5755,
      "SUwales": 5756,
      "SUwalk": 5757,
      "SUwalker": 5758,
      "SUwall": 5759,
      "SUwalter": 5760,
      "SUwang": 5761,
      "SUwar": 5762,
      "SUward": 5763,
      "SUwarner": 5764,
      "SUwarning": 5765,
      "SUwarren": 5766,
      "SUwars": 5767,
      "SUwarsza": 5768,
      "SUwarszawa": 5769,
      "SUwas": 5770,
      "SUwashington": 5771,
      "SUwass": 5772,
      "SUwasser": 5773,
      "SUwat": 5774,
      "SUwatch": 5775,
      "SUwater": 5776,
      "SUwatson": 5777,
      "SUway": 5778,
      "SUwayback": 5779,
      "SUwayne": 5780,
      "SUwe": 5781,
      "SUweb": 5782,
      "SUweblinks": 5783,
      "SUwebsite": 5784,
      "SUwed": 5785,
      "SUweek": 5786,
      "SUweg": 5787,
      "SUwei": 5788,
      "SUwein": 5789,
      "SUweit": 5790,
      "SUweiter": 5791,
      "SUwel": 5792,
      "SUwelcome": 5793,
      "SUwell": 5794,
      "SUwelt": 5795,
      "SUweltkrie": 5796,
      "SUweltkrieg": 5797,
      "SUwend": 5798,
      "SUwer": 5799,
      "SUwerk": 5800,
      "SUwerke": 5801,
      "SUwerner": 5802,
      "SUwes": 5803,
      "SUwest": 5804,
      "SUwesten": 5805,
      "SUwestern": 5806,
      "SUwh": 5807,
      "SUwhat": 5808,
      "SUwhe": 5809,
      "SUwhen": 5810,
      "SUwhere": 5811,
      "SUwhether": 5812,
      "SUwhich": 5813,
      "SUwhile": 5814,
      "SUwhit": 5815,
      "SUwhite": 5816,
      "SUwho": 5817,
      "SUwhy": 5818,
      "SUwi": 5819,
      "SUwidget": 5820,
      "SUwidth": 5821,
      "SUwie": 5822,
      "SUwieder": 5823,
      "SUwiel": 5824,
      "SUwien": 5825,
      "SUwiener": 5826,
      "SUwies": 5827,
      "SUwik": 5828,
      "SUwikimedia": 5829,
      "SUwikip": 5830,
      "SUwikiped": 5831,
      "SUwikipedia": 5832,
      "SUwil": 5833,
      "SUwild": 5834,
      "SUwilhelm": 5835,
      "SUwill": 5836,
      "SUwille": 5837,
      "SUwilliam": 5838,
      "SUwilliams": 5839,
      "SUwilson": 5840,
      "SUwin": 5841,
      "SUwind": 5842,
      "SUwindow": 5843,
      "SUwindows": 5844,
      "SUwing": 5845,
      "SUwinter": 5846,
      "SUwir": 5847,
      "SUwirtschaft": 5848,
      "SUwis": 5849,
      "SUwisconsin": 5850,
      "SUwissenschaft": 5851,
      "SUwit": 5852,
      "SUwith": 5853,
      "SUwithin": 5854,
      "SUwithout": 5855,
      "SUwo": 5856,
      "SUwohn": 5857,
      "SUwoj": 5858,
      "SUwol": 5859,
      "SUwolf": 5860,
      "SUwolfgang": 5861,
      "SUwoman": 5862,
      "SUwomen": 5863,
      "SUwonder": 5864,
      "SUwood": 5865,
      "SUwor": 5866,
      "SUword": 5867,
      "SUwork": 5868,
      "SUworking": 5869,
      "SUworks": 5870,
      "SUworld": 5871,
      "SUworldUcat": 5872,
      "SUwort": 5873,
      "SUwould": 5874,
      "SUwrest": 5875,
      "SUwrestling": 5876,
      "SUwright": 5877,
      "SUwrit": 5878,
      "SUwrite": 5879,
      "SUwriting": 5880,
      "SUwu": 5881,
      "SUwy": 5882,
      "SUx": 5883,
      "SUxUi": 5884,
      "SUxUiUi": 5885,
      "SUxUiUiUi": 5886,
      "SUxUiUv": 5887,
      "SUxUiUx": 5888,
      "SUxUiUxe": 5889,
      "SUxUmUl": 5890,
      "SUxUp": 5891,
      "SUxUv": 5892,
      "SUxUvUi": 5893,
      "SUxUvUiUi": 5894,
      "SUxUvUiUiUi": 5895,
      "SUxUx": 5896,
      "SUxUxUx": 5897,
      "SUxcode": 5898,
      "SUxml": 5899,
      "SUy": 5900,
      "SUyUeUs": 5901,
      "SUya": 5902,
      "SUyam": 5903,
      "SUyan": 5904,
      "SUyang": 5905,
      "SUye": 5906,
      "SUyeah": 5907,
      "SUyear": 5908,
      "SUyears": 5909,
      "SUyes": 5910,
      "SUyet": 5911,
      "SUyork": 5912,
      "SUyou": 5913,
      "SUyouUtube": 5914,
      "SUyoung": 5915,
      "SUyour": 5916,
      "SUyouth": 5917,
      "SUyu": 5918,
      "SUz": 5919,
      "SUza": 5920,
      "SUzach": 5921,
      "SUzag": 5922,
      "SUzahl": 5923,
      "SUzak": 5924,
      "SUzam": 5925,
      "SUzar": 5926,
      "SUze": 5927,
      "SUzealand": 5928,
      "SUzeit": 5929,
      "SUzeitschrift": 5930,
      "SUzeitung": 5931,
      "SUzel": 5932,
      "SUzent": 5933,
      "SUzero": 5934,
      "SUzh": 5935,
      "SUzie": 5936,
      "SUziel": 5937,
      "SUzo": 5938,
      "SUzob": 5939,
      "SUzobacz": 5940,
      "SUzone": 5941,
      "SUzu": 5942,
      "SUzug": 5943,
      "SUzum": 5944,
      "SUzur": 5945,
      "SUzusammen": 5946,
      "SUzw": 5947,
      "SUzwe": 5948,
      "SUzweiten": 5949,
      "SUzwischen": 5950,
      "Sa": 5951,
      "Saa": 5952,
      "Saan": 5953,
      "Saantal": 5954,
      "Sab": 5955,
      "Sabandon": 5956,
      "Sabandoned": 5957,
      "Sabb": 5958,
      "Sabbre": 5959,
      "Sabc": 5960,
      "Saber": 5961,
      "Sabgerufen": 5962,
      "Sability": 5963,
      "Sabit": 5964,
      "Sabitanti": 5965,
      "Sable": 5966,
      "Sabol": 5967,
      "Sabort": 5968,
      "Sabout": 5969,
      "Sabove": 5970,
      "Sabril": 5971,
      "Sabroad": 5972,
      "Sabs": 5973,
      "Sabsence": 5974,
      "Sabsent": 5975,
      "Sabsol": 5976,
      "Sabsolute": 5977,
      "Sabsolutely": 5978,
      "Sabsolv": 5979,
      "Sabsor": 5980,
      "Sabstra": 5981,
      "Sabstract": 5982,
      "Sabund": 5983,
      "Saby": 5984,
      "Sac": 5985,
      "Sacab": 5986,
      "Sacadem": 5987,
      "Sacademic": 5988,
      "Sacc": 5989,
      "Sacceler": 5990,
      "Sacceleration": 5991,
      "Saccept": 5992,
      "Sacceptable": 5993,
      "Saccepted": 5994,
      "Saccepting": 5995,
      "Saccepts": 5996,
      "Saccess": 5997,
      "Saccessed": 5998,
      "Saccessible": 5999,
      "Saccessing": 6000,
      "Saccident": 6001,
      "Saccom": 6002,
      "Saccommod": 6003,
      "Saccomp": 6004,
      "Saccompan": 6005,
      "Saccompanied": 6006,
      "Saccompl": 6007,
      "Saccomplish": 6008,
      "Saccomplished": 6009,
      "Saccord": 6010,
      "Saccording": 6011,
      "Saccordingly": 6012,
      "Saccount": 6013,
      "Saccounts": 6014,
      "Saccum": 6015,
      "Saccur": 6016,
      "Saccuracy": 6017,
      "Saccurate": 6018,
      "Saccus": 6019,
      "Saccused": 6020,
      "Sace": 6021,
      "Sach": 6022,
      "Sachiev": 6023,
      "Sachieve": 6024,
      "Sachieved": 6025,
      "Sacht": 6026,
      "Sachter": 6027,
      "Sacid": 6028,
      "Sacknow": 6029,
      "Sacknowled": 6030,
      "Sacon": 6031,
      "Sacqu": 6032,
      "Sacquaint": 6033,
      "Sacquired": 6034,
      "Sacres": 6035,
      "Sacross": 6036,
      "Sact": 6037,
      "Sacted": 6038,
      "Sacting": 6039,
      "Saction": 6040,
      "Sactions": 6041,
      "Sactiv": 6042,
      "Sactivation": 6043,
      "Sactive": 6044,
      "Sactivities": 6045,
      "Sactivity": 6046,
      "Sactor": 6047,
      "Sactors": 6048,
      "Sactress": 6049,
      "Sacts": 6050,
      "Sactu": 6051,
      "Sactual": 6052,
      "Sactually": 6053,
      "Sad": 6054,
      "Sadapt": 6055,
      "Sadaptation": 6056,
      "Sadapted": 6057,
      "Sadapter": 6058,
      "Sadd": 6059,
      "Sadded": 6060,
      "Sadding": 6061,
      "Saddition": 6062,
      "Sadditional": 6063,
      "Saddr": 6064,
      "Saddress": 6065,
      "Saddressed": 6066,
      "Saddresses": 6067,
      "Sadds": 6068,
      "Sade": 6069,
      "Sadj": 6070,
      "Sadjacent": 6071,
      "Sadjust": 6072,
      "Sadm": 6073,
      "Sadmin": 6074,
      "Sadminist": 6075,
      "Sadministr": 6076,
      "Sadministration": 6077,
      "Sadministrative": 6078,
      "Sadministrator": 6079,
      "Sadmit": 6080,
      "Sadmitted": 6081,
      "Sadopt": 6082,
      "Sadopted": 6083,
      "Sadult": 6084,
      "Sadv": 6085,
      "Sadvance": 6086,
      "Sadvanced": 6087,
      "Sadvantage": 6088,
      "Sadvantages": 6089,
      "Sadvent": 6090,
      "Sadvers": 6091,
      "Sadvert": 6092,
      "Sadvice": 6093,
      "Sadvis": 6094,
      "Sadvise": 6095,
      "Sadvoc": 6096,
      "Saer": 6097,
      "Saf": 6098,
      "Saff": 6099,
      "Saffair": 6100,
      "Saffairs": 6101,
      "Saffect": 6102,
      "Saffected": 6103,
      "Saffection": 6104,
      "Saffili": 6105,
      "Safford": 6106,
      "Safin": 6107,
      "Safraid": 6108,
      "Safter": 6109,
      "Safternoon": 6110,
      "Safterwards": 6111,
      "Sag": 6112,
      "Sagain": 6113,
      "Sagainst": 6114,
      "Sage": 6115,
      "Saged": 6116,
      "Sagent": 6117,
      "Sagents": 6118,
      "Sages": 6119,
      "Saggi": 6120,
      "Saggreg": 6121,
      "Saggregate": 6122,
      "Sagli": 6123,
      "Sago": 6124,
      "Sagosto": 6125,
      "Sagr": 6126,
      "Sagre": 6127,
      "Sagree": 6128,
      "Sagreed": 6129,
      "Sagreement": 6130,
      "Sagricult": 6131,
      "Sagua": 6132,
      "Sah": 6133,
      "Sahead": 6134,
      "Sai": 6135,
      "Said": 6136,
      "Saim": 6137,
      "Sain": 6138,
      "Sainda": 6139,
      "Sainsi": 6140,
      "Sair": 6141,
      "Saircraft": 6142,
      "Saix": 6143,
      "Saj": 6144,
      "Sajax": 6145,
      "Sak": 6146,
      "Sakt": 6147,
      "Saktiv": 6148,
      "Sal": 6149,
      "Salap": 6150,
      "Salarm": 6151,
      "Salb": 6152,
      "Salberga": 6153,
      "Salbum": 6154,
      "Salbums": 6155,
      "Salc": 6156,
      "Salcan": 6157,
      "Salco": 6158,
      "Salcune": 6159,
      "Salcuni": 6160,
      "Sale": 6161,
      "Salem": 6162,
      "Salert": 6163,
      "Salg": 6164,
      "Salgebra": 6165,
      "Salgebraic": 6166,
      "Salgo": 6167,
      "Salgorithm": 6168,
      "Salgorithms": 6169,
      "Salgunas": 6170,
      "Salgunos": 6171,
      "Salguns": 6172,
      "Sali": 6173,
      "Salias": 6174,
      "Salign": 6175,
      "Saligned": 6176,
      "Salignment": 6177,
      "Saliment": 6178,
      "Salive": 6179,
      "Salk": 6180,
      "Sall": 6181,
      "Salla": 6182,
      "Salle": 6183,
      "Salleg": 6184,
      "Sallem": 6185,
      "Sallemand": 6186,
      "Sallen": 6187,
      "Saller": 6188,
      "Sallerdings": 6189,
      "Salles": 6190,
      "Sallo": 6191,
      "Salloc": 6192,
      "Sallocate": 6193,
      "Sallocated": 6194,
      "Sallocation": 6195,
      "Sallow": 6196,
      "Sallowed": 6197,
      "Sallowing": 6198,
      "Sallows": 6199,
      "Salmost": 6200,
      "Salone": 6201,
      "Salong": 6202,
      "Salongside": 6203,
      "Salors": 6204,
      "Salpha": 6205,
      "Salphabet": 6206,
      "Salready": 6207,
      "Sals": 6208,
      "Salso": 6209,
      "Salt": 6210,
      "Salta": 6211,
      "Salte": 6212,
      "Salten": 6213,
      "Salter": 6214,
      "Saltern": 6215,
      "Salternate": 6216,
      "Salternative": 6217,
      "Salternatives": 6218,
      "Salthough": 6219,
      "Salto": 6220,
      "Saltogether": 6221,
      "Saltre": 6222,
      "Saltres": 6223,
      "Saltri": 6224,
      "Saltro": 6225,
      "Salways": 6226,
      "Sam": 6227,
      "Samateur": 6228,
      "Samaz": 6229,
      "Samazon": 6230,
      "Samb": 6231,
      "Sambient": 6232,
      "Sambigu": 6233,
      "Sambos": 6234,
      "Samely": 6235,
      "Samen": 6236,
      "Samer": 6237,
      "Samerik": 6238,
      "Samery": 6239,
      "Samet": 6240,
      "Sami": 6241,
      "Samid": 6242,
      "Samong": 6243,
      "Samongst": 6244,
      "Samor": 6245,
      "Samount": 6246,
      "Samounts": 6247,
      "Samp": 6248,
      "Sampl": 6249,
      "Samplit": 6250,
      "Samplitude": 6251,
      "San": 6252,
      "Sanal": 6253,
      "Sanalog": 6254,
      "Sanaly": 6255,
      "Sanalysis": 6256,
      "Sanalyt": 6257,
      "Sanalyz": 6258,
      "Sanalyze": 6259,
      "Sanc": 6260,
      "Sancest": 6261,
      "Sanch": 6262,
      "Sanche": 6263,
      "Sanchor": 6264,
      "Sanci": 6265,
      "Sancien": 6266,
      "Sancient": 6267,
      "Sancora": 6268,
      "Sand": 6269,
      "Sandere": 6270,
      "Sanderem": 6271,
      "Sanderen": 6272,
      "Sandra": 6273,
      "Sandroid": 6274,
      "Sang": 6275,
      "Sange": 6276,
      "Sanger": 6277,
      "Sanglais": 6278,
      "Sangle": 6279,
      "Sangles": 6280,
      "Sangry": 6281,
      "Sangular": 6282,
      "Sangularjs": 6283,
      "Sani": 6284,
      "Sanim": 6285,
      "Sanimal": 6286,
      "Sanimals": 6287,
      "Sanimate": 6288,
      "Sanimated": 6289,
      "Sanimation": 6290,
      "Sann": 6291,
      "Sanni": 6292,
      "Sanno": 6293,
      "Sannot": 6294,
      "Sannotation": 6295,
      "Sannotations": 6296,
      "Sannoun": 6297,
      "Sannounced": 6298,
      "Sannual": 6299,
      "Sano": 6300,
      "Sanom": 6301,
      "Sanonymous": 6302,
      "Sanos": 6303,
      "Sanother": 6304,
      "Sans": 6305,
      "Sanswer": 6306,
      "Sanswered": 6307,
      "Sanswering": 6308,
      "Sanswers": 6309,
      "Sant": 6310,
      "Sante": 6311,
      "Santen": 6312,
      "Santerior": 6313,
      "Santes": 6314,
      "Santh": 6315,
      "Santi": 6316,
      "Santicip": 6317,
      "Santigu": 6318,
      "Sanv": 6319,
      "Sanx": 6320,
      "Sanxious": 6321,
      "Sany": 6322,
      "Sanybody": 6323,
      "Sanymore": 6324,
      "Sanyone": 6325,
      "Sanys": 6326,
      "Sanything": 6327,
      "Sanyway": 6328,
      "Sanywhere": 6329,
      "Sao": 6330,
      "Saos": 6331,
      "Sap": 6332,
      "Sapache": 6333,
      "Sapar": 6334,
      "Sapare": 6335,
      "Sapart": 6336,
      "Sapenas": 6337,
      "Saper": 6338,
      "Sapi": 6339,
      "Saplic": 6340,
      "Sapo": 6341,
      "Sapolog": 6342,
      "Sapost": 6343,
      "Sapp": 6344,
      "Sappar": 6345,
      "Sapparent": 6346,
      "Sapparently": 6347,
      "Sappart": 6348,
      "Sapparten": 6349,
      "Sappe": 6350,
      "Sappeal": 6351,
      "Sappear": 6352,
      "Sappearance": 6353,
      "Sappearances": 6354,
      "Sappeared": 6355,
      "Sappearing": 6356,
      "Sappears": 6357,
      "Sappel": 6358,
      "Sappend": 6359,
      "Sapple": 6360,
      "Sapplic": 6361,
      "Sapplicable": 6362,
      "Sapplication": 6363,
      "Sapplications": 6364,
      "Sapplied": 6365,
      "Sapplies": 6366,
      "Sapply": 6367,
      "Sapplying": 6368,
      "Sappoint": 6369,
      "Sappointed": 6370,
      "Sappointment": 6371,
      "Sappreci": 6372,
      "Sappreciate": 6373,
      "Sappreciated": 6374,
      "Sappro": 6375,
      "Sapproach": 6376,
      "Sapproached": 6377,
      "Sapproaches": 6378,
      "Sapproaching": 6379,
      "Sappropri": 6380,
      "Sappropriate": 6381,
      "Sapproved": 6382,
      "Sapproxim": 6383,
      "Sapproximate": 6384,
      "Sapproximately": 6385,
      "Sapproximation": 6386,
      "Sapps": 6387,
      "Sapr": 6388,
      "Sapresent": 6389,
      "Sapril": 6390,
      "Saprile": 6391,
      "Sapro": 6392,
      "Saproxim": 6393,
      "Sapt": 6394,
      "Saqu": 6395,
      "Saquest": 6396,
      "Sar": 6397,
      "Sara": 6398,
      "Sarab": 6399,
      "Sarbeit": 6400,
      "Sarbeitete": 6401,
      "Sarbitr": 6402,
      "Sarbitrary": 6403,
      "Sarc": 6404,
      "Sarch": 6405,
      "Sarchitect": 6406,
      "Sarchitecture": 6407,
      "Sarchiv": 6408,
      "Sarchive": 6409,
      "Sare": 6410,
      "Sarea": 6411,
      "Sareas": 6412,
      "Saren": 6413,
      "Sarg": 6414,
      "Sargent": 6415,
      "Sargs": 6416,
      "Sargue": 6417,
      "Sargued": 6418,
      "Sargument": 6419,
      "Sarguments": 6420,
      "Saria": 6421,
      "Sarise": 6422,
      "Sarist": 6423,
      "Sarithmetic": 6424,
      "Sarm": 6425,
      "Sarmed": 6426,
      "Sarms": 6427,
      "Sarmy": 6428,
      "Sarose": 6429,
      "Saround": 6430,
      "Sarqu": 6431,
      "Sarquitect": 6432,
      "Sarr": 6433,
      "Sarrang": 6434,
      "Sarranged": 6435,
      "Sarrangement": 6436,
      "Sarray": 6437,
      "Sarrays": 6438,
      "Sarrest": 6439,
      "Sarrested": 6440,
      "Sarrib": 6441,
      "Sarriv": 6442,
      "Sarrival": 6443,
      "Sarrive": 6444,
      "Sarrived": 6445,
      "Sarrow": 6446,
      "Sart": 6447,
      "Sarte": 6448,
      "Sarticle": 6449,
      "Sarticles": 6450,
      "Sartifact": 6451,
      "Sartific": 6452,
      "Sartificial": 6453,
      "Sartist": 6454,
      "Sartists": 6455,
      "Sarts": 6456,
      "Sas": 6457,
      "Sasc": 6458,
      "Sases": 6459,
      "Sash": 6460,
      "Sasi": 6461,
      "Saside": 6462,
      "Sask": 6463,
      "Sasked": 6464,
      "Sasking": 6465,
      "Sasks": 6466,
      "Sasp": 6467,
      "Saspect": 6468,
      "Saspects": 6469,
      "Sass": 6470,
      "Sassass": 6471,
      "Sassault": 6472,
      "Sasse": 6473,
      "Sassemb": 6474,
      "Sassemble": 6475,
      "Sassembly": 6476,
      "Sassert": 6477,
      "Sassertion": 6478,
      "Sassess": 6479,
      "Sasset": 6480,
      "Sassets": 6481,
      "Sassez": 6482,
      "Sassign": 6483,
      "Sassigned": 6484,
      "Sassigning": 6485,
      "Sassignment": 6486,
      "Sassim": 6487,
      "Sassist": 6488,
      "Sassistance": 6489,
      "Sassistant": 6490,
      "Sassoci": 6491,
      "Sassociate": 6492,
      "Sassociated": 6493,
      "Sassociation": 6494,
      "Sassociations": 6495,
      "Sassum": 6496,
      "Sassume": 6497,
      "Sassumed": 6498,
      "Sassumes": 6499,
      "Sassuming": 6500,
      "Sassumption": 6501,
      "Sassumptions": 6502,
      "Sassured": 6503,
      "Sast": 6504,
      "Sastero": 6505,
      "Saston": 6506,
      "Sastr": 6507,
      "Sastronom": 6508,
      "Sasym": 6509,
      "Sasympt": 6510,
      "Sasync": 6511,
      "Sasynchronous": 6512,
      "Sat": 6513,
      "Satac": 6514,
      "Sath": 6515,
      "Sathlet": 6516,
      "Satmos": 6517,
      "Satmosphere": 6518,
      "Satom": 6519,
      "Satomic": 6520,
      "Satoms": 6521,
      "Satt": 6522,
      "Sattach": 6523,
      "Sattached": 6524,
      "Sattachment": 6525,
      "Sattack": 6526,
      "Sattacked": 6527,
      "Sattacks": 6528,
      "Satte": 6529,
      "Sattempt": 6530,
      "Sattempted": 6531,
      "Sattempting": 6532,
      "Sattempts": 6533,
      "Sattend": 6534,
      "Sattended": 6535,
      "Sattention": 6536,
      "Sattitude": 6537,
      "Sattr": 6538,
      "Sattra": 6539,
      "Sattract": 6540,
      "Sattribute": 6541,
      "Sattributed": 6542,
      "Sattributes": 6543,
      "Sau": 6544,
      "Sauc": 6545,
      "Sauch": 6546,
      "Saud": 6547,
      "Saudi": 6548,
      "Saudience": 6549,
      "Saudio": 6550,
      "Sauf": 6551,
      "Saufgrund": 6552,
      "Saug": 6553,
      "Saugment": 6554,
      "Saugust": 6555,
      "Saugusti": 6556,
      "Saugusztus": 6557,
      "Saujourd": 6558,
      "Saument": 6559,
      "Saunque": 6560,
      "Saur": 6561,
      "Saurait": 6562,
      "Saus": 6563,
      "Sausge": 6564,
      "Saussi": 6565,
      "Saust": 6566,
      "Saustral": 6567,
      "Saut": 6568,
      "Saute": 6569,
      "Sauteurs": 6570,
      "Sauth": 6571,
      "Sauthentic": 6572,
      "Sauthentication": 6573,
      "Sauthor": 6574,
      "Sauthorities": 6575,
      "Sauthority": 6576,
      "Sauthorization": 6577,
      "Sauthors": 6578,
      "Sauto": 6579,
      "Sautom": 6580,
      "Sautomat": 6581,
      "Sautomatic": 6582,
      "Sautomatically": 6583,
      "Sautomatisch": 6584,
      "Sautonom": 6585,
      "Sautor": 6586,
      "Sautory": 6587,
      "Sautorytatywna": 6588,
      "Sautour": 6589,
      "Sautre": 6590,
      "Sautres": 6591,
      "Saux": 6592,
      "Sauxili": 6593,
      "Sav": 6594,
      "Savaient": 6595,
      "Savail": 6596,
      "Savailable": 6597,
      "Savait": 6598,
      "Savant": 6599,
      "Save": 6600,
      "Savec": 6601,
      "Saver": 6602,
      "Saverage": 6603,
      "Saveva": 6604,
      "Savo": 6605,
      "Savoid": 6606,
      "Savoided": 6607,
      "Savoir": 6608,
      "Savril": 6609,
      "Saw": 6610,
      "Sawait": 6611,
      "Saward": 6612,
      "Sawarded": 6613,
      "Sawards": 6614,
      "Saware": 6615,
      "Saway": 6616,
      "Sawesome": 6617,
      "Sawful": 6618,
      "Sawk": 6619,
      "Saws": 6620,
      "Sax": 6621,
      "Saxes": 6622,
      "Saxis": 6623,
      "Say": 6624,
      "Sayant": 6625,
      "Saz": 6626,
      "Sazon": 6627,
      "Sazure": 6628,
      "Sb": 6629,
      "Sba": 6630,
      "Sbaby": 6631,
      "Sback": 6632,
      "Sbackend": 6633,
      "Sbackground": 6634,
      "Sbacking": 6635,
      "Sbackup": 6636,
      "Sbackwards": 6637,
      "Sbad": 6638,
      "Sbadly": 6639,
      "Sbag": 6640,
      "Sbajo": 6641,
      "Sbal": 6642,
      "Sbalance": 6643,
      "Sbald": 6644,
      "Sball": 6645,
      "Sballs": 6646,
      "Sban": 6647,
      "Sband": 6648,
      "Sbanda": 6649,
      "Sbande": 6650,
      "Sbands": 6651,
      "Sbank": 6652,
      "Sbanks": 6653,
      "Sbapt": 6654,
      "Sbar": 6655,
      "Sbare": 6656,
      "Sbaron": 6657,
      "Sbars": 6658,
      "Sbas": 6659,
      "Sbase": 6660,
      "Sbaseball": 6661,
      "Sbased": 6662,
      "Sbases": 6663,
      "Sbash": 6664,
      "Sbasic": 6665,
      "Sbasically": 6666,
      "Sbasis": 6667,
      "Sbasket": 6668,
      "Sbasketball": 6669,
      "Sbass": 6670,
      "Sbast": 6671,
      "Sbat": 6672,
      "Sbata": 6673,
      "Sbataille": 6674,
      "Sbatal": 6675,
      "Sbatch": 6676,
      "Sbath": 6677,
      "Sbatt": 6678,
      "Sbatter": 6679,
      "Sbattery": 6680,
      "Sbattle": 6681,
      "Sbay": 6682,
      "Sbaz": 6683,
      "Sbazie": 6684,
      "Sbe": 6685,
      "Sbeach": 6686,
      "Sbeam": 6687,
      "Sbean": 6688,
      "Sbear": 6689,
      "Sbearing": 6690,
      "Sbeat": 6691,
      "Sbeaucoup": 6692,
      "Sbeaut": 6693,
      "Sbeautiful": 6694,
      "Sbeauty": 6695,
      "Sbec": 6696,
      "Sbecame": 6697,
      "Sbecause": 6698,
      "Sbecom": 6699,
      "Sbecome": 6700,
      "Sbecomes": 6701,
      "Sbecoming": 6702,
      "Sbed": 6703,
      "Sbedeut": 6704,
      "Sbeen": 6705,
      "Sbef": 6706,
      "Sbefind": 6707,
      "Sbefindet": 6708,
      "Sbefore": 6709,
      "Sbeg": 6710,
      "Sbegan": 6711,
      "Sbegann": 6712,
      "Sbegg": 6713,
      "Sbegin": 6714,
      "Sbeginner": 6715,
      "Sbeginning": 6716,
      "Sbegins": 6717,
      "Sbegun": 6718,
      "Sbeh": 6719,
      "Sbehav": 6720,
      "Sbehave": 6721,
      "Sbehavior": 6722,
      "Sbehaviour": 6723,
      "Sbehind": 6724,
      "Sbeho": 6725,
      "Sbei": 6726,
      "Sbeide": 6727,
      "Sbeiden": 6728,
      "Sbeim": 6729,
      "Sbeing": 6730,
      "Sbek": 6731,
      "Sbekannt": 6732,
      "Sbekend": 6733,
      "Sbel": 6734,
      "Sbelang": 6735,
      "Sbelief": 6736,
      "Sbelieve": 6737,
      "Sbelieved": 6738,
      "Sbell": 6739,
      "Sbelle": 6740,
      "Sbelong": 6741,
      "Sbelonged": 6742,
      "Sbelonging": 6743,
      "Sbelongs": 6744,
      "Sbelow": 6745,
      "Sbem": 6746,
      "Sben": 6747,
      "Sbenchmark": 6748,
      "Sbene": 6749,
      "Sbeneath": 6750,
      "Sbenef": 6751,
      "Sbenefit": 6752,
      "Sbenefits": 6753,
      "Sbent": 6754,
      "Sber": 6755,
      "Sbere": 6756,
      "Sbereits": 6757,
      "Sberg": 6758,
      "Sbes": 6759,
      "Sbesch": 6760,
      "Sbeside": 6761,
      "Sbesides": 6762,
      "Sbeskre": 6763,
      "Sbeskrevs": 6764,
      "Sbesonders": 6765,
      "Sbest": 6766,
      "Sbesta": 6767,
      "Sbeste": 6768,
      "Sbesteht": 6769,
      "Sbet": 6770,
      "Sbeta": 6771,
      "Sbetre": 6772,
      "Sbetter": 6773,
      "Sbetween": 6774,
      "Sbev": 6775,
      "Sbew": 6776,
      "Sbeyond": 6777,
      "Sbez": 6778,
      "Sbezeichnet": 6779,
      "Sbezeichneter": 6780,
      "Sbg": 6781,
      "Sbi": 6782,
      "Sbias": 6783,
      "Sbib": 6784,
      "Sbibli": 6785,
      "Sbid": 6786,
      "Sbien": 6787,
      "Sbig": 6788,
      "Sbigger": 6789,
      "Sbiggest": 6790,
      "Sbij": 6791,
      "Sbil": 6792,
      "Sbila": 6793,
      "Sbild": 6794,
      "Sbill": 6795,
      "Sbillion": 6796,
      "Sbin": 6797,
      "Sbinary": 6798,
      "Sbind": 6799,
      "Sbinding": 6800,
      "Sbinnen": 6801,
      "Sbio": 6802,
      "Sbir": 6803,
      "Sbird": 6804,
      "Sbirds": 6805,
      "Sbirth": 6806,
      "Sbis": 6807,
      "Sbisher": 6808,
      "Sbishop": 6809,
      "Sbit": 6810,
      "Sbitmap": 6811,
      "Sbits": 6812,
      "Sbitter": 6813,
      "Sbiz": 6814,
      "Sbl": 6815,
      "Sbla": 6816,
      "Sblack": 6817,
      "Sblah": 6818,
      "Sblan": 6819,
      "Sblanc": 6820,
      "Sbland": 6821,
      "Sblank": 6822,
      "Sble": 6823,
      "Sbless": 6824,
      "Sblev": 6825,
      "Sblieb": 6826,
      "Sblind": 6827,
      "Sblo": 6828,
      "Sblob": 6829,
      "Sblock": 6830,
      "Sblocked": 6831,
      "Sblocking": 6832,
      "Sblocks": 6833,
      "Sblog": 6834,
      "Sblood": 6835,
      "Sblow": 6836,
      "Sblue": 6837,
      "Sbo": 6838,
      "Sboard": 6839,
      "Sboat": 6840,
      "Sboats": 6841,
      "Sbod": 6842,
      "Sbodies": 6843,
      "Sbody": 6844,
      "Sbog": 6845,
      "Sbois": 6846,
      "Sbol": 6847,
      "Sbold": 6848,
      "Sbom": 6849,
      "Sbomb": 6850,
      "Sbon": 6851,
      "Sbond": 6852,
      "Sbonus": 6853,
      "Sbook": 6854,
      "Sbooks": 6855,
      "Sbool": 6856,
      "Sboolean": 6857,
      "Sboost": 6858,
      "Sboot": 6859,
      "Sbootstrap": 6860,
      "Sbor": 6861,
      "Sbord": 6862,
      "Sborder": 6863,
      "Sborders": 6864,
      "Sbore": 6865,
      "Sborn": 6866,
      "Sborrow": 6867,
      "Sbos": 6868,
      "Sbot": 6869,
      "Sbotan": 6870,
      "Sboth": 6871,
      "Sbother": 6872,
      "Sbott": 6873,
      "Sbottom": 6874,
      "Sbou": 6875,
      "Sbought": 6876,
      "Sbound": 6877,
      "Sboundaries": 6878,
      "Sboundary": 6879,
      "Sbounded": 6880,
      "Sbounds": 6881,
      "Sbout": 6882,
      "Sbow": 6883,
      "Sbox": 6884,
      "Sboxes": 6885,
      "Sboy": 6886,
      "Sboys": 6887,
      "Sbr": 6888,
      "Sbra": 6889,
      "Sbrackets": 6890,
      "Sbrain": 6891,
      "Sbran": 6892,
      "Sbranch": 6893,
      "Sbranches": 6894,
      "Sbrand": 6895,
      "Sbras": 6896,
      "Sbrasile": 6897,
      "Sbrave": 6898,
      "Sbre": 6899,
      "Sbread": 6900,
      "Sbreak": 6901,
      "Sbreakfast": 6902,
      "Sbreaking": 6903,
      "Sbreaks": 6904,
      "Sbreast": 6905,
      "Sbreath": 6906,
      "Sbrick": 6907,
      "Sbrid": 6908,
      "Sbridge": 6909,
      "Sbrief": 6910,
      "Sbriefly": 6911,
      "Sbrig": 6912,
      "Sbright": 6913,
      "Sbrilliant": 6914,
      "Sbring": 6915,
      "Sbringing": 6916,
      "Sbrings": 6917,
      "Sbrit": 6918,
      "Sbritann": 6919,
      "Sbritannique": 6920,
      "Sbro": 6921,
      "Sbroad": 6922,
      "Sbroadcast": 6923,
      "Sbroke": 6924,
      "Sbroken": 6925,
      "Sbron": 6926,
      "Sbronze": 6927,
      "Sbrother": 6928,
      "Sbrothers": 6929,
      "Sbrought": 6930,
      "Sbrow": 6931,
      "Sbrown": 6932,
      "Sbrowser": 6933,
      "Sbrowsers": 6934,
      "Sbru": 6935,
      "Sbrut": 6936,
      "Sbs": 6937,
      "Sbtn": 6938,
      "Sbu": 6939,
      "Sbucket": 6940,
      "Sbud": 6941,
      "Sbudget": 6942,
      "Sbuf": 6943,
      "Sbuff": 6944,
      "Sbuffer": 6945,
      "Sbug": 6946,
      "Sbugs": 6947,
      "Sbuild": 6948,
      "Sbuilder": 6949,
      "Sbuilding": 6950,
      "Sbuildings": 6951,
      "Sbuilds": 6952,
      "Sbuilt": 6953,
      "Sbul": 6954,
      "Sbulk": 6955,
      "Sbullet": 6956,
      "Sbunch": 6957,
      "Sbund": 6958,
      "Sbundle": 6959,
      "Sbur": 6960,
      "Sburg": 6961,
      "Sburied": 6962,
      "Sburn": 6963,
      "Sburning": 6964,
      "Sburst": 6965,
      "Sbus": 6966,
      "Sbush": 6967,
      "Sbusiness": 6968,
      "Sbusy": 6969,
      "Sbut": 6970,
      "Sbutton": 6971,
      "Sbuttons": 6972,
      "Sbuy": 6973,
      "Sby": 6974,
      "Sbyl": 6975,
      "Sbyla": 6976,
      "Sbylo": 6977,
      "Sbyly": 6978,
      "Sbyte": 6979,
      "Sbytes": 6980,
      "Sbzw": 6981,
      "Sc": 6982,
      "Sca": 6983,
      "Scab": 6984,
      "Scabe": 6985,
      "Scabin": 6986,
      "Scabinet": 6987,
      "Scable": 6988,
      "Scache": 6989,
      "Scached": 6990,
      "Scaching": 6991,
      "Scad": 6992,
      "Scada": 6993,
      "Scadre": 6994,
      "Scal": 6995,
      "Scalc": 6996,
      "Scalci": 6997,
      "Scalciatore": 6998,
      "Scalcio": 6999,
      "Scalcul": 7000,
      "Scalculate": 7001,
      "Scalculated": 7002,
      "Scalculating": 7003,
      "Scalculation": 7004,
      "Scalculations": 7005,
      "Scalculus": 7006,
      "Scalendar": 7007,
      "Scall": 7008,
      "Scallback": 7009,
      "Scalled": 7010,
      "Scaller": 7011,
      "Scalling": 7012,
      "Scalls": 7013,
      "Scalm": 7014,
      "Scam": 7015,
      "Scamb": 7016,
      "Scambio": 7017,
      "Scame": 7018,
      "Scamera": 7019,
      "Scamp": 7020,
      "Scampagne": 7021,
      "Scampaign": 7022,
      "Scampe": 7023,
      "Scampion": 7024,
      "Scampionato": 7025,
      "Scampo": 7026,
      "Scampus": 7027,
      "Scan": 7028,
      "Scanad": 7029,
      "Scanal": 7030,
      "Scancel": 7031,
      "Scancer": 7032,
      "Scand": 7033,
      "Scandid": 7034,
      "Scandidate": 7035,
      "Scandidates": 7036,
      "Scannot": 7037,
      "Scanon": 7038,
      "Scanonical": 7039,
      "Scant": 7040,
      "Scantante": 7041,
      "Scanton": 7042,
      "Scanvas": 7043,
      "Scap": 7044,
      "Scapabilities": 7045,
      "Scapable": 7046,
      "Scapac": 7047,
      "Scapacity": 7048,
      "Scapit": 7049,
      "Scapital": 7050,
      "Scapitale": 7051,
      "Scaps": 7052,
      "Scapt": 7053,
      "Scaptain": 7054,
      "Scapture": 7055,
      "Scaptured": 7056,
      "Scar": 7057,
      "Scaracter": 7058,
      "Scaratter": 7059,
      "Scarbon": 7060,
      "Scard": 7061,
      "Scardinal": 7062,
      "Scards": 7063,
      "Scare": 7064,
      "Scareer": 7065,
      "Scareful": 7066,
      "Scarefully": 7067,
      "Scargo": 7068,
      "Scarre": 7069,
      "Scarrera": 7070,
      "Scarri": 7071,
      "Scarriage": 7072,
      "Scarried": 7073,
      "Scarry": 7074,
      "Scarrying": 7075,
      "Scars": 7076,
      "Scart": 7077,
      "Scarte": 7078,
      "Scas": 7079,
      "Scasa": 7080,
      "Scase": 7081,
      "Scases": 7082,
      "Scasi": 7083,
      "Scaso": 7084,
      "Scasos": 7085,
      "Scast": 7086,
      "Scasting": 7087,
      "Scastle": 7088,
      "Scat": 7089,
      "Scatal": 7090,
      "Scatalog": 7091,
      "Scatch": 7092,
      "Scateg": 7093,
      "Scategor": 7094,
      "Scategorie": 7095,
      "Scategories": 7096,
      "Scategory": 7097,
      "Scatt": 7098,
      "Scattle": 7099,
      "Scaught": 7100,
      "Scaus": 7101,
      "Scausa": 7102,
      "Scause": 7103,
      "Scaused": 7104,
      "Scauses": 7105,
      "Scausing": 7106,
      "Scav": 7107,
      "Scaval": 7108,
      "Scave": 7109,
      "Scb": 7110,
      "Scc": 7111,
      "Scd": 7112,
      "Sce": 7113,
      "Sceased": 7114,
      "Sced": 7115,
      "Scel": 7116,
      "Scela": 7117,
      "Scele": 7118,
      "Scelebr": 7119,
      "Scelebrated": 7120,
      "Scell": 7121,
      "Scelle": 7122,
      "Scells": 7123,
      "Scelui": 7124,
      "Scens": 7125,
      "Scensus": 7126,
      "Scent": 7127,
      "Scenter": 7128,
      "Scentered": 7129,
      "Scentral": 7130,
      "Scentrale": 7131,
      "Scentre": 7132,
      "Scentro": 7133,
      "Scenturies": 7134,
      "Scentury": 7135,
      "Scependant": 7136,
      "Scer": 7137,
      "Scerca": 7138,
      "Scerem": 7139,
      "Sceremony": 7140,
      "Scert": 7141,
      "Scertain": 7142,
      "Scertainly": 7143,
      "Scertains": 7144,
      "Scertific": 7145,
      "Scertificate": 7146,
      "Sces": 7147,
      "Scet": 7148,
      "Scette": 7149,
      "Sceux": 7150,
      "Sch": 7151,
      "Scha": 7152,
      "Schain": 7153,
      "Schair": 7154,
      "Schairman": 7155,
      "Schalleng": 7156,
      "Schallenge": 7157,
      "Scham": 7158,
      "Schamber": 7159,
      "Schamp": 7160,
      "Schampion": 7161,
      "Schampionnat": 7162,
      "Schampions": 7163,
      "Schampionship": 7164,
      "Schance": 7165,
      "Schang": 7166,
      "Schange": 7167,
      "Schanged": 7168,
      "Schanges": 7169,
      "Schanging": 7170,
      "Schannel": 7171,
      "Schannels": 7172,
      "Schanson": 7173,
      "Schant": 7174,
      "Schante": 7175,
      "Schap": 7176,
      "Schapter": 7177,
      "Schaque": 7178,
      "Schar": 7179,
      "Scharact": 7180,
      "Scharacter": 7181,
      "Scharacteristic": 7182,
      "Scharacteristics": 7183,
      "Scharacters": 7184,
      "Scharg": 7185,
      "Scharge": 7186,
      "Scharged": 7187,
      "Scharges": 7188,
      "Scharm": 7189,
      "Schars": 7190,
      "Scharset": 7191,
      "Schart": 7192,
      "Scharts": 7193,
      "Schat": 7194,
      "Sche": 7195,
      "Scheap": 7196,
      "Scheck": 7197,
      "Scheckbox": 7198,
      "Schecked": 7199,
      "Schecking": 7200,
      "Scheckout": 7201,
      "Schecks": 7202,
      "Scheer": 7203,
      "Schef": 7204,
      "Schem": 7205,
      "Schemical": 7206,
      "Schemin": 7207,
      "Scher": 7208,
      "Scheval": 7209,
      "Schez": 7210,
      "Schi": 7211,
      "Schiam": 7212,
      "Schief": 7213,
      "Schiesa": 7214,
      "Schild": 7215,
      "Schildren": 7216,
      "Schim": 7217,
      "Schip": 7218,
      "Scho": 7219,
      "Schoice": 7220,
      "Schoices": 7221,
      "Schoose": 7222,
      "Schoosing": 7223,
      "Schose": 7224,
      "Schosen": 7225,
      "Schr": 7226,
      "Schrist": 7227,
      "Schrom": 7228,
      "Schrome": 7229,
      "Schron": 7230,
      "Schunk": 7231,
      "Schurch": 7232,
      "Schurches": 7233,
      "Sci": 7234,
      "Scic": 7235,
      "Scidade": 7236,
      "Sciel": 7237,
      "Scig": 7238,
      "Scin": 7239,
      "Scinco": 7240,
      "Scinema": 7241,
      "Scinemat": 7242,
      "Scinq": 7243,
      "Scir": 7244,
      "Scirc": 7245,
      "Scirca": 7246,
      "Scircle": 7247,
      "Scircles": 7248,
      "Scircuit": 7249,
      "Scircul": 7250,
      "Scircular": 7251,
      "Scircum": 7252,
      "Scircumst": 7253,
      "Scircumstances": 7254,
      "Scit": 7255,
      "Scities": 7256,
      "Scitiz": 7257,
      "Scitizens": 7258,
      "Scitt": 7259,
      "Scity": 7260,
      "Sciudad": 7261,
      "Sciutat": 7262,
      "Sciv": 7263,
      "Scivil": 7264,
      "Scivile": 7265,
      "Scl": 7266,
      "Scla": 7267,
      "Sclaim": 7268,
      "Sclaimed": 7269,
      "Sclaims": 7270,
      "Sclar": 7271,
      "Sclarify": 7272,
      "Sclas": 7273,
      "Sclass": 7274,
      "SclassUname": 7275,
      "Sclasse": 7276,
      "Sclasses": 7277,
      "Sclassic": 7278,
      "Sclassical": 7279,
      "Sclassific": 7280,
      "Sclassification": 7281,
      "Sclause": 7282,
      "Scle": 7283,
      "Sclean": 7284,
      "Scleaner": 7285,
      "Sclear": 7286,
      "Scleared": 7287,
      "Sclearer": 7288,
      "Sclearly": 7289,
      "Scler": 7290,
      "Sclever": 7291,
      "Scli": 7292,
      "Sclick": 7293,
      "Sclicked": 7294,
      "Sclicking": 7295,
      "Sclicks": 7296,
      "Sclient": 7297,
      "Sclients": 7298,
      "Sclim": 7299,
      "Sclimate": 7300,
      "Sclin": 7301,
      "Sclip": 7302,
      "Sclo": 7303,
      "Sclock": 7304,
      "Sclone": 7305,
      "Sclos": 7306,
      "Sclose": 7307,
      "Sclosed": 7308,
      "Sclosely": 7309,
      "Scloser": 7310,
      "Sclosest": 7311,
      "Sclosing": 7312,
      "Sclosure": 7313,
      "Scloth": 7314,
      "Sclothes": 7315,
      "Scloud": 7316,
      "Sclouds": 7317,
      "Sclub": 7318,
      "Sclubs": 7319,
      "Sclue": 7320,
      "Sclust": 7321,
      "Scluster": 7322,
      "Sclusters": 7323,
      "Scm": 7324,
      "Scmd": 7325,
      "Sco": 7326,
      "Scoach": 7327,
      "Scoal": 7328,
      "Scoast": 7329,
      "Scoat": 7330,
      "Scod": 7331,
      "Scode": 7332,
      "Scodes": 7333,
      "Scoding": 7334,
      "Scoefficient": 7335,
      "Scoefficients": 7336,
      "Scoff": 7337,
      "Scoffee": 7338,
      "Scogn": 7339,
      "Scoh": 7340,
      "Scoin": 7341,
      "Scoinc": 7342,
      "Scol": 7343,
      "Scold": 7344,
      "Scole": 7345,
      "Scoll": 7346,
      "Scollabor": 7347,
      "Scollaboration": 7348,
      "Scollapse": 7349,
      "Scolle": 7350,
      "Scollect": 7351,
      "Scollected": 7352,
      "Scollection": 7353,
      "Scollections": 7354,
      "Scolleg": 7355,
      "Scollege": 7356,
      "Scollision": 7357,
      "Scoloc": 7358,
      "Scolon": 7359,
      "Scolonial": 7360,
      "Scolor": 7361,
      "Scolored": 7362,
      "Scolors": 7363,
      "Scolour": 7364,
      "Scolours": 7365,
      "Scols": 7366,
      "Scolumn": 7367,
      "Scolumns": 7368,
      "Scom": 7369,
      "Scomand": 7370,
      "Scomb": 7371,
      "Scombat": 7372,
      "Scombatt": 7373,
      "Scombin": 7374,
      "Scombination": 7375,
      "Scombinations": 7376,
      "Scombine": 7377,
      "Scombined": 7378,
      "Scombining": 7379,
      "Scome": 7380,
      "Scomedy": 7381,
      "Scomenz": 7382,
      "Scomer": 7383,
      "Scomercial": 7384,
      "Scomes": 7385,
      "Scomfort": 7386,
      "Scomfortable": 7387,
      "Scoming": 7388,
      "Scomm": 7389,
      "Scomma": 7390,
      "Scommand": 7391,
      "Scommanded": 7392,
      "Scommander": 7393,
      "Scommands": 7394,
      "Scomme": 7395,
      "Scommence": 7396,
      "Scomment": 7397,
      "Scommented": 7398,
      "Scomments": 7399,
      "Scommer": 7400,
      "Scommerce": 7401,
      "Scommercial": 7402,
      "Scommission": 7403,
      "Scommit": 7404,
      "Scommits": 7405,
      "Scommitted": 7406,
      "Scommittee": 7407,
      "Scommon": 7408,
      "Scommonly": 7409,
      "Scommun": 7410,
      "Scommune": 7411,
      "Scommunes": 7412,
      "Scommunic": 7413,
      "Scommunicate": 7414,
      "Scommunication": 7415,
      "Scommunities": 7416,
      "Scommunity": 7417,
      "Scommut": 7418,
      "Scomo": 7419,
      "Scomp": 7420,
      "Scompact": 7421,
      "Scompag": 7422,
      "Scompagnie": 7423,
      "Scompan": 7424,
      "Scompanies": 7425,
      "Scompanion": 7426,
      "Scompany": 7427,
      "Scompar": 7428,
      "Scompare": 7429,
      "Scompared": 7430,
      "Scomparing": 7431,
      "Scomparison": 7432,
      "Scompart": 7433,
      "Scompat": 7434,
      "Scompatibility": 7435,
      "Scompatible": 7436,
      "Scompens": 7437,
      "Scompet": 7438,
      "Scompeted": 7439,
      "Scompetition": 7440,
      "Scompilation": 7441,
      "Scompile": 7442,
      "Scompiled": 7443,
      "Scompiler": 7444,
      "Scompiling": 7445,
      "Scompl": 7446,
      "Scompla": 7447,
      "Scomple": 7448,
      "Scomplement": 7449,
      "Scomplet": 7450,
      "Scomplete": 7451,
      "Scompleted": 7452,
      "Scompletely": 7453,
      "Scompletion": 7454,
      "Scomplex": 7455,
      "Scomplexity": 7456,
      "Scomplicated": 7457,
      "Scompon": 7458,
      "Scomponent": 7459,
      "Scomponents": 7460,
      "Scomport": 7461,
      "Scompos": 7462,
      "Scompose": 7463,
      "Scomposed": 7464,
      "Scomposer": 7465,
      "Scomposite": 7466,
      "Scomposition": 7467,
      "Scompr": 7468,
      "Scompreh": 7469,
      "Scomprend": 7470,
      "Scompress": 7471,
      "Scompression": 7472,
      "Scomprom": 7473,
      "Scompt": 7474,
      "Scompte": 7475,
      "Scomput": 7476,
      "Scomputation": 7477,
      "Scomputational": 7478,
      "Scompute": 7479,
      "Scomputed": 7480,
      "Scomputer": 7481,
      "Scomputers": 7482,
      "Scomputing": 7483,
      "Scomte": 7484,
      "Scomun": 7485,
      "Scomuna": 7486,
      "Scomune": 7487,
      "Scon": 7488,
      "Sconc": 7489,
      "Sconcaten": 7490,
      "Sconce": 7491,
      "Sconced": 7492,
      "Sconcent": 7493,
      "Sconcentr": 7494,
      "Sconcentration": 7495,
      "Sconcept": 7496,
      "Sconception": 7497,
      "Sconcepts": 7498,
      "Sconcern": 7499,
      "Sconcerned": 7500,
      "Sconcerning": 7501,
      "Sconcerns": 7502,
      "Sconcert": 7503,
      "Sconcl": 7504,
      "Sconclude": 7505,
      "Sconcluded": 7506,
      "Sconclus": 7507,
      "Sconclusion": 7508,
      "Sconcrete": 7509,
      "Sconcurrent": 7510,
      "Scond": 7511,
      "Scondado": 7512,
      "Scondem": 7513,
      "Scondition": 7514,
      "Sconditional": 7515,
      "Sconditions": 7516,
      "Scondu": 7517,
      "Sconduct": 7518,
      "Sconducted": 7519,
      "Scone": 7520,
      "Sconf": 7521,
      "Sconfer": 7522,
      "Sconference": 7523,
      "Sconfidence": 7524,
      "Sconfident": 7525,
      "Sconfig": 7526,
      "Sconfigur": 7527,
      "Sconfiguration": 7528,
      "Sconfigurations": 7529,
      "Sconfigure": 7530,
      "Sconfigured": 7531,
      "Sconfir": 7532,
      "Sconfirm": 7533,
      "Sconfirmed": 7534,
      "Sconfl": 7535,
      "Sconflic": 7536,
      "Sconflict": 7537,
      "Sconflicts": 7538,
      "Sconform": 7539,
      "Sconfront": 7540,
      "Sconfused": 7541,
      "Sconfusing": 7542,
      "Sconfusion": 7543,
      "Sconhe": 7544,
      "Sconj": 7545,
      "Sconject": 7546,
      "Sconjug": 7547,
      "Sconjunto": 7548,
      "Sconn": 7549,
      "Sconna": 7550,
      "Sconne": 7551,
      "Sconnect": 7552,
      "Sconnected": 7553,
      "Sconnecting": 7554,
      "Sconnection": 7555,
      "Sconnections": 7556,
      "Sconnexes": 7557,
      "Sconnu": 7558,
      "Sconoc": 7559,
      "Sconocido": 7560,
      "Sconqu": 7561,
      "Sconquer": 7562,
      "Sconquist": 7563,
      "Scons": 7564,
      "Sconscience": 7565,
      "Sconscious": 7566,
      "Sconse": 7567,
      "Sconsec": 7568,
      "Sconsecutive": 7569,
      "Sconsegu": 7570,
      "Sconseil": 7571,
      "Sconsent": 7572,
      "Sconsequ": 7573,
      "Sconsequence": 7574,
      "Sconsequences": 7575,
      "Sconser": 7576,
      "Sconserv": 7577,
      "Sconservation": 7578,
      "Sconsid": 7579,
      "Sconsider": 7580,
      "Sconsiderable": 7581,
      "Sconsideration": 7582,
      "Sconsidered": 7583,
      "Sconsidering": 7584,
      "Sconsist": 7585,
      "Sconsisted": 7586,
      "Sconsistent": 7587,
      "Sconsisting": 7588,
      "Sconsists": 7589,
      "Sconsole": 7590,
      "Sconsp": 7591,
      "Sconst": 7592,
      "Sconstant": 7593,
      "Sconstantly": 7594,
      "Sconstants": 7595,
      "Sconstit": 7596,
      "Sconstitu": 7597,
      "Sconstitution": 7598,
      "Sconstraint": 7599,
      "Sconstraints": 7600,
      "Sconstru": 7601,
      "Sconstruct": 7602,
      "Sconstructed": 7603,
      "Sconstruction": 7604,
      "Sconstructor": 7605,
      "Sconsult": 7606,
      "Sconsultato": 7607,
      "Sconsum": 7608,
      "Sconsume": 7609,
      "Sconsumer": 7610,
      "Sconsumption": 7611,
      "Scont": 7612,
      "Scontact": 7613,
      "Scontacts": 7614,
      "Scontain": 7615,
      "Scontained": 7616,
      "Scontainer": 7617,
      "Scontainers": 7618,
      "Scontaining": 7619,
      "Scontains": 7620,
      "Sconte": 7621,
      "Scontempor": 7622,
      "Scontemporary": 7623,
      "Sconten": 7624,
      "Scontent": 7625,
      "Scontents": 7626,
      "Scontest": 7627,
      "Scontext": 7628,
      "Scontiene": 7629,
      "Scontin": 7630,
      "Scontinent": 7631,
      "Scontinu": 7632,
      "Scontinue": 7633,
      "Scontinued": 7634,
      "Scontinues": 7635,
      "Scontinuous": 7636,
      "Scontr": 7637,
      "Scontra": 7638,
      "Scontract": 7639,
      "Scontrad": 7640,
      "Scontradict": 7641,
      "Scontradiction": 7642,
      "Scontrary": 7643,
      "Scontrast": 7644,
      "Scontre": 7645,
      "Scontrib": 7646,
      "Scontribu": 7647,
      "Scontribute": 7648,
      "Scontributed": 7649,
      "Scontribution": 7650,
      "Scontributions": 7651,
      "Scontro": 7652,
      "Scontrol": 7653,
      "Scontrolled": 7654,
      "Scontroller": 7655,
      "Scontrollers": 7656,
      "Scontrols": 7657,
      "Scontrovers": 7658,
      "Sconv": 7659,
      "Sconven": 7660,
      "Sconvenience": 7661,
      "Sconvenient": 7662,
      "Sconvent": 7663,
      "Sconvention": 7664,
      "Sconventional": 7665,
      "Sconver": 7666,
      "Sconvergence": 7667,
      "Sconverges": 7668,
      "Sconvers": 7669,
      "Sconversation": 7670,
      "Sconversion": 7671,
      "Sconvert": 7672,
      "Sconverted": 7673,
      "Sconverter": 7674,
      "Sconverting": 7675,
      "Sconverts": 7676,
      "Sconvex": 7677,
      "Sconvey": 7678,
      "Sconvin": 7679,
      "Sconvinced": 7680,
      "Sconvirti": 7681,
      "Sconvolution": 7682,
      "Scook": 7683,
      "Scookie": 7684,
      "Scookies": 7685,
      "Scool": 7686,
      "Scoord": 7687,
      "Scoordin": 7688,
      "Scoordinate": 7689,
      "Scoordinates": 7690,
      "Scop": 7691,
      "Scopied": 7692,
      "Scopies": 7693,
      "Scopy": 7694,
      "Scopying": 7695,
      "Scor": 7696,
      "Scord": 7697,
      "Score": 7698,
      "Scores": 7699,
      "Scorn": 7700,
      "Scorner": 7701,
      "Scorners": 7702,
      "Scoron": 7703,
      "Scorpo": 7704,
      "Scorpor": 7705,
      "Scorps": 7706,
      "Scorr": 7707,
      "Scorre": 7708,
      "Scorrect": 7709,
      "Scorrected": 7710,
      "Scorrection": 7711,
      "Scorrectly": 7712,
      "Scorrel": 7713,
      "Scorrelate": 7714,
      "Scorrelation": 7715,
      "Scorrespond": 7716,
      "Scorresponding": 7717,
      "Scorresponds": 7718,
      "Scors": 7719,
      "Scorso": 7720,
      "Scort": 7721,
      "Scorte": 7722,
      "Scos": 7723,
      "Scosa": 7724,
      "Scosm": 7725,
      "Scost": 7726,
      "Scosta": 7727,
      "Scostitu": 7728,
      "Scostru": 7729,
      "Scosts": 7730,
      "Scot": 7731,
      "Scou": 7732,
      "Scould": 7733,
      "Scouldn": 7734,
      "Scoun": 7735,
      "Scouncil": 7736,
      "Scount": 7737,
      "Scounted": 7738,
      "Scounter": 7739,
      "Scounting": 7740,
      "Scountries": 7741,
      "Scountry": 7742,
      "Scounts": 7743,
      "Scounty": 7744,
      "Scoup": 7745,
      "Scouple": 7746,
      "Scoupling": 7747,
      "Scour": 7748,
      "Scourage": 7749,
      "Scours": 7750,
      "Scourse": 7751,
      "Scourses": 7752,
      "Scourt": 7753,
      "Scourts": 7754,
      "Scousin": 7755,
      "Scout": 7756,
      "Scov": 7757,
      "Scover": 7758,
      "Scoverage": 7759,
      "Scovered": 7760,
      "Scovering": 7761,
      "Scovers": 7762,
      "Scow": 7763,
      "Scp": 7764,
      "Scpu": 7765,
      "Scr": 7766,
      "Scra": 7767,
      "Scrack": 7768,
      "Scraft": 7769,
      "Scrash": 7770,
      "Scrashes": 7771,
      "Scraw": 7772,
      "Scre": 7773,
      "Screate": 7774,
      "Screated": 7775,
      "Screates": 7776,
      "Screating": 7777,
      "Screation": 7778,
      "Screature": 7779,
      "Scred": 7780,
      "Scredentials": 7781,
      "Scredit": 7782,
      "Scres": 7783,
      "Screw": 7784,
      "Scri": 7785,
      "Scried": 7786,
      "Scrim": 7787,
      "Scrime": 7788,
      "Scriminal": 7789,
      "Scrisis": 7790,
      "Scrist": 7791,
      "Scrit": 7792,
      "Scriter": 7793,
      "Scriteria": 7794,
      "Scritic": 7795,
      "Scritical": 7796,
      "Scriticism": 7797,
      "Scritics": 7798,
      "Scritique": 7799,
      "Scro": 7800,
      "Scron": 7801,
      "Scross": 7802,
      "Scrossed": 7803,
      "Scrossing": 7804,
      "Scrow": 7805,
      "Scrowd": 7806,
      "Scrown": 7807,
      "Scru": 7808,
      "Scruel": 7809,
      "Scry": 7810,
      "Scrypt": 7811,
      "Scs": 7812,
      "Scsak": 7813,
      "Scsal": 7814,
      "Scss": 7815,
      "Scsv": 7816,
      "Sctx": 7817,
      "Scu": 7818,
      "Scual": 7819,
      "Scuales": 7820,
      "Scualquier": 7821,
      "Scuando": 7822,
      "Scuatro": 7823,
      "Scub": 7824,
      "Scube": 7825,
      "Scuenta": 7826,
      "Scuer": 7827,
      "Scui": 7828,
      "Scul": 7829,
      "Scult": 7830,
      "Scultiv": 7831,
      "Scultura": 7832,
      "Scultural": 7833,
      "Sculture": 7834,
      "Scum": 7835,
      "Scup": 7836,
      "Scur": 7837,
      "Scura": 7838,
      "Scurios": 7839,
      "Scuriosity": 7840,
      "Scurious": 7841,
      "Scurl": 7842,
      "Scurr": 7843,
      "Scurrency": 7844,
      "Scurrent": 7845,
      "Scurrently": 7846,
      "Scurs": 7847,
      "Scursor": 7848,
      "Scurv": 7849,
      "Scurve": 7850,
      "Scurves": 7851,
      "Scust": 7852,
      "Scustom": 7853,
      "Scustomer": 7854,
      "Scustomers": 7855,
      "Scut": 7856,
      "Scutting": 7857,
      "Scv": 7858,
      "Scx": 7859,
      "Scy": 7860,
      "Scycl": 7861,
      "Scycle": 7862,
      "Scycles": 7863,
      "Scyl": 7864,
      "Scz": 7865,
      "Sczas": 7866,
      "Sczerw": 7867,
      "Sczerwca": 7868,
      "Sczy": 7869,
      "Sd": 7870,
      "Sda": 7871,
      "Sdaar": 7872,
      "Sdabei": 7873,
      "Sdag": 7874,
      "Sdah": 7875,
      "Sdaher": 7876,
      "Sdai": 7877,
      "Sdaily": 7878,
      "Sdal": 7879,
      "Sdall": 7880,
      "Sdalla": 7881,
      "Sdalle": 7882,
      "Sdam": 7883,
      "Sdamage": 7884,
      "Sdamals": 7885,
      "Sdamit": 7886,
      "Sdan": 7887,
      "Sdance": 7888,
      "Sdanger": 7889,
      "Sdangerous": 7890,
      "Sdann": 7891,
      "Sdans": 7892,
      "Sdar": 7893,
      "Sdarauf": 7894,
      "Sdare": 7895,
      "Sdark": 7896,
      "Sdarkness": 7897,
      "Sdas": 7898,
      "Sdash": 7899,
      "Sdashed": 7900,
      "Sdass": 7901,
      "Sdat": 7902,
      "Sdata": 7903,
      "Sdatab": 7904,
      "Sdatabase": 7905,
      "Sdatabases": 7906,
      "Sdataframe": 7907,
      "Sdatas": 7908,
      "Sdataset": 7909,
      "Sdatasets": 7910,
      "Sdate": 7911,
      "Sdated": 7912,
      "Sdates": 7913,
      "Sdatetime": 7914,
      "Sdatos": 7915,
      "Sdaugh": 7916,
      "Sdaughter": 7917,
      "Sdaughters": 7918,
      "Sdav": 7919,
      "Sdavon": 7920,
      "Sdawn": 7921,
      "Sday": 7922,
      "Sdays": 7923,
      "Sdazu": 7924,
      "Sdb": 7925,
      "Sdbo": 7926,
      "Sdd": 7927,
      "Sde": 7928,
      "Sdead": 7929,
      "Sdeal": 7930,
      "Sdealing": 7931,
      "Sdear": 7932,
      "Sdeath": 7933,
      "Sdeb": 7934,
      "Sdebate": 7935,
      "Sdebe": 7936,
      "Sdebido": 7937,
      "Sdebug": 7938,
      "Sdebugger": 7939,
      "Sdebugging": 7940,
      "Sdebut": 7941,
      "Sdec": 7942,
      "Sdecay": 7943,
      "Sdece": 7944,
      "Sdecember": 7945,
      "Sdecent": 7946,
      "Sdecid": 7947,
      "Sdecide": 7948,
      "Sdecided": 7949,
      "Sdecimal": 7950,
      "Sdecir": 7951,
      "Sdecis": 7952,
      "Sdecision": 7953,
      "Sdeck": 7954,
      "Sdecl": 7955,
      "Sdecla": 7956,
      "Sdeclar": 7957,
      "Sdeclaration": 7958,
      "Sdeclarations": 7959,
      "Sdeclare": 7960,
      "Sdeclared": 7961,
      "Sdeclaring": 7962,
      "Sdecode": 7963,
      "Sdecom": 7964,
      "Sdecomposition": 7965,
      "Sdecor": 7966,
      "Sdecre": 7967,
      "Sdecrease": 7968,
      "Sded": 7969,
      "Sdedic": 7970,
      "Sdedicated": 7971,
      "Sdedu": 7972,
      "Sdeel": 7973,
      "Sdeep": 7974,
      "Sdeeper": 7975,
      "Sdeeply": 7976,
      "Sdef": 7977,
      "Sdefault": 7978,
      "Sdefaults": 7979,
      "Sdefe": 7980,
      "Sdefeat": 7981,
      "Sdefeated": 7982,
      "Sdefect": 7983,
      "Sdefence": 7984,
      "Sdefend": 7985,
      "Sdefense": 7986,
      "Sdefin": 7987,
      "Sdefine": 7988,
      "Sdefined": 7989,
      "Sdefines": 7990,
      "Sdefining": 7991,
      "Sdefinit": 7992,
      "Sdefinite": 7993,
      "Sdefinitely": 7994,
      "Sdefinition": 7995,
      "Sdefinitions": 7996,
      "Sdeg": 7997,
      "Sdegli": 7998,
      "Sdegree": 7999,
      "Sdegrees": 8000,
      "Sdei": 8001,
      "Sdeix": 8002,
      "Sdej": 8003,
      "Sdel": 8004,
      "Sdelay": 8005,
      "Sdelayed": 8006,
      "Sdeleg": 8007,
      "Sdelegate": 8008,
      "Sdelen": 8009,
      "Sdelet": 8010,
      "Sdelete": 8011,
      "Sdeleted": 8012,
      "Sdeleting": 8013,
      "Sdeli": 8014,
      "Sdeliber": 8015,
      "Sdelight": 8016,
      "Sdelimiter": 8017,
      "Sdeliver": 8018,
      "Sdelivered": 8019,
      "Sdelivery": 8020,
      "Sdell": 8021,
      "Sdella": 8022,
      "Sdelle": 8023,
      "Sdello": 8024,
      "Sdels": 8025,
      "Sdelta": 8026,
      "Sdem": 8027,
      "Sdemand": 8028,
      "Sdemande": 8029,
      "Sdemanded": 8030,
      "Sdemi": 8031,
      "Sdemo": 8032,
      "Sdemol": 8033,
      "Sdemon": 8034,
      "Sdemonstr": 8035,
      "Sdemonstrate": 8036,
      "Sdemonstrated": 8037,
      "Sdemsel": 8038,
      "Sdemselben": 8039,
      "Sden": 8040,
      "Sdenen": 8041,
      "Sdenied": 8042,
      "Sdenn": 8043,
      "Sdenomin": 8044,
      "Sdenote": 8045,
      "Sdenoted": 8046,
      "Sdenotes": 8047,
      "Sdens": 8048,
      "Sdense": 8049,
      "Sdensity": 8050,
      "Sdent": 8051,
      "Sdentro": 8052,
      "Sdep": 8053,
      "Sdepart": 8054,
      "Sdepartamento": 8055,
      "Sdepartment": 8056,
      "Sdeparture": 8057,
      "Sdepend": 8058,
      "Sdependence": 8059,
      "Sdependencies": 8060,
      "Sdependency": 8061,
      "Sdependent": 8062,
      "Sdepending": 8063,
      "Sdepends": 8064,
      "Sdeploy": 8065,
      "Sdeployed": 8066,
      "Sdeployment": 8067,
      "Sdepois": 8068,
      "Sdeport": 8069,
      "Sdepos": 8070,
      "Sdeprec": 8071,
      "Sdeprecated": 8072,
      "Sdepth": 8073,
      "Sdepuis": 8074,
      "Sdeput": 8075,
      "Sder": 8076,
      "Sdere": 8077,
      "Sderen": 8078,
      "Sderiv": 8079,
      "Sderivative": 8080,
      "Sderivatives": 8081,
      "Sderive": 8082,
      "Sderived": 8083,
      "Sderni": 8084,
      "Sdernier": 8085,
      "Sderrot": 8086,
      "Sdes": 8087,
      "Sdesar": 8088,
      "Sdesarroll": 8089,
      "Sdesarrollo": 8090,
      "Sdesc": 8091,
      "Sdescend": 8092,
      "Sdescent": 8093,
      "Sdescri": 8094,
      "Sdescribe": 8095,
      "Sdescribed": 8096,
      "Sdescribes": 8097,
      "Sdescribing": 8098,
      "Sdescript": 8099,
      "Sdescription": 8100,
      "Sdesde": 8101,
      "Sdesen": 8102,
      "Sdesenvol": 8103,
      "Sdeser": 8104,
      "Sdesert": 8105,
      "Sdesign": 8106,
      "Sdesignated": 8107,
      "Sdesigned": 8108,
      "Sdesigner": 8109,
      "Sdesigns": 8110,
      "Sdesire": 8111,
      "Sdesired": 8112,
      "Sdesktop": 8113,
      "Sdesp": 8114,
      "Sdespite": 8115,
      "Sdess": 8116,
      "Sdessen": 8117,
      "Sdessin": 8118,
      "Sdest": 8119,
      "Sdestac": 8120,
      "Sdestin": 8121,
      "Sdestination": 8122,
      "Sdestroy": 8123,
      "Sdestroyed": 8124,
      "Sdestru": 8125,
      "Sdestruct": 8126,
      "Sdestruction": 8127,
      "Sdet": 8128,
      "Sdetail": 8129,
      "Sdetailed": 8130,
      "Sdetails": 8131,
      "Sdetect": 8132,
      "Sdetected": 8133,
      "Sdetection": 8134,
      "Sdeterm": 8135,
      "Sdetermin": 8136,
      "Sdetermine": 8137,
      "Sdetermined": 8138,
      "Sdeutsch": 8139,
      "Sdeutsche": 8140,
      "Sdeutschen": 8141,
      "Sdeutscher": 8142,
      "Sdeux": 8143,
      "Sdev": 8144,
      "Sdevant": 8145,
      "Sdeve": 8146,
      "Sdevelop": 8147,
      "Sdeveloped": 8148,
      "Sdeveloper": 8149,
      "Sdevelopers": 8150,
      "Sdeveloping": 8151,
      "Sdevelopment": 8152,
      "Sdeven": 8153,
      "Sdevi": 8154,
      "Sdeviation": 8155,
      "Sdevice": 8156,
      "Sdevices": 8157,
      "Sdevient": 8158,
      "Sdevil": 8159,
      "Sdevoted": 8160,
      "Sdez": 8161,
      "Sdeze": 8162,
      "Sdf": 8163,
      "Sdi": 8164,
      "Sdia": 8165,
      "Sdiag": 8166,
      "Sdiagn": 8167,
      "Sdiagonal": 8168,
      "Sdiagram": 8169,
      "Sdialect": 8170,
      "Sdialog": 8171,
      "Sdiam": 8172,
      "Sdiameter": 8173,
      "Sdic": 8174,
      "Sdice": 8175,
      "Sdicembre": 8176,
      "Sdich": 8177,
      "Sdici": 8178,
      "Sdiciembre": 8179,
      "Sdict": 8180,
      "Sdiction": 8181,
      "Sdictionary": 8182,
      "Sdid": 8183,
      "Sdidn": 8184,
      "Sdidnt": 8185,
      "Sdie": 8186,
      "Sdied": 8187,
      "Sdies": 8188,
      "Sdiese": 8189,
      "Sdiesem": 8190,
      "Sdiesen": 8191,
      "Sdieser": 8192,
      "Sdieses": 8193,
      "Sdif": 8194,
      "Sdifer": 8195,
      "Sdiferen": 8196,
      "Sdiferentes": 8197,
      "Sdiff": 8198,
      "Sdiffer": 8199,
      "Sdifference": 8200,
      "Sdifferences": 8201,
      "Sdifferent": 8202,
      "Sdifferenti": 8203,
      "Sdifferential": 8204,
      "Sdifferently": 8205,
      "Sdifficult": 8206,
      "Sdifficulties": 8207,
      "Sdifficulty": 8208,
      "Sdiffus": 8209,
      "Sdiffusion": 8210,
      "Sdig": 8211,
      "Sdigit": 8212,
      "Sdigital": 8213,
      "Sdigits": 8214,
      "Sdign": 8215,
      "Sdil": 8216,
      "Sdim": 8217,
      "Sdimension": 8218,
      "Sdimensional": 8219,
      "Sdimensions": 8220,
      "Sdimin": 8221,
      "Sdin": 8222,
      "Sdinast": 8223,
      "Sdinner": 8224,
      "Sdio": 8225,
      "Sdioc": 8226,
      "Sdip": 8227,
      "Sdiplom": 8228,
      "Sdir": 8229,
      "Sdire": 8230,
      "Sdirect": 8231,
      "Sdirected": 8232,
      "Sdirecteur": 8233,
      "Sdirection": 8234,
      "Sdirections": 8235,
      "Sdirective": 8236,
      "Sdirectly": 8237,
      "Sdirector": 8238,
      "Sdirectories": 8239,
      "Sdirectory": 8240,
      "Sdirekt": 8241,
      "Sdirett": 8242,
      "Sdiretto": 8243,
      "Sdirig": 8244,
      "Sdirige": 8245,
      "Sdirty": 8246,
      "Sdis": 8247,
      "Sdisable": 8248,
      "Sdisabled": 8249,
      "Sdisag": 8250,
      "Sdisapp": 8251,
      "Sdisappear": 8252,
      "Sdisappeared": 8253,
      "Sdisappoint": 8254,
      "Sdisc": 8255,
      "Sdiscipl": 8256,
      "Sdiscipline": 8257,
      "Sdisco": 8258,
      "Sdiscover": 8259,
      "Sdiscovered": 8260,
      "Sdiscovery": 8261,
      "Sdiscrete": 8262,
      "Sdiscuss": 8263,
      "Sdiscussed": 8264,
      "Sdiscussion": 8265,
      "Sdise": 8266,
      "Sdisease": 8267,
      "Sdisk": 8268,
      "Sdismiss": 8269,
      "Sdisp": 8270,
      "Sdispar": 8271,
      "Sdispatch": 8272,
      "Sdispers": 8273,
      "Sdisplay": 8274,
      "Sdisplayed": 8275,
      "Sdisplaying": 8276,
      "Sdisplays": 8277,
      "Sdispon": 8278,
      "Sdisponible": 8279,
      "Sdispos": 8280,
      "Sdispose": 8281,
      "Sdisposition": 8282,
      "Sdisput": 8283,
      "Sdispute": 8284,
      "Sdiss": 8285,
      "Sdisse": 8286,
      "Sdissol": 8287,
      "Sdist": 8288,
      "Sdistance": 8289,
      "Sdistances": 8290,
      "Sdistant": 8291,
      "Sdistinct": 8292,
      "Sdistinction": 8293,
      "Sdistingu": 8294,
      "Sdistinguish": 8295,
      "Sdistinguished": 8296,
      "Sdistint": 8297,
      "Sdistrib": 8298,
      "Sdistribu": 8299,
      "Sdistributed": 8300,
      "Sdistribution": 8301,
      "Sdistributions": 8302,
      "Sdistrict": 8303,
      "Sdistricts": 8304,
      "Sdistrito": 8305,
      "Sdisturb": 8306,
      "Sdit": 8307,
      "Sdiv": 8308,
      "Sdivent": 8309,
      "Sdiver": 8310,
      "Sdivers": 8311,
      "Sdiverse": 8312,
      "Sdiverses": 8313,
      "Sdiversi": 8314,
      "Sdiversos": 8315,
      "Sdivid": 8316,
      "Sdivide": 8317,
      "Sdivided": 8318,
      "Sdivine": 8319,
      "Sdivis": 8320,
      "Sdivision": 8321,
      "Sdivisions": 8322,
      "Sdivor": 8323,
      "Sdivs": 8324,
      "Sdix": 8325,
      "Sdjango": 8326,
      "Sdla": 8327,
      "Sdll": 8328,
      "Sdo": 8329,
      "Sdob": 8330,
      "Sdoc": 8331,
      "Sdoch": 8332,
      "Sdock": 8333,
      "Sdocker": 8334,
      "Sdocs": 8335,
      "Sdoctor": 8336,
      "Sdoctrine": 8337,
      "Sdocument": 8338,
      "Sdocumentation": 8339,
      "Sdocumented": 8340,
      "Sdocuments": 8341,
      "Sdod": 8342,
      "Sdoes": 8343,
      "Sdoesn": 8344,
      "Sdoesnt": 8345,
      "Sdog": 8346,
      "Sdogs": 8347,
      "Sdoi": 8348,
      "Sdoing": 8349,
      "Sdois": 8350,
      "Sdoit": 8351,
      "Sdok": 8352,
      "Sdokument": 8353,
      "Sdol": 8354,
      "Sdoll": 8355,
      "Sdollars": 8356,
      "Sdolor": 8357,
      "Sdom": 8358,
      "Sdomain": 8359,
      "Sdomains": 8360,
      "Sdomestic": 8361,
      "Sdomin": 8362,
      "Sdominant": 8363,
      "Sdon": 8364,
      "Sdonc": 8365,
      "Sdonde": 8366,
      "Sdone": 8367,
      "Sdonn": 8368,
      "Sdonna": 8369,
      "Sdonne": 8370,
      "Sdonner": 8371,
      "Sdont": 8372,
      "Sdoor": 8373,
      "Sdoors": 8374,
      "Sdop": 8375,
      "Sdopo": 8376,
      "Sdor": 8377,
      "Sdort": 8378,
      "Sdos": 8379,
      "Sdost": 8380,
      "Sdot": 8381,
      "Sdou": 8382,
      "Sdoub": 8383,
      "Sdouble": 8384,
      "Sdoubles": 8385,
      "Sdoubt": 8386,
      "Sdov": 8387,
      "Sdove": 8388,
      "Sdow": 8389,
      "Sdown": 8390,
      "Sdownload": 8391,
      "Sdownloaded": 8392,
      "Sdownloading": 8393,
      "Sdozen": 8394,
      "Sdr": 8395,
      "Sdra": 8396,
      "Sdraft": 8397,
      "Sdrag": 8398,
      "Sdram": 8399,
      "Sdrama": 8400,
      "Sdraw": 8401,
      "Sdrawing": 8402,
      "Sdrawn": 8403,
      "Sdre": 8404,
      "Sdread": 8405,
      "Sdream": 8406,
      "Sdrei": 8407,
      "Sdress": 8408,
      "Sdressed": 8409,
      "Sdrew": 8410,
      "Sdri": 8411,
      "Sdrie": 8412,
      "Sdrink": 8413,
      "Sdriv": 8414,
      "Sdrive": 8415,
      "Sdriven": 8416,
      "Sdriver": 8417,
      "Sdrivers": 8418,
      "Sdrives": 8419,
      "Sdriving": 8420,
      "Sdro": 8421,
      "Sdroit": 8422,
      "Sdroite": 8423,
      "Sdrop": 8424,
      "Sdropdown": 8425,
      "Sdropped": 8426,
      "Sdrove": 8427,
      "Sdru": 8428,
      "Sdrug": 8429,
      "Sdrum": 8430,
      "Sdrums": 8431,
      "Sdry": 8432,
      "Sds": 8433,
      "Sdst": 8434,
      "Sdt": 8435,
      "Sdtype": 8436,
      "Sdu": 8437,
      "Sdual": 8438,
      "Sduas": 8439,
      "Sdub": 8440,
      "Sduc": 8441,
      "Sduch": 8442,
      "Sdue": 8443,
      "Sdues": 8444,
      "Sdummy": 8445,
      "Sdump": 8446,
      "Sdup": 8447,
      "Sduplicate": 8448,
      "Sduplicates": 8449,
      "Sdur": 8450,
      "Sdurant": 8451,
      "Sdurante": 8452,
      "Sduration": 8453,
      "Sdurch": 8454,
      "Sduring": 8455,
      "Sdus": 8456,
      "Sdust": 8457,
      "Sdut": 8458,
      "Sduties": 8459,
      "Sduty": 8460,
      "Sdv": 8461,
      "Sdw": 8462,
      "Sdwell": 8463,
      "Sdx": 8464,
      "Sdy": 8465,
      "Sdying": 8466,
      "Sdynam": 8467,
      "Sdynamic": 8468,
      "Sdynamically": 8469,
      "Sdynamics": 8470,
      "Sdynast": 8471,
      "Sdz": 8472,
      "Sdzie": 8473,
      "Se": 8474,
      "Seach": 8475,
      "Seager": 8476,
      "Sear": 8477,
      "Searlier": 8478,
      "Searliest": 8479,
      "Searly": 8480,
      "Searned": 8481,
      "Searnest": 8482,
      "Sears": 8483,
      "Searth": 8484,
      "Seas": 8485,
      "Sease": 8486,
      "Seasier": 8487,
      "Seasiest": 8488,
      "Seasily": 8489,
      "Seast": 8490,
      "Seastern": 8491,
      "Seasy": 8492,
      "Seat": 8493,
      "Seb": 8494,
      "Seben": 8495,
      "Sebenfalls": 8496,
      "Sec": 8497,
      "Secc": 8498,
      "Secho": 8499,
      "Sechter": 8500,
      "Seclipse": 8501,
      "Secon": 8502,
      "Seconom": 8503,
      "Seconomic": 8504,
      "Seconomy": 8505,
      "Sed": 8506,
      "Sedge": 8507,
      "Sedges": 8508,
      "Sedific": 8509,
      "Sedificio": 8510,
      "Sedit": 8511,
      "Sedited": 8512,
      "Sediting": 8513,
      "Sedition": 8514,
      "Seditor": 8515,
      "Seduc": 8516,
      "Seducated": 8517,
      "Seducation": 8518,
      "Seducational": 8519,
      "Seen": 8520,
      "Seer": 8521,
      "Seerst": 8522,
      "Seerste": 8523,
      "Seeuw": 8524,
      "Sefect": 8525,
      "Seff": 8526,
      "Seffect": 8527,
      "Seffective": 8528,
      "Seffectively": 8529,
      "Seffects": 8530,
      "Seffet": 8531,
      "Seffic": 8532,
      "Sefficiency": 8533,
      "Sefficient": 8534,
      "Sefficiently": 8535,
      "Seffort": 8536,
      "Sefforts": 8537,
      "Sefter": 8538,
      "Seg": 8539,
      "Segg": 8540,
      "Seggs": 8541,
      "Segy": 8542,
      "Sehem": 8543,
      "Sehemal": 8544,
      "Sehemaligen": 8545,
      "Seig": 8546,
      "Seigen": 8547,
      "Seigenen": 8548,
      "Seigenvalues": 8549,
      "Seigh": 8550,
      "Seight": 8551,
      "Sein": 8552,
      "Seind": 8553,
      "Seine": 8554,
      "Seinem": 8555,
      "Seinen": 8556,
      "Seiner": 8557,
      "Seines": 8558,
      "Seing": 8559,
      "Seinges": 8560,
      "Seingesetzt": 8561,
      "Seinige": 8562,
      "Seinmal": 8563,
      "Seinz": 8564,
      "Seither": 8565,
      "Sej": 8566,
      "Sejec": 8567,
      "Sejemplo": 8568,
      "Sek": 8569,
      "Sekonom": 8570,
      "Sel": 8571,
      "Sela": 8572,
      "Selabor": 8573,
      "Selaborate": 8574,
      "Selder": 8575,
      "Sele": 8576,
      "Select": 8577,
      "Selected": 8578,
      "Selection": 8579,
      "Selections": 8580,
      "Selectric": 8581,
      "Selectro": 8582,
      "Selectron": 8583,
      "Selectronic": 8584,
      "Selectrons": 8585,
      "Seleg": 8586,
      "Selegant": 8587,
      "Selektr": 8588,
      "Selem": 8589,
      "Selement": 8590,
      "Selementary": 8591,
      "Selementos": 8592,
      "Selements": 8593,
      "Selet": 8594,
      "Selev": 8595,
      "Seleven": 8596,
      "Selif": 8597,
      "Selim": 8598,
      "Selimin": 8599,
      "Seliminate": 8600,
      "Sell": 8601,
      "Sella": 8602,
      "Selle": 8603,
      "Sellen": 8604,
      "Seller": 8605,
      "Selles": 8606,
      "Selli": 8607,
      "Sellos": 8608,
      "Sels": 8609,
      "Selse": 8610,
      "Selsewhere": 8611,
      "Sem": 8612,
      "Semail": 8613,
      "Semails": 8614,
      "Semb": 8615,
      "Sembar": 8616,
      "Sembargo": 8617,
      "Sembed": 8618,
      "Sembedded": 8619,
      "Sembedding": 8620,
      "Semer": 8621,
      "Semission": 8622,
      "Semit": 8623,
      "Semot": 8624,
      "Semp": 8625,
      "Semphas": 8626,
      "Sempir": 8627,
      "Semple": 8628,
      "Semploy": 8629,
      "Semployed": 8630,
      "Semployee": 8631,
      "Semployees": 8632,
      "Sempres": 8633,
      "Sempresa": 8634,
      "Sempty": 8635,
      "Semulator": 8636,
      "Sen": 8637,
      "Senable": 8638,
      "Senabled": 8639,
      "Senables": 8640,
      "Senc": 8641,
      "Sencode": 8642,
      "Sencoded": 8643,
      "Sencoding": 8644,
      "Sencontr": 8645,
      "Sencore": 8646,
      "Sencou": 8647,
      "Sencounter": 8648,
      "Sencountered": 8649,
      "Sencourag": 8650,
      "Sencrypt": 8651,
      "Sencrypted": 8652,
      "Sencryption": 8653,
      "Sencuent": 8654,
      "Sencuentra": 8655,
      "Send": 8656,
      "Sende": 8657,
      "Sendeav": 8658,
      "Sended": 8659,
      "Sending": 8660,
      "Sendl": 8661,
      "Sendpoint": 8662,
      "Sends": 8663,
      "Senem": 8664,
      "Senemies": 8665,
      "Senemy": 8666,
      "Sener": 8667,
      "Senerg": 8668,
      "Senergy": 8669,
      "Senero": 8670,
      "Senf": 8671,
      "Senfants": 8672,
      "Senfer": 8673,
      "Senfor": 8674,
      "Seng": 8675,
      "Sengag": 8676,
      "Sengaged": 8677,
      "Sengine": 8678,
      "Sengineer": 8679,
      "Sengineering": 8680,
      "Sengines": 8681,
      "Sengl": 8682,
[...]
